{
  "version": "1.0",
  "truncation": null,
  "padding": null,
  "added_tokens": [
    {
      "id": 0,
      "content": "[PAD]",
      "single_word": false,
      "lstrip": false,
      "rstrip": false,
      "normalized": false,
      "special": true
    },
    {
      "id": 1,
      "content": "[UNK]",
      "single_word": false,
      "lstrip": false,
      "rstrip": false,
      "normalized": false,
      "special": true
    },
    {
      "id": 2,
      "content": "[CLS]",
      "single_word": false,
      "lstrip": false,
      "rstrip": false,
      "normalized": false,
      "special": true
    },
    {
      "id": 3,
      "content": "[SEP]",
      "single_word": false,
      "lstrip": false,
      "rstrip": false,
      "normalized": false,
      "special": true
    },
    {
      "id": 4,
      "content": "[MASK]",
      "single_word": false,
      "lstrip": false,
      "rstrip": false,
      "normalized": false,
      "special": true
    }
  ],
  "normalizer": {
    "type": "BertNormalizer",
    "clean_text": true,
    "handle_chinese_chars": true,
    "strip_accents": null,
    "lowercase": false
  },
  "pre_tokenizer": {
    "type": "BertPreTokenizer"
  },
  "post_processor": {
    "type": "TemplateProcessing",
    "single": [
      {
        "SpecialToken": {
          "id": "[CLS]",
          "type_id": 0
        }
      },
      {
        "Sequence": {
          "id": "A",
          "type_id": 0
        }
      },
      {
        "SpecialToken": {
          "id": "[SEP]",
          "type_id": 0
        }
      }
    ],
    "pair": [
      {
        "SpecialToken": {
          "id": "[CLS]",
          "type_id": 0
        }
      },
      {
        "Sequence": {
          "id": "A",
          "type_id": 0
        }
      },
      {
        "SpecialToken": {
          "id": "[SEP]",
          "type_id": 0
        }
      },
      {
        "Sequence": {
          "id": "B",
          "type_id": 1
        }
      },
      {
        "SpecialToken": {
          "id": "[SEP]",
          "type_id": 1
        }
      }
    ],
    "special_tokens": {
      "[CLS]": {
        "id": "[CLS]",
        "ids": [
          2
        ],
        "tokens": [
          "[CLS]"
        ]
      },
      "[SEP]": {
        "id": "[SEP]",
        "ids": [
          3
        ],
        "tokens": [
          "[SEP]"
        ]
      }
    }
  },
  "decoder": {
    "type": "WordPiece",
    "prefix": "##",
    "cleanup": true
  },
  "model": {
    "type": "WordPiece",
    "unk_token": "[UNK]",
    "continuing_subword_prefix": "##",
    "max_input_chars_per_word": 100,
    "vocab": {
      "[PAD]": 0,
      "[UNK]": 1,
      "[CLS]": 2,
      "[SEP]": 3,
      "[MASK]": 4,
      "!": 5,
      "\"": 6,
      "#": 7,
      "$": 8,
      "%": 9,
      "&": 10,
      "'": 11,
      "(": 12,
      ")": 13,
      "*": 14,
      "+": 15,
      ",": 16,
      "-": 17,
      ".": 18,
      "/": 19,
      "0": 20,
      "1": 21,
      "2": 22,
      "3": 23,
      "4": 24,
      "5": 25,
      "6": 26,
      "7": 27,
      "8": 28,
      "9": 29,
      ":": 30,
      ";": 31,
      "<": 32,
      "=": 33,
      ">": 34,
      "?": 35,
      "@": 36,
      "A": 37,
      "B": 38,
      "C": 39,
      "D": 40,
      "E": 41,
      "F": 42,
      "G": 43,
      "H": 44,
      "I": 45,
      "J": 46,
      "K": 47,
      "L": 48,
      "M": 49,
      "N": 50,
      "O": 51,
      "P": 52,
      "Q": 53,
      "R": 54,
      "S": 55,
      "T": 56,
      "U": 57,
      "V": 58,
      "W": 59,
      "X": 60,
      "Y": 61,
      "Z": 62,
      "[": 63,
      "\\": 64,
      "]": 65,
      "^": 66,
      "_": 67,
      "`": 68,
      "a": 69,
      "b": 70,
      "c": 71,
      "d": 72,
      "e": 73,
      "f": 74,
      "g": 75,
      "h": 76,
      "i": 77,
      "j": 78,
      "k": 79,
      "l": 80,
      "m": 81,
      "n": 82,
      "o": 83,
      "p": 84,
      "q": 85,
      "r": 86,
      "s": 87,
      "t": 88,
      "u": 89,
      "v": 90,
      "w": 91,
      "x": 92,
      "y": 93,
      "z": 94,
      "{": 95,
      "}": 96,
      "©": 97,
      "ª": 98,
      "°": 99,
      "±": 100,
      "º": 101,
      "½": 102,
      "¾": 103,
      "Ã": 104,
      "Ç": 105,
      "É": 106,
      "Ö": 107,
      "Ü": 108,
      "Ý": 109,
      "Þ": 110,
      "á": 111,
      "â": 112,
      "ç": 113,
      "è": 114,
      "é": 115,
      "ë": 116,
      "í": 117,
      "î": 118,
      "ï": 119,
      "ð": 120,
      "ñ": 121,
      "ó": 122,
      "ö": 123,
      "ø": 124,
      "û": 125,
      "ü": 126,
      "ý": 127,
      "þ": 128,
      "ć": 129,
      "č": 130,
      "đ": 131,
      "Ğ": 132,
      "ğ": 133,
      "İ": 134,
      "ı": 135,
      "Ş": 136,
      "ş": 137,
      "Š": 138,
      "š": 139,
      "Ž": 140,
      "ž": 141,
      "μ": 142,
      "а": 143,
      "б": 144,
      "г": 145,
      "и": 146,
      "л": 147,
      "р": 148,
      "у": 149,
      "х": 150,
      "ъ": 151,
      "я": 152,
      "–": 153,
      "—": 154,
      "‘": 155,
      "’": 156,
      "“": 157,
      "”": 158,
      "…": 159,
      "##l": 160,
      "##a": 161,
      "##ş": 162,
      "##ı": 163,
      "##m": 164,
      "##s": 165,
      "##o": 166,
      "##y": 167,
      "##i": 168,
      "##t": 169,
      "##d": 170,
      "##k": 171,
      "##r": 172,
      "##n": 173,
      "##e": 174,
      "##f": 175,
      "##u": 176,
      "##b": 177,
      "##p": 178,
      "##c": 179,
      "##ğ": 180,
      "##T": 181,
      "##A": 182,
      "##P": 183,
      "##ç": 184,
      "##g": 185,
      "##z": 186,
      "##v": 187,
      "##ö": 188,
      "##ü": 189,
      "##h": 190,
      "##j": 191,
      "##w": 192,
      "##S": 193,
      "##Y": 194,
      "##H": 195,
      "##D": 196,
      "##7": 197,
      "##3": 198,
      "##E": 199,
      "##4": 200,
      "##ð": 201,
      "##6": 202,
      "##1": 203,
      "##O": 204,
      "##M": 205,
      "##9": 206,
      "##F": 207,
      "##R": 208,
      "##C": 209,
      "##N": 210,
      "##0": 211,
      "##5": 212,
      "##â": 213,
      "##2": 214,
      "##8": 215,
      "##B": 216,
      "##L": 217,
      "##I": 218,
      "##x": 219,
      "##q": 220,
      "##G": 221,
      "##X": 222,
      "##K": 223,
      "##U": 224,
      "##İ": 225,
      "##W": 226,
      "##þ": 227,
      "##Z": 228,
      "##V": 229,
      "##é": 230,
      "##º": 231,
      "##î": 232,
      "##J": 233,
      "##ž": 234,
      "##Ü": 235,
      "##°": 236,
      "##Q": 237,
      "##Ö": 238,
      "##ø": 239,
      "##ë": 240,
      "##É": 241,
      "##Ş": 242,
      "##š": 243,
      "##û": 244,
      "##í": 245,
      "##č": 246,
      "##Ç": 247,
      "##đ": 248,
      "##ć": 249,
      "##х": 250,
      "##½": 251,
      "##ï": 252,
      "##я": 253,
      "##Ý": 254,
      "##г": 255,
      "##ъ": 256,
      "##л": 257,
      "##а": 258,
      "##р": 259,
      "##и": 260,
      "##Ğ": 261,
      "##ó": 262,
      "##á": 263,
      "##ñ": 264,
      "##è": 265,
      "##ý": 266,
      "##Ã": 267,
      "##©": 268,
      "##у": 269,
      "##la": 270,
      "##er": 271,
      "##in": 272,
      "##an": 273,
      "##ın": 274,
      "##ar": 275,
      "##en": 276,
      "##ir": 277,
      "##ak": 278,
      "##lar": 279,
      "##il": 280,
      "##ma": 281,
      "##el": 282,
      "##ek": 283,
      "##da": 284,
      "##le": 285,
      "##un": 286,
      "##or": 287,
      "##es": 288,
      "##on": 289,
      "##et": 290,
      "ve": 291,
      "##di": 292,
      "##li": 293,
      "##as": 294,
      "##lı": 295,
      "##de": 296,
      "##ler": 297,
      "bir": 298,
      "##ır": 299,
      "##at": 300,
      "##is": 301,
      "##iy": 302,
      "##lan": 303,
      "##ur": 304,
      "##ün": 305,
      "de": 306,
      "##ya": 307,
      "##aş": 308,
      "##im": 309,
      "##dı": 310,
      "da": 311,
      "##lu": 312,
      "##ti": 313,
      "##ür": 314,
      "##ların": 315,
      "ka": 316,
      "##em": 317,
      "##ik": 318,
      "##ında": 319,
      "##tan": 320,
      "##ini": 321,
      "##os": 322,
      "##al": 323,
      "##ul": 324,
      "##ey": 325,
      "##ör": 326,
      "##yor": 327,
      "##ıl": 328,
      "ya": 329,
      "##sı": 330,
      "##ov": 331,
      "ol": 332,
      "##dan": 333,
      "##ük": 334,
      "##iş": 335,
      "##ec": 336,
      "##du": 337,
      "##ağ": 338,
      "##am": 339,
      "##ları": 340,
      "##ine": 341,
      "##um": 342,
      "##tı": 343,
      "##den": 344,
      "##az": 345,
      "##ay": 346,
      "##anı": 347,
      "iç": 348,
      "##esi": 349,
      "##iz": 350,
      "##lk": 351,
      "##iler": 352,
      "##istan": 353,
      "##eler": 354,
      "##ut": 355,
      "##inin": 356,
      "için": 357,
      "##ını": 358,
      "##ra": 359,
      "##ği": 360,
      "##onu": 361,
      "##om": 362,
      "baş": 363,
      "##üz": 364,
      "gör": 365,
      "##eç": 366,
      "##üm": 367,
      "##aki": 368,
      "##av": 369,
      "et": 370,
      "yap": 371,
      "##ara": 372,
      "##cak": 373,
      "##ık": 374,
      "##inde": 375,
      "##ev": 376,
      "##ğı": 377,
      "##ki": 378,
      "##st": 379,
      "ön": 380,
      "sö": 381,
      "##ış": 382,
      "Sır": 383,
      "##ol": 384,
      "##ed": 385,
      "ar": 386,
      "##leri": 387,
      "##ab": 388,
      "bu": 389,
      "##ok": 390,
      "kar": 391,
      "in": 392,
      "##ah": 393,
      "##laş": 394,
      "ülk": 395,
      "ger": 396,
      "gün": 397,
      "ver": 398,
      "##iç": 399,
      "AB": 400,
      "##it": 401,
      "##lık": 402,
      "##op": 403,
      "##eki": 404,
      "##ön": 405,
      "yıl": 406,
      "##ması": 407,
      "##ına": 408,
      "##me": 409,
      "oldu": 410,
      "##te": 411,
      "##unu": 412,
      "##yle": 413,
      "al": 414,
      "##ası": 415,
      "##ru": 416,
      "son": 417,
      "an": 418,
      "##ta": 419,
      "konu": 420,
      "aç": 421,
      "gel": 422,
      "##iyor": 423,
      "##mas": 424,
      "ay": 425,
      "##lik": 426,
      "##mak": 427,
      "##ova": 428,
      "##len": 429,
      "Kos": 430,
      "##art": 431,
      "##ha": 432,
      "##ro": 433,
      "##ca": 434,
      "nin": 435,
      "##ından": 436,
      "##üş": 437,
      "##lg": 438,
      "##cı": 439,
      "en": 440,
      "##ının": 441,
      "##ğini": 442,
      "##oğ": 443,
      "sür": 444,
      "yer": 445,
      "##ım": 446,
      "Kosova": 447,
      "nın": 448,
      "##ıs": 449,
      "or": 450,
      "##daki": 451,
      "##alı": 452,
      "olduğ": 453,
      "##asında": 454,
      "##ül": 455,
      "##lama": 456,
      "iş": 457,
      "##eni": 458,
      "##00": 459,
      "ile": 460,
      "##yon": 461,
      "##şı": 462,
      "##mek": 463,
      "bü": 464,
      "##uz": 465,
      "##larak": 466,
      "##bistan": 467,
      "ın": 468,
      "Sırbistan": 469,
      "günü": 470,
      "##şt": 471,
      "##ürk": 472,
      "##ce": 473,
      "olan": 474,
      "dev": 475,
      "olarak": 476,
      "##zer": 477,
      "Türk": 478,
      "##unda": 479,
      "söyle": 480,
      "##rup": 481,
      "##ilm": 482,
      "##ili": 483,
      "Av": 484,
      "##luk": 485,
      "bul": 486,
      "##iye": 487,
      "An": 488,
      "##ece": 489,
      "kur": 490,
      "##id": 491,
      "bel": 492,
      "##let": 493,
      "##ecek": 494,
      "##ez": 495,
      "##eri": 496,
      "yar": 497,
      "yön": 498,
      "Bu": 499,
      "##ladı": 500,
      "##deki": 501,
      "##üküm": 502,
      "kat": 503,
      "geç": 504,
      "Ar": 505,
      "##larını": 506,
      "##dir": 507,
      "##yla": 508,
      "üzer": 509,
      "daha": 510,
      "##dır": 511,
      "Avrup": 512,
      "top": 513,
      "##enin": 514,
      "##akan": 515,
      "değ": 516,
      "##lus": 517,
      "üy": 518,
      "gö": 519,
      "ola": 520,
      "##kan": 521,
      "##ali": 522,
      "gü": 523,
      "##imes": 524,
      "dedi": 525,
      "sor": 526,
      "gerek": 527,
      "##araf": 528,
      "yeni": 529,
      "##isi": 530,
      "##ükümet": 531,
      "##eş": 532,
      "kay": 533,
      "##dar": 534,
      "##ka": 535,
      "##kanı": 536,
      "söyledi": 537,
      "bö": 538,
      "taraf": 539,
      "Avrupa": 540,
      "##man": 541,
      "ek": 542,
      "##ers": 543,
      "karşı": 544,
      "Baş": 545,
      "Sırp": 546,
      "su": 547,
      "Hır": 548,
      "##ap": 549,
      "##vat": 550,
      "düz": 551,
      "uy": 552,
      "Mak": 553,
      "200": 554,
      "##ip": 555,
      "##inden": 556,
      "##uk": 557,
      "Hırvat": 558,
      "ed": 559,
      "##tır": 560,
      "##bil": 561,
      "##eye": 562,
      "mil": 563,
      "##edon": 564,
      "##lü": 565,
      "##ğını": 566,
      "##cağ": 567,
      "Makedon": 568,
      "is": 569,
      "##unun": 570,
      "##ede": 571,
      "##diği": 572,
      "##ız": 573,
      "büy": 574,
      "sağ": 575,
      "##bir": 576,
      "##est": 577,
      "##iyas": 578,
      "##maya": 579,
      "##ef": 580,
      "açık": 581,
      "etti": 582,
      "##us": 583,
      "##ılı": 584,
      "##avut": 585,
      "##hur": 586,
      "##men": 587,
      "konus": 588,
      "yak": 589,
      "##ski": 590,
      "##unan": 591,
      "bil": 592,
      "hükümet": 593,
      "##umhur": 594,
      "Türkiye": 595,
      "##akanı": 596,
      "##ci": 597,
      "Arn": 598,
      "Arnavut": 599,
      "##dım": 600,
      "seç": 601,
      "##ındaki": 602,
      "##iğ": 603,
      "##ekle": 604,
      "göre": 605,
      "##ad": 606,
      "belir": 607,
      "##larının": 608,
      "çık": 609,
      "ta": 610,
      "yol": 611,
      "yet": 612,
      "##iyle": 613,
      "##oviç": 614,
      "çok": 615,
      "olduğunu": 616,
      "##edi": 617,
      "##na": 618,
      "##ken": 619,
      "##elik": 620,
      "##yan": 621,
      "##ib": 622,
      "suç": 623,
      "söz": 624,
      "yaş": 625,
      "dur": 626,
      "##oli": 627,
      "##af": 628,
      "##yı": 629,
      "##onom": 630,
      "##lara": 631,
      "hab": 632,
      "yaptı": 633,
      "ilg": 634,
      "sah": 635,
      "iki": 636,
      "daki": 637,
      "##gar": 638,
      "çalı": 639,
      "Bel": 640,
      "##aret": 641,
      "büyük": 642,
      "yapı": 643,
      "sav": 644,
      "##tik": 645,
      "##eyi": 646,
      "##kil": 647,
      "siyas": 648,
      "anlaş": 649,
      "bölg": 650,
      "ken": 651,
      "##mış": 652,
      "So": 653,
      "##ari": 654,
      "##ven": 655,
      "yüz": 656,
      "##lerin": 657,
      "pro": 658,
      "##gu": 659,
      "##arası": 660,
      "arasında": 661,
      "##dığı": 662,
      "tarafından": 663,
      "gen": 664,
      "hak": 665,
      "##arı": 666,
      "Bul": 667,
      "##luslar": 668,
      "##ist": 669,
      "##he": 670,
      "te": 671,
      "##luslararası": 672,
      "##una": 673,
      "bağ": 674,
      "Makedonya": 675,
      "devam": 676,
      "Kara": 677,
      "Bulgar": 678,
      "BH": 679,
      "##erk": 680,
      "Yunan": 681,
      "olu": 682,
      "##liği": 683,
      "##erek": 684,
      "düzen": 685,
      "##ilen": 686,
      "##mesi": 687,
      "Rom": 688,
      "##baş": 689,
      "##ştir": 690,
      "gerç": 691,
      "on": 692,
      "19": 693,
      "##larına": 694,
      "##mes": 695,
      "##eleri": 696,
      "ne": 697,
      "##ster": 698,
      "##üks": 699,
      "yan": 700,
      "##umhurbaş": 701,
      "##etir": 702,
      "##ic": 703,
      "##lerini": 704,
      "##gra": 705,
      "çalış": 706,
      "getir": 707,
      "kadar": 708,
      "önem": 709,
      "##ekt": 710,
      "##iğer": 711,
      "sır": 712,
      "hal": 713,
      "##ıyor": 714,
      "bulun": 715,
      "ekonom": 716,
      "öz": 717,
      "##lığı": 718,
      "ilgili": 719,
      "##sk": 720,
      "av": 721,
      "den": 722,
      "uz": 723,
      "##üt": 724,
      "ist": 725,
      "ara": 726,
      "##sız": 727,
      "say": 728,
      "görüş": 729,
      "Hırvatistan": 730,
      "göster": 731,
      "ama": 732,
      "Başb": 733,
      "##ast": 734,
      "Eur": 735,
      "##cu": 736,
      "##kin": 737,
      "düş": 738,
      "##mu": 739,
      "dan": 740,
      "##grad": 741,
      "##anya": 742,
      "olma": 743,
      "##re": 744,
      "şek": 745,
      "##işt": 746,
      "Belgrad": 747,
      "dön": 748,
      "##eli": 749,
      "yas": 750,
      "kap": 751,
      "poli": 752,
      "tek": 753,
      "mü": 754,
      "karar": 755,
      "##ibi": 756,
      "görev": 757,
      "yaptığı": 758,
      "##larında": 759,
      "durum": 760,
      "belirt": 761,
      "##osna": 762,
      "Times": 763,
      "diğer": 764,
      "iy": 765,
      "##üyor": 766,
      "SE": 767,
      "##oy": 768,
      "her": 769,
      "##ans": 770,
      "##bul": 771,
      "par": 772,
      "##rı": 773,
      "##san": 774,
      "zam": 775,
      "kon": 776,
      "##lıyor": 777,
      "##ildi": 778,
      "seçim": 779,
      "siyasi": 780,
      "##rat": 781,
      "##ahk": 782,
      "##ket": 783,
      "konusunda": 784,
      "Paz": 785,
      "ilk": 786,
      "el": 787,
      "Arnavutluk": 788,
      "##dür": 789,
      "ülkeler": 790,
      "##ileri": 791,
      "üzere": 792,
      "##dağ": 793,
      "alan": 794,
      "##erkez": 795,
      "##ğu": 796,
      "Karadağ": 797,
      "##lacak": 798,
      "dest": 799,
      "##ean": 800,
      "avro": 801,
      "az": 802,
      "##öz": 803,
      "##ret": 804,
      "doğ": 805,
      "milyon": 806,
      "İs": 807,
      "##masına": 808,
      "##liğ": 809,
      "lid": 810,
      "##iyet": 811,
      "Bakanı": 812,
      "##indeki": 813,
      "Europ": 814,
      "plan": 815,
      "un": 816,
      "##azla": 817,
      "##masını": 818,
      "tut": 819,
      "ref": 820,
      "##anda": 821,
      "var": 822,
      "fazla": 823,
      "##liş": 824,
      "güven": 825,
      "##gi": 826,
      "ABD": 827,
      "olduğu": 828,
      "##ahkem": 829,
      "SET": 830,
      "önemli": 831,
      "edi": 832,
      "SETimes": 833,
      "müz": 834,
      "sahip": 835,
      "alt": 836,
      "##det": 837,
      "yardım": 838,
      "##lığ": 839,
      "tem": 840,
      "büt": 841,
      "Sout": 842,
      "oy": 843,
      "##ştur": 844,
      "European": 845,
      "##iv": 846,
      "##heast": 847,
      "Southeast": 848,
      "20": 849,
      "Bulgaristan": 850,
      "##esinin": 851,
      "10": 852,
      "##üs": 853,
      "dem": 854,
      "##umhurbaşkanı": 855,
      "##ünde": 856,
      "diy": 857,
      "gerçekle": 858,
      "Bir": 859,
      "##lerine": 860,
      "##işleri": 861,
      "kal": 862,
      "kul": 863,
      "iliş": 864,
      "##meye": 865,
      "##lanan": 866,
      "kr": 867,
      "ih": 868,
      "üç": 869,
      "##dığını": 870,
      "konuş": 871,
      "##AT": 872,
      "ülkenin": 873,
      "##esinde": 874,
      "sonra": 875,
      "##lerle": 876,
      "##ade": 877,
      "başla": 878,
      "##miş": 879,
      "işbir": 880,
      "Romanya": 881,
      "yetkil": 882,
      "##dü": 883,
      "ort": 884,
      "Yunanistan": 885,
      "gibi": 886,
      "ye": 887,
      "olmak": 888,
      "uygu": 889,
      "##imiz": 890,
      "gir": 891,
      "özel": 892,
      "sonr": 893,
      "NAT": 894,
      "ada": 895,
      "##esel": 896,
      "NATO": 897,
      "BM": 898,
      "bin": 899,
      "##lam": 900,
      "##tür": 901,
      "##ba": 902,
      "##aker": 903,
      "ko": 904,
      "11": 905,
      "##lerinin": 906,
      "ediyor": 907,
      "##cağını": 908,
      "##ilmesi": 909,
      "kiş": 910,
      "uluslararası": 911,
      "ülke": 912,
      "##zan": 913,
      "Ancak": 914,
      "##ye": 915,
      "##larda": 916,
      "im": 917,
      "yaklaş": 918,
      "sonu": 919,
      "##azır": 920,
      "##br": 921,
      "##kı": 922,
      "kullan": 923,
      "er": 924,
      "##lere": 925,
      "bek": 926,
      "##uy": 927,
      "##artesi": 928,
      "haberi": 929,
      "##meler": 930,
      "##za": 931,
      "Bal": 932,
      "##atır": 933,
      "birlik": 934,
      "müzaker": 935,
      "toplu": 936,
      "anlaşma": 937,
      "tari": 938,
      "çağ": 939,
      "Kom": 940,
      "kabul": 941,
      "##lenen": 942,
      "##acak": 943,
      "##yonu": 944,
      "##üp": 945,
      "##nak": 946,
      "hazır": 947,
      "güç": 948,
      "##gı": 949,
      "yüzde": 950,
      "açıklama": 951,
      "devlet": 952,
      "yılında": 953,
      "##eceğini": 954,
      "##imi": 955,
      "##orm": 956,
      "verdiği": 957,
      "ise": 958,
      "##ünü": 959,
      "##sa": 960,
      "Balkan": 961,
      "Cumhurbaşkanı": 962,
      "##leştir": 963,
      "Al": 964,
      "##ıldı": 965,
      "lider": 966,
      "##iyat": 967,
      "##ada": 968,
      "önce": 969,
      "##arak": 970,
      "##lantı": 971,
      "haf": 972,
      "##sil": 973,
      "12": 974,
      "bas": 975,
      "şekil": 976,
      "Pr": 977,
      "##ile": 978,
      "tarih": 979,
      "##ina": 980,
      "orta": 981,
      "##ilerin": 982,
      "Or": 983,
      "savaş": 984,
      "##ulu": 985,
      "ser": 986,
      "gelen": 987,
      "sorun": 988,
      "dış": 989,
      "Re": 990,
      "199": 991,
      "##lav": 992,
      "şekilde": 993,
      "part": 994,
      "kom": 995,
      "##apor": 996,
      "##ko": 997,
      "##suz": 998,
      "##rar": 999,
      "insan": 1000,
      "##ji": 1001,
      "kor": 1002,
      "##iyaret": 1003,
      "Bosna": 1004,
      "##gr": 1005,
      "##esine": 1006,
      "##se": 1007,
      "##nik": 1008,
      "birlikte": 1009,
      "##oğu": 1010,
      "yay": 1011,
      "##azı": 1012,
      "eski": 1013,
      "kazan": 1014,
      "değil": 1015,
      "hakk": 1016,
      "iyi": 1017,
      "##iran": 1018,
      "çöz": 1019,
      "dav": 1020,
      "##lo": 1021,
      "zor": 1022,
      "##ter": 1023,
      "duy": 1024,
      "##atırım": 1025,
      "##del": 1026,
      "nun": 1027,
      "ask": 1028,
      "yönet": 1029,
      "yüks": 1030,
      "##ılması": 1031,
      "##izm": 1032,
      "bulundu": 1033,
      "yapılan": 1034,
      "içinde": 1035,
      "##si": 1036,
      "bakan": 1037,
      "##bilir": 1038,
      "Ek": 1039,
      "##irket": 1040,
      "genel": 1041,
      "##öyle": 1042,
      "##diç": 1043,
      "merkez": 1044,
      "haber": 1045,
      "gaz": 1046,
      "ede": 1047,
      "st": 1048,
      "ziyaret": 1049,
      "der": 1050,
      "ik": 1051,
      "reform": 1052,
      "zaman": 1053,
      "gerekti": 1054,
      "mu": 1055,
      "##ınır": 1056,
      "ekonomik": 1057,
      "İn": 1058,
      "##ılım": 1059,
      "##leş": 1060,
      "Gen": 1061,
      "##diler": 1062,
      "kaynak": 1063,
      "har": 1064,
      "imza": 1065,
      "kendi": 1066,
      "##diğini": 1067,
      "Hers": 1068,
      "sıra": 1069,
      "Kon": 1070,
      "sürec": 1071,
      "sonrasında": 1072,
      "##yet": 1073,
      "bütün": 1074,
      "##be": 1075,
      "hafta": 1076,
      "##asyon": 1077,
      "sağla": 1078,
      "##ünya": 1079,
      "şöyle": 1080,
      "##ett": 1081,
      "mahkem": 1082,
      "##gan": 1083,
      "##ley": 1084,
      "Başbakan": 1085,
      "Hersek": 1086,
      "Pazartesi": 1087,
      "veya": 1088,
      "Kı": 1089,
      "üzerinde": 1090,
      "neden": 1091,
      "yanı": 1092,
      "başkanı": 1093,
      "##akat": 1094,
      "destek": 1095,
      "##ac": 1096,
      "Dış": 1097,
      "##ran": 1098,
      "yatırım": 1099,
      "##edef": 1100,
      "##ot": 1101,
      "##uma": 1102,
      "mev": 1103,
      "##tış": 1104,
      "Ban": 1105,
      "kö": 1106,
      "yaklaşık": 1107,
      "##umlu": 1108,
      "tak": 1109,
      "ortak": 1110,
      "##atı": 1111,
      "##okrat": 1112,
      "##brıs": 1113,
      "Kıbrıs": 1114,
      "Par": 1115,
      "##ımsız": 1116,
      "##cadel": 1117,
      "proj": 1118,
      "önc": 1119,
      "##mayı": 1120,
      "iz": 1121,
      "##dik": 1122,
      "tur": 1123,
      "sınır": 1124,
      "dönem": 1125,
      "##lerinde": 1126,
      "şirket": 1127,
      "hedef": 1128,
      "ayrı": 1129,
      "ak": 1130,
      "Tem": 1131,
      "##lardan": 1132,
      "##esini": 1133,
      "##elen": 1134,
      "##iştir": 1135,
      "açıklamada": 1136,
      "##der": 1137,
      "##lendir": 1138,
      "##şam": 1139,
      "ilişk": 1140,
      "kes": 1141,
      "toplum": 1142,
      "ayında": 1143,
      "amaç": 1144,
      "##anın": 1145,
      "çıkar": 1146,
      "gerçekleş": 1147,
      "##ub": 1148,
      "değiş": 1149,
      "ilerle": 1150,
      "##tü": 1151,
      "##ize": 1152,
      "##ark": 1153,
      "##to": 1154,
      "##üne": 1155,
      "##lamen": 1156,
      "ad": 1157,
      "##eceği": 1158,
      "Bakan": 1159,
      "##lerde": 1160,
      "##mi": 1161,
      "san": 1162,
      "##masının": 1163,
      "ör": 1164,
      "##larından": 1165,
      "temsil": 1166,
      "tama": 1167,
      "Dışişleri": 1168,
      "yasa": 1169,
      "Çar": 1170,
      "yayın": 1171,
      "mücadel": 1172,
      "polis": 1173,
      "##ri": 1174,
      "müzakereler": 1175,
      "kaç": 1176,
      "alın": 1177,
      "##şamba": 1178,
      "##aba": 1179,
      "belirtti": 1180,
      "olacak": 1181,
      "Komis": 1182,
      "Mil": 1183,
      "öl": 1184,
      "##asındaki": 1185,
      "Çarşamba": 1186,
      "toplantı": 1187,
      "bağımsız": 1188,
      "katılım": 1189,
      "##siz": 1190,
      "gazet": 1191,
      "geldi": 1192,
      "Dem": 1193,
      "üst": 1194,
      "##ecli": 1195,
      "##şa": 1196,
      "sayı": 1197,
      "kurum": 1198,
      "##ültür": 1199,
      "##cağı": 1200,
      "aldı": 1201,
      "##ektör": 1202,
      "At": 1203,
      "##unuyor": 1204,
      "##leme": 1205,
      "tar": 1206,
      "söy": 1207,
      "15": 1208,
      "Ara": 1209,
      "##landı": 1210,
      "geri": 1211,
      "ev": 1212,
      "alıyor": 1213,
      "##manın": 1214,
      "##mp": 1215,
      "eden": 1216,
      "##nı": 1217,
      "##oc": 1218,
      "##iliyor": 1219,
      "##arış": 1220,
      "çek": 1221,
      "hem": 1222,
      "bildir": 1223,
      "bazı": 1224,
      "işbirliği": 1225,
      "##istem": 1226,
      "##ges": 1227,
      "En": 1228,
      "##eçte": 1229,
      "##gel": 1230,
      "Başbakanı": 1231,
      "##lay": 1232,
      "kıs": 1233,
      "Mart": 1234,
      "üyelik": 1235,
      "deki": 1236,
      "göz": 1237,
      "##ten": 1238,
      "rapor": 1239,
      "##ğimiz": 1240,
      "Er": 1241,
      "##ica": 1242,
      "##ddi": 1243,
      "##hale": 1244,
      "09": 1245,
      "düzenlenen": 1246,
      "do": 1247,
      "Uluslararası": 1248,
      "Salı": 1249,
      "tanı": 1250,
      "beklen": 1251,
      "##etty": 1252,
      "##kları": 1253,
      "##lusal": 1254,
      "Getty": 1255,
      "##mages": 1256,
      "yönelik": 1257,
      "Prişt": 1258,
      "##güt": 1259,
      "##tif": 1260,
      "Images": 1261,
      "##larla": 1262,
      "##tiv": 1263,
      "##lük": 1264,
      "başkan": 1265,
      "##ch": 1266,
      "yetkililer": 1267,
      "##lanması": 1268,
      "07": 1269,
      "sistem": 1270,
      "verdi": 1271,
      "06": 1272,
      "05": 1273,
      "AK": 1274,
      "##rak": 1275,
      "##tar": 1276,
      "##ug": 1277,
      "yerine": 1278,
      "##oğun": 1279,
      "##üsü": 1280,
      "Ta": 1281,
      "demeçte": 1282,
      "##cısı": 1283,
      "Priştine": 1284,
      "##ayı": 1285,
      "if": 1286,
      "##abil": 1287,
      "Reut": 1288,
      "taş": 1289,
      "yür": 1290,
      "##atanda": 1291,
      "değer": 1292,
      "##ğü": 1293,
      "Reuters": 1294,
      "sürdür": 1295,
      "08": 1296,
      "geçen": 1297,
      "03": 1298,
      "yüksek": 1299,
      "##rik": 1300,
      "Rus": 1301,
      "##ren": 1302,
      "##yacak": 1303,
      "04": 1304,
      "##çi": 1305,
      "##eşit": 1306,
      "Per": 1307,
      "##işim": 1308,
      "AF": 1309,
      "hakkında": 1310,
      "bunun": 1311,
      "##ton": 1312,
      "etmek": 1313,
      "iddi": 1314,
      "sonuç": 1315,
      "##ej": 1316,
      "halk": 1317,
      "##lül": 1318,
      "ha": 1319,
      "##lem": 1320,
      "sat": 1321,
      "##ğit": 1322,
      "##olo": 1323,
      "AFP": 1324,
      "##gram": 1325,
      "Gün": 1326,
      "yönünde": 1327,
      "konusu": 1328,
      "Sar": 1329,
      "yaz": 1330,
      "yok": 1331,
      "si": 1332,
      "doğru": 1333,
      "##edeki": 1334,
      "ter": 1335,
      "at": 1336,
      "##cü": 1337,
      "##lah": 1338,
      "##ledi": 1339,
      "arasındaki": 1340,
      "Haz": 1341,
      "biri": 1342,
      "çaba": 1343,
      "##eh": 1344,
      "##tr": 1345,
      "çalışma": 1346,
      "##lat": 1347,
      "##liyor": 1348,
      "vatanda": 1349,
      "dör": 1350,
      "##tırma": 1351,
      "##uştur": 1352,
      "gerektiğini": 1353,
      "öğ": 1354,
      "yakın": 1355,
      "##han": 1356,
      "##tir": 1357,
      "May": 1358,
      "##erji": 1359,
      "##sam": 1360,
      "şey": 1361,
      "##jan": 1362,
      "##ban": 1363,
      "kent": 1364,
      "kamu": 1365,
      "oluştur": 1366,
      "##aliyet": 1367,
      "##ag": 1368,
      "tes": 1369,
      "##şem": 1370,
      "Sav": 1371,
      "uzun": 1372,
      "fa": 1373,
      "##mız": 1374,
      "yı": 1375,
      "##ünün": 1376,
      "konuşan": 1377,
      "karş": 1378,
      "res": 1379,
      "##uzey": 1380,
      "##ilere": 1381,
      "Br": 1382,
      "Kons": 1383,
      "aynı": 1384,
      "##adece": 1385,
      "yana": 1386,
      "onay": 1387,
      "##ça": 1388,
      "fark": 1389,
      "Mayıs": 1390,
      "##eket": 1391,
      "yerel": 1392,
      "tüm": 1393,
      "##osya": 1394,
      "ayrıca": 1395,
      "Ekim": 1396,
      "Haziran": 1397,
      "##ilik": 1398,
      "çözüm": 1399,
      "201": 1400,
      "yeniden": 1401,
      "Part": 1402,
      "dah": 1403,
      "tamam": 1404,
      "Perşem": 1405,
      "##up": 1406,
      "##akam": 1407,
      "##eşitli": 1408,
      "Perşembe": 1409,
      "düşün": 1410,
      "kurulu": 1411,
      "##umhuriyet": 1412,
      "Başkanı": 1413,
      "##olu": 1414,
      "bulunuyor": 1415,
      "##unma": 1416,
      "Aralık": 1417,
      "##lüyor": 1418,
      "sektör": 1419,
      "##tikrar": 1420,
      "##ne": 1421,
      "##çı": 1422,
      "gelecek": 1423,
      "##if": 1424,
      "##por": 1425,
      "diyen": 1426,
      "geçir": 1427,
      "İt": 1428,
      "##ğine": 1429,
      "hay": 1430,
      "##meyi": 1431,
      "##suzluk": 1432,
      "hiç": 1433,
      "katıl": 1434,
      "pek": 1435,
      "##asa": 1436,
      "Rum": 1437,
      "##uyor": 1438,
      "Ocak": 1439,
      "Demokrat": 1440,
      "vatandaş": 1441,
      "engel": 1442,
      "amaçlı": 1443,
      "bun": 1444,
      "##estiv": 1445,
      "teh": 1446,
      "##eviç": 1447,
      "teş": 1448,
      "açı": 1449,
      "##muz": 1450,
      "söylüyor": 1451,
      "ulaş": 1452,
      "##ğitim": 1453,
      "##ısından": 1454,
      "##ovski": 1455,
      "güvenlik": 1456,
      "##ürlü": 1457,
      "oran": 1458,
      "öner": 1459,
      "##mesine": 1460,
      "tutuk": 1461,
      "sev": 1462,
      "25": 1463,
      "dahil": 1464,
      "##lığını": 1465,
      "mem": 1466,
      "hükümeti": 1467,
      "kapsam": 1468,
      "##lerinden": 1469,
      "olası": 1470,
      "##per": 1471,
      "##kü": 1472,
      "sadece": 1473,
      "inşa": 1474,
      "Nis": 1475,
      "stat": 1476,
      "Pazar": 1477,
      "Anlaş": 1478,
      "sal": 1479,
      "##asım": 1480,
      "30": 1481,
      "##ing": 1482,
      "##ündeki": 1483,
      "##anan": 1484,
      "##üf": 1485,
      "şart": 1486,
      "dört": 1487,
      "Saray": 1488,
      "##etr": 1489,
      "program": 1490,
      "Temmuz": 1491,
      "Kasım": 1492,
      "kı": 1493,
      "##tık": 1494,
      "karşın": 1495,
      "##oslav": 1496,
      "bor": 1497,
      "##fer": 1498,
      "düzey": 1499,
      "##mesini": 1500,
      "Gü": 1501,
      "İş": 1502,
      "dair": 1503,
      "ün": 1504,
      "Yeni": 1505,
      "Üsk": 1506,
      "##landır": 1507,
      "##vet": 1508,
      "Üsküp": 1509,
      "##mada": 1510,
      "##tiğimiz": 1511,
      "Alman": 1512,
      "##uv": 1513,
      "başladı": 1514,
      "sorumlu": 1515,
      "aday": 1516,
      "açısından": 1517,
      "Nisan": 1518,
      "olay": 1519,
      "artır": 1520,
      "örgüt": 1521,
      "başlat": 1522,
      "Dünya": 1523,
      "##yar": 1524,
      "tic": 1525,
      "hız": 1526,
      "adım": 1527,
      "##kinci": 1528,
      "destekle": 1529,
      "##min": 1530,
      "Sarayb": 1531,
      "##cut": 1532,
      "##izi": 1533,
      "yargı": 1534,
      "##uş": 1535,
      "amacı": 1536,
      "Balkanlar": 1537,
      "##üy": 1538,
      "##fet": 1539,
      "##masında": 1540,
      "##ras": 1541,
      "##van": 1542,
      "araya": 1543,
      "Ey": 1544,
      "ot": 1545,
      "sun": 1546,
      "##dur": 1547,
      "enerji": 1548,
      "##gil": 1549,
      "ten": 1550,
      "##luğ": 1551,
      "aldığı": 1552,
      "cez": 1553,
      "rağ": 1554,
      "gön": 1555,
      "##isinin": 1556,
      "##azar": 1557,
      "Saraybosna": 1558,
      "etnik": 1559,
      "##lüm": 1560,
      "##osu": 1561,
      "kuruluş": 1562,
      "rağmen": 1563,
      "Kosovalı": 1564,
      "Eylül": 1565,
      "gerekiyor": 1566,
      "hükümetin": 1567,
      "##cek": 1568,
      "##izmet": 1569,
      "Güney": 1570,
      "##eral": 1571,
      "mücadele": 1572,
      "17": 1573,
      "üret": 1574,
      "tam": 1575,
      "##likle": 1576,
      "ted": 1577,
      "##ja": 1578,
      "##ciler": 1579,
      "parlamen": 1580,
      "olması": 1581,
      "##ayan": 1582,
      "13": 1583,
      "##mem": 1584,
      "AP": 1585,
      "değişik": 1586,
      "##ubat": 1587,
      "##detti": 1588,
      "##aln": 1589,
      "##larıyla": 1590,
      "üyesi": 1591,
      "tartış": 1592,
      "16": 1593,
      "18": 1594,
      "Bor": 1595,
      "Şubat": 1596,
      "bekleniyor": 1597,
      "Cumhuriyet": 1598,
      "ban": 1599,
      "Bos": 1600,
      "##alnız": 1601,
      "geniş": 1602,
      "duyur": 1603,
      "##anlı": 1604,
      "##ümüz": 1605,
      "##eclis": 1606,
      "##gor": 1607,
      "faaliyet": 1608,
      "Yar": 1609,
      "14": 1610,
      "para": 1611,
      "##od": 1612,
      "ben": 1613,
      "görül": 1614,
      "eğitim": 1615,
      "bak": 1616,
      "hizmet": 1617,
      "Hükümet": 1618,
      "boy": 1619,
      "başka": 1620,
      "ortaya": 1621,
      "Pro": 1622,
      "##syon": 1623,
      "##aç": 1624,
      "##aat": 1625,
      "##çe": 1626,
      "Bank": 1627,
      "şekl": 1628,
      "Merkez": 1629,
      "vur": 1630,
      "Kar": 1631,
      "gerçekleştir": 1632,
      "tel": 1633,
      "Atina": 1634,
      "##siy": 1635,
      "yolsuzluk": 1636,
      "oluş": 1637,
      "San": 1638,
      "ayr": 1639,
      "um": 1640,
      "##layan": 1641,
      "##lov": 1642,
      "##sel": 1643,
      "Kur": 1644,
      "##lanıyor": 1645,
      "milyar": 1646,
      "sırasında": 1647,
      "##ilmiş": 1648,
      "derece": 1649,
      "diyerek": 1650,
      "Konseyi": 1651,
      "##rub": 1652,
      "kurul": 1653,
      "##alnızca": 1654,
      "katı": 1655,
      "##ısında": 1656,
      "Genel": 1657,
      "iddia": 1658,
      "##maları": 1659,
      "Yug": 1660,
      "##ladığı": 1661,
      "beş": 1662,
      "##oş": 1663,
      "nit": 1664,
      "UN": 1665,
      "yapılacak": 1666,
      "ikinci": 1667,
      "##tiy": 1668,
      "##umhurbaşkan": 1669,
      "##tığı": 1670,
      "kişi": 1671,
      "##ser": 1672,
      "Komisyonu": 1673,
      "asker": 1674,
      "Mahkem": 1675,
      "Nik": 1676,
      "##ola": 1677,
      "kültür": 1678,
      "##dül": 1679,
      "çağır": 1680,
      "##eb": 1681,
      "mevcut": 1682,
      "##ep": 1683,
      "Yugoslav": 1684,
      "##lamak": 1685,
      "yürüt": 1686,
      "Tadiç": 1687,
      "geliş": 1688,
      "nüf": 1689,
      "edil": 1690,
      "hareket": 1691,
      "Partisi": 1692,
      "hat": 1693,
      "Ülk": 1694,
      "##nalı": 1695,
      "anda": 1696,
      "barış": 1697,
      "kuzey": 1698,
      "olum": 1699,
      "##kili": 1700,
      "Rusya": 1701,
      "Ay": 1702,
      "##ava": 1703,
      "mey": 1704,
      "eş": 1705,
      "##iddi": 1706,
      "##asının": 1707,
      "grup": 1708,
      "##mey": 1709,
      "organ": 1710,
      "##vek": 1711,
      "##ici": 1712,
      "gönder": 1713,
      "Ra": 1714,
      "##iplo": 1715,
      "##ağı": 1716,
      "##ocuk": 1717,
      "##liğini": 1718,
      "tedbir": 1719,
      "Geç": 1720,
      "hiçbir": 1721,
      "##doğu": 1722,
      "bulunan": 1723,
      "##tika": 1724,
      "altında": 1725,
      "basın": 1726,
      "aş": 1727,
      "##tand": 1728,
      "Mla": 1729,
      "dik": 1730,
      "##oz": 1731,
      "St": 1732,
      "##asına": 1733,
      "Da": 1734,
      "ekledi": 1735,
      "Slov": 1736,
      "##lamaya": 1737,
      "##lerden": 1738,
      "Fakat": 1739,
      "ciddi": 1740,
      "zir": 1741,
      "askeri": 1742,
      "ancak": 1743,
      "##itesi": 1744,
      "üye": 1745,
      "##asını": 1746,
      "Bil": 1747,
      "yalnızca": 1748,
      "avroluk": 1749,
      "şu": 1750,
      "##ünden": 1751,
      "##letvek": 1752,
      "Sof": 1753,
      "saldır": 1754,
      "##ımı": 1755,
      "##koviç": 1756,
      "tah": 1757,
      "##üç": 1758,
      "##gun": 1759,
      "kim": 1760,
      "nedeniyle": 1761,
      "oper": 1762,
      "mesel": 1763,
      "tale": 1764,
      "görüşmeler": 1765,
      "Cuma": 1766,
      "kad": 1767,
      "Zag": 1768,
      "##imdi": 1769,
      "edilen": 1770,
      "Güven": 1771,
      "yıllık": 1772,
      "etkin": 1773,
      "kaçak": 1774,
      "terör": 1775,
      "yönetim": 1776,
      "rol": 1777,
      "farklı": 1778,
      "Bosnalı": 1779,
      "hayat": 1780,
      "##undan": 1781,
      "##stos": 1782,
      "sayıda": 1783,
      "Cumhuriyeti": 1784,
      "##ust": 1785,
      "öğren": 1786,
      "##ğustos": 1787,
      "Ağustos": 1788,
      "resmi": 1789,
      "##ovan": 1790,
      "Zagre": 1791,
      "durumda": 1792,
      "taşı": 1793,
      "##ge": 1794,
      "##tidar": 1795,
      "azal": 1796,
      "çev": 1797,
      "kriz": 1798,
      "amacıyla": 1799,
      "meydan": 1800,
      "red": 1801,
      "##undaki": 1802,
      "dün": 1803,
      "film": 1804,
      "##ide": 1805,
      "##lim": 1806,
      "##duğu": 1807,
      "##iddet": 1808,
      "yarat": 1809,
      "##menin": 1810,
      "pazar": 1811,
      "fin": 1812,
      "##üksel": 1813,
      "git": 1814,
      "##aj": 1815,
      "02": 1816,
      "##tiler": 1817,
      "##ılmış": 1818,
      "dile": 1819,
      "##masından": 1820,
      "##maz": 1821,
      "##anıyor": 1822,
      "##ştu": 1823,
      "ilişkin": 1824,
      "İngil": 1825,
      "mali": 1826,
      "stand": 1827,
      "21": 1828,
      "kesin": 1829,
      "has": 1830,
      "istikrar": 1831,
      "tas": 1832,
      "kaldır": 1833,
      "27": 1834,
      "yi": 1835,
      "ilerleme": 1836,
      "ilişkiler": 1837,
      "gereken": 1838,
      "Brüksel": 1839,
      "##raf": 1840,
      "kil": 1841,
      "##ülen": 1842,
      "##makta": 1843,
      "istiyor": 1844,
      "ihtiy": 1845,
      "geçtiğimiz": 1846,
      "Top": 1847,
      "##OR": 1848,
      "##doğ": 1849,
      "##mer": 1850,
      "sık": 1851,
      "##eliğ": 1852,
      "ok": 1853,
      "Kost": 1854,
      "fir": 1855,
      "##lanma": 1856,
      "kaynaklar": 1857,
      "##gör": 1858,
      "Güvenlik": 1859,
      "bır": 1860,
      "değerlendir": 1861,
      "##edir": 1862,
      "olduk": 1863,
      "##isyon": 1864,
      "Büy": 1865,
      "Eski": 1866,
      "kapsamında": 1867,
      "etme": 1868,
      "##dından": 1869,
      "yönündeki": 1870,
      "##yen": 1871,
      "Sor": 1872,
      "muhale": 1873,
      "şeklinde": 1874,
      "küç": 1875,
      "##ded": 1876,
      "##osyal": 1877,
      "SC": 1878,
      "##tern": 1879,
      "ticaret": 1880,
      "anay": 1881,
      "##FOR": 1882,
      "Yardım": 1883,
      "bekle": 1884,
      "sona": 1885,
      "değişiklik": 1886,
      "24": 1887,
      "silah": 1888,
      "Tiran": 1889,
      "bağlı": 1890,
      "milletvek": 1891,
      "##elç": 1892,
      "hey": 1893,
      "dünya": 1894,
      "şiddet": 1895,
      "Çeşitli": 1896,
      "22": 1897,
      "##eti": 1898,
      "girişim": 1899,
      "Lah": 1900,
      "kamp": 1901,
      "01": 1902,
      "mal": 1903,
      "makam": 1904,
      "kayb": 1905,
      "fakat": 1906,
      "##ümüzdeki": 1907,
      "çoğun": 1908,
      "##bar": 1909,
      "Rad": 1910,
      "bırak": 1911,
      "##meleri": 1912,
      "##dık": 1913,
      "nüfus": 1914,
      "çocuk": 1915,
      "bilg": 1916,
      "umut": 1917,
      "Büyük": 1918,
      "##pr": 1919,
      "beledi": 1920,
      "üyeli": 1921,
      "güçlü": 1922,
      "meydana": 1923,
      "Lahey": 1924,
      "ulusal": 1925,
      "##isini": 1926,
      "##ivers": 1927,
      "##lana": 1928,
      "etkil": 1929,
      "ileri": 1930,
      "##rans": 1931,
      "başar": 1932,
      "##ektrik": 1933,
      "Mar": 1934,
      "IM": 1935,
      "##fa": 1936,
      "##ınma": 1937,
      "2004": 1938,
      "cumhurbaşkan": 1939,
      "düzenle": 1940,
      "özg": 1941,
      "eleştir": 1942,
      "bile": 1943,
      "EU": 1944,
      "##sal": 1945,
      "kredi": 1946,
      "süre": 1947,
      "ifade": 1948,
      "bur": 1949,
      "##diş": 1950,
      "adlı": 1951,
      "##kat": 1952,
      "Batı": 1953,
      "23": 1954,
      "##best": 1955,
      "Bankası": 1956,
      "politika": 1957,
      "##este": 1958,
      "Boris": 1959,
      "##nun": 1960,
      "diyor": 1961,
      "ma": 1962,
      "başarı": 1963,
      "kararı": 1964,
      "fiyat": 1965,
      "katıldı": 1966,
      "##okras": 1967,
      "elde": 1968,
      "##gin": 1969,
      "28": 1970,
      "ele": 1971,
      "altı": 1972,
      "##ver": 1973,
      "##tanbul": 1974,
      "standart": 1975,
      "kaydetti": 1976,
      "edecek": 1977,
      "kısa": 1978,
      "Ah": 1979,
      "IC": 1980,
      "İstanbul": 1981,
      "##oran": 1982,
      "##bilecek": 1983,
      "sözlerine": 1984,
      "IMF": 1985,
      "##ğunu": 1986,
      "##escu": 1987,
      "alı": 1988,
      "Sloven": 1989,
      "##elerin": 1990,
      "kötü": 1991,
      "İtal": 1992,
      "gazetec": 1993,
      "##leşme": 1994,
      "vurgu": 1995,
      "Ulusal": 1996,
      "##kara": 1997,
      "##ob": 1998,
      "Kür": 1999,
      "##cılık": 2000,
      "yaşam": 2001,
      "günkü": 2002,
      "bölgesel": 2003,
      "koali": 2004,
      "##elendir": 2005,
      "Ge": 2006,
      "##luğu": 2007,
      "##laştır": 2008,
      "Ankara": 2009,
      "soruştur": 2010,
      "tan": 2011,
      "##malı": 2012,
      "dönüş": 2013,
      "Bakanlığı": 2014,
      "##og": 2015,
      "##doğan": 2016,
      "Ber": 2017,
      "##mir": 2018,
      "deste": 2019,
      "mo": 2020,
      "##reş": 2021,
      "uzman": 2022,
      "zorunda": 2023,
      "tehdi": 2024,
      "Sofya": 2025,
      "##ıp": 2026,
      "Ne": 2027,
      "kendis": 2028,
      "As": 2029,
      "mes": 2030,
      "Sch": 2031,
      "Öz": 2032,
      "Bük": 2033,
      "##aştırma": 2034,
      "zanlı": 2035,
      "##trol": 2036,
      "dikkat": 2037,
      "##hn": 2038,
      "Mladiç": 2039,
      "Bükreş": 2040,
      "Güneydoğu": 2041,
      "li": 2042,
      "##esiyle": 2043,
      "anlam": 2044,
      "strat": 2045,
      "gerçek": 2046,
      "bunu": 2047,
      "##esinden": 2048,
      "##iyi": 2049,
      "##ana": 2050,
      "ardından": 2051,
      "uyar": 2052,
      "Erdoğan": 2053,
      "eyle": 2054,
      "##asyonu": 2055,
      "başb": 2056,
      "düşük": 2057,
      "##oj": 2058,
      "iktidar": 2059,
      "##mıştı": 2060,
      "Mü": 2061,
      "yaşanan": 2062,
      "genç": 2063,
      "Almanya": 2064,
      "##eceğ": 2065,
      "ki": 2066,
      "yaban": 2067,
      "kadın": 2068,
      "##alk": 2069,
      "##erç": 2070,
      "##elerini": 2071,
      "##ivil": 2072,
      "artış": 2073,
      "##eyen": 2074,
      "çağrı": 2075,
      "Bö": 2076,
      "##ciç": 2077,
      "olmaya": 2078,
      "dava": 2079,
      "Dev": 2080,
      "toplam": 2081,
      "parti": 2082,
      "26": 2083,
      "dok": 2084,
      "huk": 2085,
      "prot": 2086,
      "memnun": 2087,
      "Irak": 2088,
      "bölge": 2089,
      "çalışan": 2090,
      "nok": 2091,
      "gerekli": 2092,
      "doğal": 2093,
      "Festiv": 2094,
      "as": 2095,
      "##ros": 2096,
      "büyüm": 2097,
      "şüp": 2098,
      "hale": 2099,
      "ağ": 2100,
      "his": 2101,
      "kontrol": 2102,
      "tür": 2103,
      "yabancı": 2104,
      "kan": 2105,
      "öde": 2106,
      "ödül": 2107,
      "üzerine": 2108,
      "rek": 2109,
      "##lak": 2110,
      "##utan": 2111,
      "##ırı": 2112,
      "yılın": 2113,
      "##gün": 2114,
      "Söz": 2115,
      "kuru": 2116,
      "gid": 2117,
      "tav": 2118,
      "##ilecek": 2119,
      "öngör": 2120,
      "##makla": 2121,
      "##dem": 2122,
      "muhalefet": 2123,
      "Ekonom": 2124,
      "##erli": 2125,
      "önümüzdeki": 2126,
      "açtı": 2127,
      "finans": 2128,
      "saldırı": 2129,
      "Yet": 2130,
      "temel": 2131,
      "Yardımcısı": 2132,
      "ihti": 2133,
      "görün": 2134,
      "teki": 2135,
      "med": 2136,
      "idar": 2137,
      "##orum": 2138,
      "art": 2139,
      "DP": 2140,
      "##mı": 2141,
      "istedi": 2142,
      "yolunda": 2143,
      "oluşan": 2144,
      "Oli": 2145,
      "##lığının": 2146,
      "serbest": 2147,
      "işbirliğ": 2148,
      "ülkeleri": 2149,
      "belg": 2150,
      "2007": 2151,
      "diplo": 2152,
      "Her": 2153,
      "yarış": 2154,
      "##bileceğini": 2155,
      "yaşındaki": 2156,
      "azın": 2157,
      "##elerinin": 2158,
      "suçları": 2159,
      "Dair": 2160,
      "kazandı": 2161,
      "parlamento": 2162,
      "kayded": 2163,
      "uygun": 2164,
      "ni": 2165,
      "taki": 2166,
      "##ladılar": 2167,
      "gelir": 2168,
      "küçük": 2169,
      "ayı": 2170,
      "##laf": 2171,
      "halinde": 2172,
      "##ğünü": 2173,
      "Parti": 2174,
      "ceza": 2175,
      "##unca": 2176,
      "üyeliğ": 2177,
      "yolu": 2178,
      "İç": 2179,
      "nde": 2180,
      "tep": 2181,
      "##üncü": 2182,
      "geliştir": 2183,
      "lideri": 2184,
      "Kültür": 2185,
      "ülkede": 2186,
      "Sek": 2187,
      "işaret": 2188,
      "##amp": 2189,
      "##itr": 2190,
      "endiş": 2191,
      "olmadığını": 2192,
      "alma": 2193,
      "değiştir": 2194,
      "##ayet": 2195,
      "##aber": 2196,
      "fik": 2197,
      "100": 2198,
      "Ada": 2199,
      "In": 2200,
      "Parlamen": 2201,
      "##larındaki": 2202,
      "2008": 2203,
      "teslim": 2204,
      "günlük": 2205,
      "saat": 2206,
      "çoğu": 2207,
      "##üde": 2208,
      "##inci": 2209,
      "yardımcı": 2210,
      "##usu": 2211,
      "##lif": 2212,
      "##laşma": 2213,
      "ülkesinin": 2214,
      "çağırdı": 2215,
      "Poli": 2216,
      "takdir": 2217,
      "koş": 2218,
      "##do": 2219,
      "##bi": 2220,
      "##yanın": 2221,
      "grub": 2222,
      "##alist": 2223,
      "isim": 2224,
      "29": 2225,
      "Son": 2226,
      "##ternet": 2227,
      "##tak": 2228,
      "savunma": 2229,
      "yen": 2230,
      "##ika": 2231,
      "ilan": 2232,
      "Yugoslavya": 2233,
      "temsilc": 2234,
      "ordu": 2235,
      "zamanda": 2236,
      "sı": 2237,
      "##anış": 2238,
      "şüph": 2239,
      "##kovski": 2240,
      "##eyle": 2241,
      "seviy": 2242,
      "ettiği": 2243,
      "ICT": 2244,
      "Pap": 2245,
      "İki": 2246,
      "Yüks": 2247,
      "##nolo": 2248,
      "konuşmada": 2249,
      "Zagreb": 2250,
      "ICTY": 2251,
      "##cılar": 2252,
      "satın": 2253,
      "olumlu": 2254,
      "##asıl": 2255,
      "koy": 2256,
      "siyaset": 2257,
      "sek": 2258,
      "şimdi": 2259,
      "ekonomi": 2260,
      "eylem": 2261,
      "meclis": 2262,
      "##laması": 2263,
      "##kaç": 2264,
      "##esto": 2265,
      "çıkan": 2266,
      "##dürü": 2267,
      "katkı": 2268,
      "Bas": 2269,
      "Ko": 2270,
      "fır": 2271,
      "Geor": 2272,
      "Bölg": 2273,
      "hava": 2274,
      "Yüksek": 2275,
      "##lemek": 2276,
      "##mpiyat": 2277,
      "##islav": 2278,
      "##ğına": 2279,
      "##yalı": 2280,
      "toplantıs": 2281,
      "boyunca": 2282,
      "##ıt": 2283,
      "sivil": 2284,
      "50": 2285,
      "Kr": 2286,
      "nitelendir": 2287,
      "##erçev": 2288,
      "turizm": 2289,
      "Romen": 2290,
      "Avust": 2291,
      "##evski": 2292,
      "artık": 2293,
      "##müş": 2294,
      "2006": 2295,
      "kolay": 2296,
      "gi": 2297,
      "hâ": 2298,
      "stratej": 2299,
      "eya": 2300,
      "düzenlen": 2301,
      "biz": 2302,
      "##liğe": 2303,
      "kesim": 2304,
      "kut": 2305,
      "banka": 2306,
      "##ılıyor": 2307,
      "##mişti": 2308,
      "operasyon": 2309,
      "getirdi": 2310,
      "organize": 2311,
      "zirv": 2312,
      "gerçekleşti": 2313,
      "hiss": 2314,
      "##ekli": 2315,
      "olur": 2316,
      "edilm": 2317,
      "##lıkla": 2318,
      "edildi": 2319,
      "Devlet": 2320,
      "it": 2321,
      "açıkladı": 2322,
      "##layı": 2323,
      "elektrik": 2324,
      "##lığına": 2325,
      "sonunda": 2326,
      "mevki": 2327,
      "##hangi": 2328,
      "yaşa": 2329,
      "##ent": 2330,
      "2005": 2331,
      "Ortak": 2332,
      "Mir": 2333,
      "eur": 2334,
      "##leriyle": 2335,
      "etk": 2336,
      "##tifak": 2337,
      "##uvvet": 2338,
      "##şıyor": 2339,
      "uygulama": 2340,
      "anlaşmaz": 2341,
      "düşünüyor": 2342,
      "Slovenya": 2343,
      "##ğında": 2344,
      "Ör": 2345,
      "##lâ": 2346,
      "Olimpiyat": 2347,
      "##madı": 2348,
      "Gör": 2349,
      "##IK": 2350,
      "Mu": 2351,
      "emek": 2352,
      "spor": 2353,
      "merkezli": 2354,
      "##ıntı": 2355,
      "##etim": 2356,
      "##lerce": 2357,
      "ail": 2358,
      "ülkedeki": 2359,
      "##mekte": 2360,
      "tehdit": 2361,
      "Ak": 2362,
      "##muş": 2363,
      "talep": 2364,
      "##bol": 2365,
      "ülkelerin": 2366,
      "##sik": 2367,
      "##bo": 2368,
      "na": 2369,
      "Bar": 2370,
      "Ön": 2371,
      "yüzünden": 2372,
      "##mesinin": 2373,
      "##mat": 2374,
      "koalisyon": 2375,
      "olacağını": 2376,
      "başbakan": 2377,
      "yandan": 2378,
      "Frans": 2379,
      "uğ": 2380,
      "başta": 2381,
      "sağlık": 2382,
      "baskı": 2383,
      "UNM": 2384,
      "kalk": 2385,
      "Lib": 2386,
      "Ser": 2387,
      "##düğü": 2388,
      "##daşı": 2389,
      "Milos": 2390,
      "birkaç": 2391,
      "##mede": 2392,
      "üyeliği": 2393,
      "Mac": 2394,
      "##kün": 2395,
      "##sat": 2396,
      "azınlık": 2397,
      "##tis": 2398,
      "ihtilaf": 2399,
      "tanın": 2400,
      "bağımsızlık": 2401,
      "UNMIK": 2402,
      "Fransa": 2403,
      "Har": 2404,
      "nda": 2405,
      "##din": 2406,
      "2009": 2407,
      "gösteriyor": 2408,
      "yapan": 2409,
      "komş": 2410,
      "arada": 2411,
      "##enüz": 2412,
      "oyun": 2413,
      "ihra": 2414,
      "##ğe": 2415,
      "Cum": 2416,
      "##ash": 2417,
      "yaka": 2418,
      "takım": 2419,
      "kalan": 2420,
      "##ümkün": 2421,
      "herhangi": 2422,
      "bekliyor": 2423,
      "edece": 2424,
      "##taj": 2425,
      "öne": 2426,
      "ana": 2427,
      "protesto": 2428,
      "##tığını": 2429,
      "##ült": 2430,
      "kullanı": 2431,
      "takdirde": 2432,
      "hâlâ": 2433,
      "zar": 2434,
      "##sti": 2435,
      "Fran": 2436,
      "##landa": 2437,
      "konulu": 2438,
      "Karad": 2439,
      "##otan": 2440,
      "yaşayan": 2441,
      "mümkün": 2442,
      "böl": 2443,
      "Kat": 2444,
      "özellikle": 2445,
      "Merkezi": 2446,
      "Ün": 2447,
      "##etrol": 2448,
      "men": 2449,
      "Cumartesi": 2450,
      "kanı": 2451,
      "sahibi": 2452,
      "yanlı": 2453,
      "festiv": 2454,
      "##tih": 2455,
      "hükümetinin": 2456,
      "öldür": 2457,
      "##otansiy": 2458,
      "politik": 2459,
      "##ovanoviç": 2460,
      "##üle": 2461,
      "inanıyor": 2462,
      "Kürt": 2463,
      "hukuk": 2464,
      "alacak": 2465,
      "##ğin": 2466,
      "ülkelerinin": 2467,
      "özelleştir": 2468,
      "Mi": 2469,
      "tekrar": 2470,
      "##liğin": 2471,
      "Haber": 2472,
      "lik": 2473,
      "##lanacak": 2474,
      "sanat": 2475,
      "tat": 2476,
      "henüz": 2477,
      "##eme": 2478,
      "##irken": 2479,
      "euro": 2480,
      "konfer": 2481,
      "kentinde": 2482,
      "Temsil": 2483,
      "Amer": 2484,
      "##ni": 2485,
      "Mahkemesi": 2486,
      "##cüsü": 2487,
      "##leyen": 2488,
      "ölç": 2489,
      "##yas": 2490,
      "##atış": 2491,
      "sok": 2492,
      "yılı": 2493,
      "##ileştir": 2494,
      "##lin": 2495,
      "demokrat": 2496,
      "##ram": 2497,
      "##ani": 2498,
      "bölüm": 2499,
      "duyurdu": 2500,
      "##okrasi": 2501,
      "nasıl": 2502,
      "##teki": 2503,
      "yüksel": 2504,
      "kür": 2505,
      "Pet": 2506,
      "çalışıyor": 2507,
      "tarihi": 2508,
      "yayınlanan": 2509,
      "Dairesi": 2510,
      "##mal": 2511,
      "##lıca": 2512,
      "potansiy": 2513,
      "##unica": 2514,
      "görülüyor": 2515,
      "Kostunica": 2516,
      "##eviz": 2517,
      "kararlı": 2518,
      "2010": 2519,
      "veren": 2520,
      "devr": 2521,
      "em": 2522,
      "Gaz": 2523,
      "##uldu": 2524,
      "tör": 2525,
      "##ılmasını": 2526,
      "Yor": 2527,
      "Komisyon": 2528,
      "açıdan": 2529,
      "iler": 2530,
      "mad": 2531,
      "tab": 2532,
      "başlarında": 2533,
      "eğ": 2534,
      "kala": 2535,
      "karşıya": 2536,
      "The": 2537,
      "##eran": 2538,
      "##dışı": 2539,
      "dil": 2540,
      "türlü": 2541,
      "geliyor": 2542,
      "Rehn": 2543,
      "##daş": 2544,
      "##luyor": 2545,
      "##atör": 2546,
      "##abilir": 2547,
      "Anlaşması": 2548,
      "maaş": 2549,
      "din": 2550,
      "güçlendir": 2551,
      "sonuna": 2552,
      "Savunma": 2553,
      "eyalet": 2554,
      "çerçev": 2555,
      "olduğuna": 2556,
      "##ziç": 2557,
      "çağr": 2558,
      "##abet": 2559,
      "parç": 2560,
      "diyal": 2561,
      "##gen": 2562,
      "##iyon": 2563,
      "izin": 2564,
      "AG": 2565,
      "##tosu": 2566,
      "etkinlik": 2567,
      "##acağını": 2568,
      "##lıklı": 2569,
      "haline": 2570,
      "Savaş": 2571,
      "benzer": 2572,
      "bölün": 2573,
      "##vur": 2574,
      "Barış": 2575,
      "yıldır": 2576,
      "##tegr": 2577,
      "sağlayacak": 2578,
      "milletvekil": 2579,
      "Sekret": 2580,
      "##yesi": 2581,
      "tehlik": 2582,
      "Seç": 2583,
      "##fes": 2584,
      "##laya": 2585,
      "anlaşması": 2586,
      "teklif": 2587,
      "altına": 2588,
      "pay": 2589,
      "##isine": 2590,
      "suçu": 2591,
      "##sul": 2592,
      "süren": 2593,
      "##92": 2594,
      "edilmesi": 2595,
      "kır": 2596,
      "bilgi": 2597,
      "##eder": 2598,
      "bölgede": 2599,
      "Macar": 2600,
      "ner": 2601,
      "##İT": 2602,
      "##elerine": 2603,
      "sorunun": 2604,
      "pat": 2605,
      "##erandu": 2606,
      "Bur": 2607,
      "rej": 2608,
      "yetkilileri": 2609,
      "##tu": 2610,
      "##ucu": 2611,
      "verilen": 2612,
      "mevkidaşı": 2613,
      "##gın": 2614,
      "El": 2615,
      "iti": 2616,
      "Do": 2617,
      "##ite": 2618,
      "toprak": 2619,
      "##lanmış": 2620,
      "##elere": 2621,
      "Ünivers": 2622,
      "Müs": 2623,
      "Orta": 2624,
      "ifad": 2625,
      "İtalya": 2626,
      "iyileştir": 2627,
      "Hol": 2628,
      "süreci": 2629,
      "B92": 2630,
      "Avustur": 2631,
      "anket": 2632,
      "##malar": 2633,
      "##türü": 2634,
      "BB": 2635,
      "İnternet": 2636,
      "Rapor": 2637,
      "çeşitli": 2638,
      "ıs": 2639,
      "ülkeden": 2640,
      "ettiğini": 2641,
      "İttifak": 2642,
      "##ati": 2643,
      "burada": 2644,
      "hap": 2645,
      "##manı": 2646,
      "sorunu": 2647,
      "öncelik": 2648,
      "Kor": 2649,
      "koşul": 2650,
      "Su": 2651,
      "Af": 2652,
      "tasar": 2653,
      "Müslüm": 2654,
      "##isk": 2655,
      "milli": 2656,
      "dağı": 2657,
      "KFOR": 2658,
      "##yse": 2659,
      "##nek": 2660,
      "##sizlik": 2661,
      "31": 2662,
      "Tur": 2663,
      "üyeleri": 2664,
      "sonuc": 2665,
      "uç": 2666,
      "AGİT": 2667,
      "ila": 2668,
      "Birliği": 2669,
      "doğrudan": 2670,
      "ötürü": 2671,
      "##tiş": 2672,
      "gerçekleşen": 2673,
      "eki": 2674,
      "güney": 2675,
      "ilişkileri": 2676,
      "hızlandır": 2677,
      "40": 2678,
      "dönemde": 2679,
      "Rece": 2680,
      "güm": 2681,
      "kas": 2682,
      "##cel": 2683,
      "kapas": 2684,
      "pu": 2685,
      "##yası": 2686,
      "seçmen": 2687,
      "koruma": 2688,
      "##tere": 2689,
      "se": 2690,
      "Geçen": 2691,
      "Sorumlu": 2692,
      "bl": 2693,
      "Recep": 2694,
      "Hak": 2695,
      "##cağına": 2696,
      "Lu": 2697,
      "borç": 2698,
      "Ad": 2699,
      "##met": 2700,
      "##endi": 2701,
      "demokratik": 2702,
      "##las": 2703,
      "Roman": 2704,
      "dolar": 2705,
      "1995": 2706,
      "piyas": 2707,
      "tutum": 2708,
      "küresel": 2709,
      "vergi": 2710,
      "parçası": 2711,
      "etmesi": 2712,
      "##yap": 2713,
      "Adalet": 2714,
      "yapma": 2715,
      "ediliyor": 2716,
      "başvur": 2717,
      "İslam": 2718,
      "petrol": 2719,
      "##gaz": 2720,
      "##lığa": 2721,
      "Ortaklık": 2722,
      "Der": 2723,
      "partisi": 2724,
      "İngiltere": 2725,
      "medya": 2726,
      "Müslüman": 2727,
      "beri": 2728,
      "komşu": 2729,
      "rakam": 2730,
      "sürdü": 2731,
      "azalt": 2732,
      "list": 2733,
      "dayan": 2734,
      "konuştu": 2735,
      "istem": 2736,
      "memnuniyet": 2737,
      "##iter": 2738,
      "böyle": 2739,
      "ortam": 2740,
      "oranında": 2741,
      "##acağı": 2742,
      "##NA": 2743,
      "##ısını": 2744,
      "##su": 2745,
      "##KK": 2746,
      "verme": 2747,
      "Büyükelç": 2748,
      "##EX": 2749,
      "kaybet": 2750,
      "Ho": 2751,
      "##list": 2752,
      "kab": 2753,
      "bütç": 2754,
      "İnsan": 2755,
      "##arında": 2756,
      "##ington": 2757,
      "bölgedeki": 2758,
      "partiler": 2759,
      "Nikola": 2760,
      "##tisa": 2761,
      "##ber": 2762,
      "ala": 2763,
      "##urt": 2764,
      "potansiyel": 2765,
      "Et": 2766,
      "kez": 2767,
      "##ost": 2768,
      "olmasına": 2769,
      "Tel": 2770,
      "##onya": 2771,
      "##duğunu": 2772,
      "##çiler": 2773,
      "##mekle": 2774,
      "Diğer": 2775,
      "etmeye": 2776,
      "2003": 2777,
      "aşırı": 2778,
      "uygulan": 2779,
      "net": 2780,
      "##and": 2781,
      "suçlama": 2782,
      "sözcüsü": 2783,
      "##ron": 2784,
      "yapıyor": 2785,
      "giriş": 2786,
      "GS": 2787,
      "Wash": 2788,
      "başlıca": 2789,
      "Washington": 2790,
      "Bunun": 2791,
      "##for": 2792,
      "önceki": 2793,
      "ür": 2794,
      "##larımız": 2795,
      "referandu": 2796,
      "##tisaari": 2797,
      "##isinde": 2798,
      "ert": 2799,
      "dışişleri": 2800,
      "hakkındaki": 2801,
      "ihtiyaç": 2802,
      "Ahtisaari": 2803,
      "##ska": 2804,
      "##eci": 2805,
      "bağlantı": 2806,
      "AKP": 2807,
      "PKK": 2808,
      "##güne": 2809,
      "Zoran": 2810,
      "##bileceği": 2811,
      "ait": 2812,
      "##je": 2813,
      "Sırplar": 2814,
      "##lığın": 2815,
      "yasal": 2816,
      "durumu": 2817,
      "fon": 2818,
      "cumhurbaşkanı": 2819,
      "mik": 2820,
      "##jansı": 2821,
      "nerede": 2822,
      "Ste": 2823,
      "##lis": 2824,
      "başına": 2825,
      "başarılı": 2826,
      "##may": 2827,
      "##matik": 2828,
      "Ordu": 2829,
      "hala": 2830,
      "toplantısında": 2831,
      "kanıt": 2832,
      "şar": 2833,
      "##sıt": 2834,
      "kişinin": 2835,
      "çevr": 2836,
      "New": 2837,
      "##itab": 2838,
      "istif": 2839,
      "kapat": 2840,
      "Bun": 2841,
      "##LEX": 2842,
      "sağlamak": 2843,
      "cin": 2844,
      "##of": 2845,
      "alındı": 2846,
      "Kurulu": 2847,
      "oldukça": 2848,
      "EULEX": 2849,
      "##cat": 2850,
      "çatış": 2851,
      "sosyal": 2852,
      "statüsü": 2853,
      "Dah": 2854,
      "Müz": 2855,
      "##ladığını": 2856,
      "dışında": 2857,
      "zarar": 2858,
      "##miyor": 2859,
      "##mesinden": 2860,
      "olmayan": 2861,
      "bütçe": 2862,
      "##adal": 2863,
      "BBC": 2864,
      "##anu": 2865,
      "##ırken": 2866,
      "üzerindeki": 2867,
      "Avrupalı": 2868,
      "ederek": 2869,
      "bilim": 2870,
      "Ch": 2871,
      "tören": 2872,
      "entegr": 2873,
      "##tör": 2874,
      "Dra": 2875,
      "şirketi": 2876,
      "altyap": 2877,
      "Dim": 2878,
      "Sekreteri": 2879,
      "De": 2880,
      "##elerde": 2881,
      "anayasa": 2882,
      "##ebilir": 2883,
      "aralarında": 2884,
      "memur": 2885,
      "##tedir": 2886,
      "##kek": 2887,
      "##çılı": 2888,
      "araştırma": 2889,
      "##asıyla": 2890,
      "telef": 2891,
      "##evizyon": 2892,
      "yılından": 2893,
      "katılan": 2894,
      "geçiş": 2895,
      "okul": 2896,
      "Meclis": 2897,
      "sözlerinde": 2898,
      "anlamına": 2899,
      "##can": 2900,
      "##İH": 2901,
      "##ilmesini": 2902,
      "On": 2903,
      "##vg": 2904,
      "##ısının": 2905,
      "yanıt": 2906,
      "çağrısında": 2907,
      "yedi": 2908,
      "tahmin": 2909,
      "buna": 2910,
      "per": 2911,
      "sol": 2912,
      "##cret": 2913,
      "oyna": 2914,
      "merkezi": 2915,
      "gerektiği": 2916,
      "statü": 2917,
      "yolsuzlukla": 2918,
      "önünde": 2919,
      "##ale": 2920,
      "ac": 2921,
      "##hai": 2922,
      "yarar": 2923,
      "üçüncü": 2924,
      "erken": 2925,
      "bunların": 2926,
      "Tek": 2927,
      "##hal": 2928,
      "sahipliği": 2929,
      "Vuk": 2930,
      "misyon": 2931,
      "sağlama": 2932,
      "sekiz": 2933,
      "##tiği": 2934,
      "ülkeye": 2935,
      "##ader": 2936,
      "Bilim": 2937,
      "Mali": 2938,
      "konusundaki": 2939,
      "##ükle": 2940,
      "yapacak": 2941,
      "almak": 2942,
      "##erkes": 2943,
      "uzak": 2944,
      "vurguladı": 2945,
      "Oy": 2946,
      "##mıyor": 2947,
      "##dılar": 2948,
      "göç": 2949,
      "temsilciler": 2950,
      "sayısı": 2951,
      "adet": 2952,
      "yeterli": 2953,
      "çiz": 2954,
      "##nan": 2955,
      "##çisi": 2956,
      "kuvvet": 2957,
      "sonraki": 2958,
      "Festivali": 2959,
      "Georgi": 2960,
      "500": 2961,
      "sözü": 2962,
      "İstikrar": 2963,
      "##ly": 2964,
      "##osyalist": 2965,
      "madal": 2966,
      "vize": 2967,
      "Ayrı": 2968,
      "rekabet": 2969,
      "Film": 2970,
      "##fi": 2971,
      "uzlaşma": 2972,
      "satış": 2973,
      "##rük": 2974,
      "##larca": 2975,
      "heyet": 2976,
      "muh": 2977,
      "la": 2978,
      "verildi": 2979,
      "teknolo": 2980,
      "##stit": 2981,
      "gec": 2982,
      "yılki": 2983,
      "##lüğü": 2984,
      "ikili": 2985,
      "##ılma": 2986,
      "önde": 2987,
      "hakları": 2988,
      "ücret": 2989,
      "Seçim": 2990,
      "Üniversitesi": 2991,
      "konum": 2992,
      "##aya": 2993,
      "##ıyla": 2994,
      "##eceğine": 2995,
      "başken": 2996,
      "karşılaş": 2997,
      "uyarı": 2998,
      "##esindeki": 2999,
      "yüzden": 3000,
      "bakanlığı": 3001,
      "Rumen": 3002,
      "yorum": 3003,
      "##lit": 3004,
      "işlet": 3005,
      "liderleri": 3006,
      "##dikleri": 3007,
      "yine": 3008,
      "geçmiş": 3009,
      "Nov": 3010,
      "##şık": 3011,
      "1999": 3012,
      "biç": 3013,
      "öğret": 3014,
      "otur": 3015,
      "kamuoy": 3016,
      "pers": 3017,
      "Basescu": 3018,
      "defa": 3019,
      "kork": 3020,
      "rejim": 3021,
      "dizi": 3022,
      "umu": 3023,
      "##jik": 3024,
      "soruşturma": 3025,
      "Özel": 3026,
      "Ben": 3027,
      "inan": 3028,
      "halkı": 3029,
      "diye": 3030,
      "##landığı": 3031,
      "##işa": 3032,
      "##erken": 3033,
      "##medi": 3034,
      "ölüm": 3035,
      "##ulan": 3036,
      "##umuz": 3037,
      "İngiliz": 3038,
      "Tra": 3039,
      "olanak": 3040,
      "kuruluşu": 3041,
      "sak": 3042,
      "Sanader": 3043,
      "karış": 3044,
      "seçimleri": 3045,
      "serg": 3046,
      "##üb": 3047,
      "sürüyor": 3048,
      "çıktı": 3049,
      "##vik": 3050,
      "belli": 3051,
      "tamamen": 3052,
      "GSY": 3053,
      "Bazı": 3054,
      "Gül": 3055,
      "Uz": 3056,
      "lar": 3057,
      "##ülüyor": 3058,
      "puan": 3059,
      "civ": 3060,
      "##ğinde": 3061,
      "bulunduğu": 3062,
      "bakış": 3063,
      "Berişa": 3064,
      "dir": 3065,
      "##acı": 3066,
      "##aman": 3067,
      "verg": 3068,
      "yardımcısı": 3069,
      "komutan": 3070,
      "Tay": 3071,
      "işbirliğini": 3072,
      "reformları": 3073,
      "##ılmasına": 3074,
      "Örgüt": 3075,
      "GSYİH": 3076,
      "Siyas": 3077,
      "yoğun": 3078,
      "day": 3079,
      "dünyanın": 3080,
      "Ayrıca": 3081,
      "ülkeyi": 3082,
      "cumhurbaşkanlığı": 3083,
      "giderek": 3084,
      "İçişleri": 3085,
      "Stan": 3086,
      "planlıyor": 3087,
      "nden": 3088,
      "##yal": 3089,
      "##neği": 3090,
      "yüküm": 3091,
      "çif": 3092,
      "çap": 3093,
      "##istik": 3094,
      "eksik": 3095,
      "İsv": 3096,
      "belediye": 3097,
      "##mel": 3098,
      "yapılması": 3099,
      "Polis": 3100,
      "##iliği": 3101,
      "halkının": 3102,
      "bar": 3103,
      "bah": 3104,
      "Anay": 3105,
      "olsa": 3106,
      "bilin": 3107,
      "Vla": 3108,
      "Gru": 3109,
      "Yetkil": 3110,
      "##sen": 3111,
      "sürekli": 3112,
      "kriter": 3113,
      "Sosyal": 3114,
      "yılına": 3115,
      "##meden": 3116,
      "söyley": 3117,
      "anayas": 3118,
      "çağrıda": 3119,
      "atı": 3120,
      "istih": 3121,
      "##ehir": 3122,
      "##ia": 3123,
      "##ene": 3124,
      "teknik": 3125,
      "ihla": 3126,
      "##kiler": 3127,
      "##ela": 3128,
      "teşvik": 3129,
      "Ka": 3130,
      "del": 3131,
      "##tor": 3132,
      "yetkililerin": 3133,
      "##ükleer": 3134,
      "harca": 3135,
      "çoğunluk": 3136,
      "Mos": 3137,
      "Pon": 3138,
      "yara": 3139,
      "oranı": 3140,
      "sağlaya": 3141,
      "ağır": 3142,
      "görüyor": 3143,
      "ettiler": 3144,
      "olmadığı": 3145,
      "üretim": 3146,
      "Sosyalist": 3147,
      "Geniş": 3148,
      "Parlamentosu": 3149,
      "##dak": 3150,
      "##wn": 3151,
      "halkın": 3152,
      "yoluyla": 3153,
      "ilerlet": 3154,
      "Jos": 3155,
      "boru": 3156,
      "DPA": 3157,
      "avroya": 3158,
      "Atlan": 3159,
      "Miloseviç": 3160,
      "sanda": 3161,
      "##cisi": 3162,
      "yaşan": 3163,
      "Si": 3164,
      "Tr": 3165,
      "##DP": 3166,
      "olabilir": 3167,
      "müzakerelerin": 3168,
      "##ou": 3169,
      "turist": 3170,
      "nokta": 3171,
      "Karadziç": 3172,
      "ülkesi": 3173,
      "özgürlü": 3174,
      "fırsat": 3175,
      "Kuzey": 3176,
      "##yip": 3177,
      "ısrar": 3178,
      "of": 3179,
      "Yer": 3180,
      "proje": 3181,
      "ürün": 3182,
      "konferans": 3183,
      "Den": 3184,
      "Doğu": 3185,
      "Kalk": 3186,
      "başında": 3187,
      "##lardır": 3188,
      "##ımız": 3189,
      "nihai": 3190,
      "birbir": 3191,
      "Enstit": 3192,
      "tük": 3193,
      "güc": 3194,
      "erkek": 3195,
      "özgür": 3196,
      "Yak": 3197,
      "herkes": 3198,
      "##sav": 3199,
      "kav": 3200,
      "##ülmesi": 3201,
      "Pek": 3202,
      "##TK": 3203,
      "kayıt": 3204,
      "öncesinde": 3205,
      "korun": 3206,
      "Ekonomi": 3207,
      "man": 3208,
      "##vo": 3209,
      "Ash": 3210,
      "##ian": 3211,
      "aylık": 3212,
      "süreç": 3213,
      "müzakere": 3214,
      "mecli": 3215,
      "profes": 3216,
      "adayı": 3217,
      "televizyon": 3218,
      "##idir": 3219,
      "##ampiyon": 3220,
      "kapasit": 3221,
      "memnuniyetle": 3222,
      "Fin": 3223,
      "Grub": 3224,
      "belirlen": 3225,
      "büyüme": 3226,
      "ihracat": 3227,
      "övg": 3228,
      "söylediler": 3229,
      "davet": 3230,
      "neredeyse": 3231,
      "Atlantik": 3232,
      "sistemi": 3233,
      "analist": 3234,
      "anlaşmanın": 3235,
      "##tral": 3236,
      "festival": 3237,
      "tanım": 3238,
      "mens": 3239,
      "SA": 3240,
      "pak": 3241,
      "yapmak": 3242,
      "yasadışı": 3243,
      "Amerik": 3244,
      "yılda": 3245,
      "##oğraf": 3246,
      "sırada": 3247,
      "##enica": 3248,
      "düşür": 3249,
      "belediy": 3250,
      "60": 3251,
      "Ol": 3252,
      "Sp": 3253,
      "savun": 3254,
      "mesaj": 3255,
      "isteyen": 3256,
      "35": 3257,
      "Dav": 3258,
      "##sun": 3259,
      "##ök": 3260,
      "##hat": 3261,
      "Ab": 3262,
      "giz": 3263,
      "miktar": 3264,
      "zaf": 3265,
      "yetkili": 3266,
      "ölçüde": 3267,
      "Kalkınma": 3268,
      "Cin": 3269,
      "savcı": 3270,
      "toplumun": 3271,
      "hep": 3272,
      "##layarak": 3273,
      "referandum": 3274,
      "madalya": 3275,
      "Üyesi": 3276,
      "##latı": 3277,
      "açıkla": 3278,
      "met": 3279,
      "kampanya": 3280,
      "risk": 3281,
      "adalet": 3282,
      "kaçakçılı": 3283,
      "Hollanda": 3284,
      "Gruevski": 3285,
      "itir": 3286,
      "tesis": 3287,
      "içer": 3288,
      "##lıklar": 3289,
      "##düğünü": 3290,
      "1990": 3291,
      "Jovanoviç": 3292,
      "##ayi": 3293,
      "adı": 3294,
      "##ke": 3295,
      "##co": 3296,
      "##abrik": 3297,
      "sürecinin": 3298,
      "hemen": 3299,
      "düzenlediği": 3300,
      "Genişleme": 3301,
      "##kır": 3302,
      "##uşturucu": 3303,
      "fikir": 3304,
      "saf": 3305,
      "güvence": 3306,
      "biçim": 3307,
      "Os": 3308,
      "ndan": 3309,
      "##iri": 3310,
      "##ünkü": 3311,
      "##utbol": 3312,
      "##şiv": 3313,
      "Gel": 3314,
      "##go": 3315,
      "birleştir": 3316,
      "##tılar": 3317,
      "2002": 3318,
      "don": 3319,
      "bugüne": 3320,
      "Enstitüsü": 3321,
      "birinci": 3322,
      "##teş": 3323,
      "müda": 3324,
      "ediyorlar": 3325,
      "desteği": 3326,
      "Tayyip": 3327,
      "##ekten": 3328,
      "Demokratik": 3329,
      "##yo": 3330,
      "Jo": 3331,
      "hav": 3332,
      "mak": 3333,
      "##lilik": 3334,
      "##oğlu": 3335,
      "##eza": 3336,
      "Kan": 3337,
      "Rat": 3338,
      "##yu": 3339,
      "##ansı": 3340,
      "##dern": 3341,
      "##ij": 3342,
      "##uh": 3343,
      "##üny": 3344,
      "Avusturya": 3345,
      "Ponte": 3346,
      "mağ": 3347,
      "gelenek": 3348,
      "koru": 3349,
      "nükleer": 3350,
      "##ard": 3351,
      "##deniz": 3352,
      "##esiç": 3353,
      "##iyorlar": 3354,
      "kendiler": 3355,
      "##kiç": 3356,
      "gösteren": 3357,
      "yurt": 3358,
      "##erin": 3359,
      "##ilmesine": 3360,
      "liderliğ": 3361,
      "gümrük": 3362,
      "şef": 3363,
      "saygı": 3364,
      "kaldı": 3365,
      "sorunları": 3366,
      "##rail": 3367,
      "giden": 3368,
      "emekli": 3369,
      "Şu": 3370,
      "##langı": 3371,
      "kons": 3372,
      "eşit": 3373,
      "es": 3374,
      "İvan": 3375,
      "##ütün": 3376,
      "kapı": 3377,
      "görevi": 3378,
      "İsrail": 3379,
      "olumsuz": 3380,
      "##sur": 3381,
      "##ulması": 3382,
      "verecek": 3383,
      "##ekom": 3384,
      "araç": 3385,
      "##lığında": 3386,
      "##tem": 3387,
      "seçimler": 3388,
      "tartışma": 3389,
      "hapis": 3390,
      "##ert": 3391,
      "itibar": 3392,
      "altın": 3393,
      "zira": 3394,
      "olup": 3395,
      "İsp": 3396,
      "Sre": 3397,
      "danış": 3398,
      "çünkü": 3399,
      "bakanı": 3400,
      "doğalgaz": 3401,
      "##layacak": 3402,
      "paylaş": 3403,
      "kız": 3404,
      "ortadan": 3405,
      "milliyet": 3406,
      "yükümlül": 3407,
      "Tic": 3408,
      "##iniz": 3409,
      "2001": 3410,
      "köy": 3411,
      "##dikal": 3412,
      "##maktadır": 3413,
      "civarında": 3414,
      "Srebr": 3415,
      "fay": 3416,
      "sab": 3417,
      "İlk": 3418,
      "inşaat": 3419,
      "suçlu": 3420,
      "Daha": 3421,
      "Halk": 3422,
      "ihtiyacı": 3423,
      "##alt": 3424,
      "##eydi": 3425,
      "Sırpların": 3426,
      "Boş": 3427,
      "##otov": 3428,
      "Ajansı": 3429,
      "Yol": 3430,
      "vad": 3431,
      "açılı": 3432,
      "nokt": 3433,
      "santral": 3434,
      "Pop": 3435,
      "Voj": 3436,
      "##lasyon": 3437,
      "vermek": 3438,
      "##mez": 3439,
      "alanında": 3440,
      "mahkeme": 3441,
      "kendisini": 3442,
      "müdürü": 3443,
      "İran": 3444,
      "aktar": 3445,
      "Üç": 3446,
      "##ılan": 3447,
      "##him": 3448,
      "##lıkları": 3449,
      "##mediğini": 3450,
      "bildirildi": 3451,
      "##leti": 3452,
      "Başkan": 3453,
      "Se": 3454,
      "##urg": 3455,
      "unsur": 3456,
      "Yap": 3457,
      "yoksul": 3458,
      "person": 3459,
      "Yerel": 3460,
      "##arılan": 3461,
      "2011": 3462,
      "mar": 3463,
      "##ikat": 3464,
      "indir": 3465,
      "yasak": 3466,
      "altyapı": 3467,
      "Boşnak": 3468,
      "Kes": 3469,
      "Tom": 3470,
      "##yız": 3471,
      "bugün": 3472,
      "sürecini": 3473,
      "fayda": 3474,
      "##ekan": 3475,
      "düşüş": 3476,
      "modern": 3477,
      "Yetkililer": 3478,
      "Ro": 3479,
      "onun": 3480,
      "dokuz": 3481,
      "Öte": 3482,
      "yav": 3483,
      "gösterdi": 3484,
      "Has": 3485,
      "Ratko": 3486,
      "Mo": 3487,
      "bit": 3488,
      "insanların": 3489,
      "Maliye": 3490,
      "Slo": 3491,
      "fabrik": 3492,
      "bağış": 3493,
      "kasab": 3494,
      "entegrasyon": 3495,
      "##emen": 3496,
      "raporda": 3497,
      "yavaş": 3498,
      "hızlı": 3499,
      "##unları": 3500,
      "gözlem": 3501,
      "üyeliğine": 3502,
      "Feder": 3503,
      "##yahat": 3504,
      "günlerde": 3505,
      "ticari": 3506,
      "firma": 3507,
      "kural": 3508,
      "Macaristan": 3509,
      "mensup": 3510,
      "##dis": 3511,
      "sert": 3512,
      "söyleyerek": 3513,
      "ihlal": 3514,
      "Bağ": 3515,
      "dar": 3516,
      "Suç": 3517,
      "Araştırma": 3518,
      "beklenen": 3519,
      "yatırımcı": 3520,
      "bildirdi": 3521,
      "Görüş": 3522,
      "Büyükelçisi": 3523,
      "Ceza": 3524,
      "Gotov": 3525,
      "bom": 3526,
      "##kova": 3527,
      "##ınca": 3528,
      "uyuşturucu": 3529,
      "hattı": 3530,
      "Pod": 3531,
      "##eta": 3532,
      "##tiğini": 3533,
      "kısm": 3534,
      "##jana": 3535,
      "söylüyorlar": 3536,
      "Ülke": 3537,
      "Ali": 3538,
      "##ula": 3539,
      "##emez": 3540,
      "Gotovina": 3541,
      "000": 3542,
      "##üst": 3543,
      "Fon": 3544,
      "##ilerinin": 3545,
      "teşkil": 3546,
      "Yıl": 3547,
      "tepki": 3548,
      "mut": 3549,
      "ayak": 3550,
      "Fat": 3551,
      "Mitr": 3552,
      "Pol": 3553,
      "yapmaya": 3554,
      "taşıyor": 3555,
      "##ormu": 3556,
      "##cağız": 3557,
      "kalma": 3558,
      "##forman": 3559,
      "emin": 3560,
      "soy": 3561,
      "yaptıkları": 3562,
      "bölgenin": 3563,
      "onayladı": 3564,
      "kültürel": 3565,
      "milletvekili": 3566,
      "##ydı": 3567,
      "yanlısı": 3568,
      "Ticaret": 3569,
      "##ilerini": 3570,
      "alınan": 3571,
      "##ürlüğe": 3572,
      "And": 3573,
      "Anton": 3574,
      "##dış": 3575,
      "Sur": 3576,
      "gez": 3577,
      "mült": 3578,
      "edilmiş": 3579,
      "görevli": 3580,
      "Libya": 3581,
      "re": 3582,
      "##ıldığı": 3583,
      "##usunda": 3584,
      "üstlen": 3585,
      "teşki": 3586,
      "##lev": 3587,
      "verim": 3588,
      "veriyor": 3589,
      "##itap": 3590,
      "anlaşmaya": 3591,
      "##abilecek": 3592,
      "Ma": 3593,
      "yık": 3594,
      "##dam": 3595,
      "##isti": 3596,
      "##oks": 3597,
      "verdiler": 3598,
      "##liğinin": 3599,
      "vadeli": 3600,
      "Lj": 3601,
      "uyardı": 3602,
      "solda": 3603,
      "ateş": 3604,
      "##lardaki": 3605,
      "kaz": 3606,
      "açıldı": 3607,
      "üzerinden": 3608,
      "yakında": 3609,
      "ilgilen": 3610,
      "sonucu": 3611,
      "olasılıkla": 3612,
      "performan": 3613,
      "##deler": 3614,
      "kurtar": 3615,
      "sorunlar": 3616,
      "kurulması": 3617,
      "Vojislav": 3618,
      "##emey": 3619,
      "Mesiç": 3620,
      "Tari": 3621,
      "Beledi": 3622,
      "##tikr": 3623,
      "Solana": 3624,
      "planı": 3625,
      "tarım": 3626,
      "kısıt": 3627,
      "Arşiv": 3628,
      "##down": 3629,
      "##tal": 3630,
      "komün": 3631,
      "yürürlüğe": 3632,
      "alış": 3633,
      "liderliğindeki": 3634,
      "Slobo": 3635,
      "##isyonu": 3636,
      "##masi": 3637,
      "büyükelç": 3638,
      "demokrasi": 3639,
      "işbirliğinin": 3640,
      "pop": 3641,
      "çar": 3642,
      "önlem": 3643,
      "uygulanması": 3644,
      "Rama": 3645,
      "dek": 3646,
      "Çin": 3647,
      "##ich": 3648,
      "1992": 3649,
      "yazar": 3650,
      "##ier": 3651,
      "Ashdown": 3652,
      "Ter": 3653,
      "gr": 3654,
      "Fransız": 3655,
      "temas": 3656,
      "görüşme": 3657,
      "Dimitr": 3658,
      "çift": 3659,
      "Slobodan": 3660,
      "futbol": 3661,
      "##yi": 3662,
      "birleş": 3663,
      "artan": 3664,
      "seyahat": 3665,
      "sunu": 3666,
      "müzakereleri": 3667,
      "Day": 3668,
      "##bay": 3669,
      "##ersiz": 3670,
      "istikr": 3671,
      "başkent": 3672,
      "Cinciç": 3673,
      "odak": 3674,
      "sar": 3675,
      "##ğinin": 3676,
      "##mektedir": 3677,
      "reddetti": 3678,
      "##veriş": 3679,
      "Ver": 3680,
      "il": 3681,
      "mı": 3682,
      "##ck": 3683,
      "konuda": 3684,
      "sundu": 3685,
      "sonucunda": 3686,
      "şarkı": 3687,
      "maliyet": 3688,
      "oyuncu": 3689,
      "Gazet": 3690,
      "Bay": 3691,
      "Biz": 3692,
      "##yıl": 3693,
      "198": 3694,
      "hes": 3695,
      "##sını": 3696,
      "bulunma": 3697,
      "Yine": 3698,
      "mi": 3699,
      "som": 3700,
      "##cusu": 3701,
      "oluyor": 3702,
      "dini": 3703,
      "söylen": 3704,
      "diyalog": 3705,
      "can": 3706,
      "şans": 3707,
      "suçla": 3708,
      "bizim": 3709,
      "acil": 3710,
      "Yön": 3711,
      "##dra": 3712,
      "##eg": 3713,
      "etkili": 3714,
      "arası": 3715,
      "lim": 3716,
      "olduklarını": 3717,
      "Srebrenica": 3718,
      "rö": 3719,
      "gündem": 3720,
      "##muştu": 3721,
      "mahkemesi": 3722,
      "yürütülen": 3723,
      "Jan": 3724,
      "Mol": 3725,
      "Pa": 3726,
      "inş": 3727,
      "gergin": 3728,
      "soru": 3729,
      "tarihli": 3730,
      "başlangı": 3731,
      "##emin": 3732,
      "yetk": 3733,
      "elçisi": 3734,
      "planlanan": 3735,
      "sanatçı": 3736,
      "300": 3737,
      "##fik": 3738,
      "durdur": 3739,
      "alınması": 3740,
      "edeceğini": 3741,
      "##ildiği": 3742,
      "kurban": 3743,
      "##ayıf": 3744,
      "arka": 3745,
      "##unuz": 3746,
      "##mayacak": 3747,
      "binlerce": 3748,
      "Hareket": 3749,
      "##alan": 3750,
      "enf": 3751,
      "somut": 3752,
      "sanı": 3753,
      "incel": 3754,
      "##ilip": 3755,
      "##isay": 3756,
      "##üldü": 3757,
      "2000": 3758,
      "tarihleri": 3759,
      "silahlı": 3760,
      "baz": 3761,
      "##ele": 3762,
      "kampan": 3763,
      "Diplo": 3764,
      "oluşturuyor": 3765,
      "katılma": 3766,
      "Papand": 3767,
      "##diyor": 3768,
      "bakanları": 3769,
      "Aynı": 3770,
      "Geçtiğimiz": 3771,
      "diplomat": 3772,
      "Şimdi": 3773,
      "##liam": 3774,
      "stratejik": 3775,
      "çerçevesinde": 3776,
      "zafer": 3777,
      "zayıf": 3778,
      "##taki": 3779,
      "oyn": 3780,
      "adam": 3781,
      "##portaj": 3782,
      "hasta": 3783,
      "iade": 3784,
      "##kov": 3785,
      "##rist": 3786,
      "karşılıklı": 3787,
      "hakkı": 3788,
      "##ern": 3789,
      "##iydi": 3790,
      "##umu": 3791,
      "imzaladı": 3792,
      "grubu": 3793,
      "Bran": 3794,
      "ses": 3795,
      "öt": 3796,
      "##âr": 3797,
      "##evi": 3798,
      "onu": 3799,
      "mekan": 3800,
      "##anam": 3801,
      "katkıda": 3802,
      "##ih": 3803,
      "hakim": 3804,
      "denetim": 3805,
      "kararını": 3806,
      "olmakla": 3807,
      "komisyon": 3808,
      "Podgor": 3809,
      "Din": 3810,
      "##sh": 3811,
      "##ES": 3812,
      "##ura": 3813,
      "ayrıntı": 3814,
      "yükümlülük": 3815,
      "Oh": 3816,
      "Çalı": 3817,
      "##lanmasına": 3818,
      "müdahale": 3819,
      "anlaşmayı": 3820,
      "##otoğraf": 3821,
      "Etkin": 3822,
      "##üler": 3823,
      "##steri": 3824,
      "sorumluluk": 3825,
      "kilom": 3826,
      "gazetecilere": 3827,
      "telefon": 3828,
      "gecik": 3829,
      "yerini": 3830,
      "polisi": 3831,
      "reformu": 3832,
      "yurtdış": 3833,
      "Kam": 3834,
      "önüne": 3835,
      "günde": 3836,
      "yarı": 3837,
      "bundan": 3838,
      "Papandre": 3839,
      "##yonel": 3840,
      "ünivers": 3841,
      "Ordusu": 3842,
      "SAA": 3843,
      "röportaj": 3844,
      "yin": 3845,
      "##ileş": 3846,
      "##esiz": 3847,
      "##lenmesi": 3848,
      "geçici": 3849,
      "programı": 3850,
      "açılış": 3851,
      "DS": 3852,
      "##ulos": 3853,
      "haberlerinde": 3854,
      "General": 3855,
      "statüs": 3856,
      "kurma": 3857,
      "seçimlerin": 3858,
      "tedbirler": 3859,
      "yerli": 3860,
      "gücü": 3861,
      "Kad": 3862,
      "Mic": 3863,
      "STK": 3864,
      "##landığını": 3865,
      "olmadı": 3866,
      "Ülkenin": 3867,
      "hayata": 3868,
      "İtalyan": 3869,
      "övgüde": 3870,
      "70": 3871,
      "Haf": 3872,
      "işsizlik": 3873,
      "##bilmek": 3874,
      "partinin": 3875,
      "Derneği": 3876,
      "ayın": 3877,
      "açıkça": 3878,
      "Enerji": 3879,
      "Anayasa": 3880,
      "cep": 3881,
      "##atistik": 3882,
      "alması": 3883,
      "##oliç": 3884,
      "istifa": 3885,
      "##DS": 3886,
      "işlem": 3887,
      "kurulan": 3888,
      "gizli": 3889,
      "liderler": 3890,
      "boz": 3891,
      "çab": 3892,
      "##son": 3893,
      "yüzyıl": 3894,
      "temiz": 3895,
      "Zagrep": 3896,
      "kilit": 3897,
      "kaydedilen": 3898,
      "Dur": 3899,
      "bay": 3900,
      "nak": 3901,
      "ettik": 3902,
      "kendisine": 3903,
      "viz": 3904,
      "##imser": 3905,
      "##edür": 3906,
      "yönetimi": 3907,
      "sonuçlar": 3908,
      "komutanı": 3909,
      "Kesimi": 3910,
      "Ödül": 3911,
      "##gemen": 3912,
      "##mediği": 3913,
      "başkanlık": 3914,
      "nitelendirdi": 3915,
      "Çalış": 3916,
      "denet": 3917,
      "##neğin": 3918,
      "Grubu": 3919,
      "Tar": 3920,
      "gelecekte": 3921,
      "Car": 3922,
      "##ider": 3923,
      "lis": 3924,
      "çoğ": 3925,
      "Luka": 3926,
      "şehir": 3927,
      "##dön": 3928,
      "oranda": 3929,
      "partisinin": 3930,
      "Müdürü": 3931,
      "##rken": 3932,
      "##ullah": 3933,
      "olmasını": 3934,
      "##elerinde": 3935,
      "görülen": 3936,
      "alanda": 3937,
      "koor": 3938,
      "Olli": 3939,
      "Tan": 3940,
      "Çek": 3941,
      "tarihte": 3942,
      "örnek": 3943,
      "York": 3944,
      "Sto": 3945,
      "##rven": 3946,
      "##inc": 3947,
      "##sıyla": 3948,
      "buluna": 3949,
      "insanlar": 3950,
      "Man": 3951,
      "##ıldığını": 3952,
      "##lusu": 3953,
      "müzakerelerinin": 3954,
      "raporunda": 3955,
      "başarısız": 3956,
      "pros": 3957,
      "##ısına": 3958,
      "tatil": 3959,
      "Medi": 3960,
      "##io": 3961,
      "##eledi": 3962,
      "##elerinden": 3963,
      "Dodik": 3964,
      "Podgorica": 3965,
      "##ayın": 3966,
      "uygulamaya": 3967,
      "üstün": 3968,
      "Program": 3969,
      "Siyasi": 3970,
      "sef": 3971,
      "taz": 3972,
      "İz": 3973,
      "yönde": 3974,
      "durumun": 3975,
      "sanayi": 3976,
      "gözden": 3977,
      "bilgisay": 3978,
      "Dayton": 3979,
      "aley": 3980,
      "nor": 3981,
      "not": 3982,
      "##olog": 3983,
      "edilecek": 3984,
      "iktidardaki": 3985,
      "##dönüm": 3986,
      "prosedür": 3987,
      "ces": 3988,
      "kol": 3989,
      "##faf": 3990,
      "##ovica": 3991,
      "##aliz": 3992,
      "Proj": 3993,
      "kesinlikle": 3994,
      "özelleştirme": 3995,
      "cinayet": 3996,
      "No": 3997,
      "yılındaki": 3998,
      "sürecinde": 3999,
      "başlattı": 4000,
      "mez": 4001,
      "terk": 4002,
      "##lete": 4003,
      "##lanmasını": 4004,
      "##üzel": 4005,
      "yayınladığı": 4006,
      "##luğun": 4007,
      "genişlet": 4008,
      "Bütün": 4009,
      "olmadan": 4010,
      "ortalama": 4011,
      "aleyh": 4012,
      "Mari": 4013,
      "Ref": 4014,
      "Festival": 4015,
      "##fan": 4016,
      "belirtiyor": 4017,
      "olacaktır": 4018,
      "Bo": 4019,
      "yıldan": 4020,
      "kenti": 4021,
      "sey": 4022,
      "Şirket": 4023,
      "##tının": 4024,
      "birim": 4025,
      "raki": 4026,
      "##klarını": 4027,
      "kalacak": 4028,
      "verilecek": 4029,
      "##ovac": 4030,
      "Analist": 4031,
      "devletin": 4032,
      "bölünmüş": 4033,
      "Raporda": 4034,
      "Vu": 4035,
      "atan": 4036,
      "##eden": 4037,
      "söyleyen": 4038,
      "##emek": 4039,
      "bağımsızlığını": 4040,
      "Radovan": 4041,
      "Sim": 4042,
      "##DA": 4043,
      "sektörü": 4044,
      "profesyonel": 4045,
      "Papandreu": 4046,
      "Annan": 4047,
      "duruş": 4048,
      "Seydi": 4049,
      "##doks": 4050,
      "yıldönüm": 4051,
      "geleceği": 4052,
      "belirtildi": 4053,
      "Orto": 4054,
      "reformların": 4055,
      "##rvenkovski": 4056,
      "Seydiu": 4057,
      "Ivan": 4058,
      "##iu": 4059,
      "##ıyorlar": 4060,
      "durumunda": 4061,
      "imzalanan": 4062,
      "Ortodoks": 4063,
      "##res": 4064,
      "artı": 4065,
      "##ruf": 4066,
      "sit": 4067,
      "##sin": 4068,
      "gere": 4069,
      "olacağı": 4070,
      "konuşmasında": 4071,
      "adımlar": 4072,
      "hastan": 4073,
      "diplomatik": 4074,
      "temsilcileri": 4075,
      "Mecli": 4076,
      "şik": 4077,
      "##ukan": 4078,
      "kayn": 4079,
      "konser": 4080,
      "Banja": 4081,
      "makamları": 4082,
      "Belediye": 4083,
      "La": 4084,
      "yat": 4085,
      "##ğın": 4086,
      "##lacağını": 4087,
      "##lum": 4088,
      "##laştırma": 4089,
      "Arnavutlar": 4090,
      "gitti": 4091,
      "Mark": 4092,
      "kir": 4093,
      "##cının": 4094,
      "toplantıda": 4095,
      "Genişlemeden": 4096,
      "##dek": 4097,
      "##ons": 4098,
      "mülk": 4099,
      "##luğunu": 4100,
      "Afgan": 4101,
      "Federasyonu": 4102,
      "dö": 4103,
      "hoş": 4104,
      "kend": 4105,
      "iste": 4106,
      "belirten": 4107,
      "##lığından": 4108,
      "Anlaşma": 4109,
      "Sali": 4110,
      "egemen": 4111,
      "##ediler": 4112,
      "sözleri": 4113,
      "seçimlerde": 4114,
      "derin": 4115,
      "Plan": 4116,
      "karma": 4117,
      "##mayacağını": 4118,
      "Dragan": 4119,
      "içindeki": 4120,
      "endişe": 4121,
      "kuş": 4122,
      "yani": 4123,
      "İspanya": 4124,
      "##dy": 4125,
      "##effer": 4126,
      "deney": 4127,
      "sisteminin": 4128,
      "piyasa": 4129,
      "rah": 4130,
      "##asından": 4131,
      "çabalarını": 4132,
      "kaçakçılığı": 4133,
      "cumhuriyet": 4134,
      "Scheffer": 4135,
      "temsilcisi": 4136,
      "##uda": 4137,
      "##tım": 4138,
      "##cılığı": 4139,
      "yaygın": 4140,
      "başkanlığını": 4141,
      "çevre": 4142,
      "##lında": 4143,
      "##ğının": 4144,
      "##ham": 4145,
      "##atif": 4146,
      "##masıyla": 4147,
      "##cih": 4148,
      "getirmek": 4149,
      "Hoop": 4150,
      "Amerikan": 4151,
      "ihale": 4152,
      "oyla": 4153,
      "##ıda": 4154,
      "deniz": 4155,
      "Stefan": 4156,
      "Dn": 4157,
      "eser": 4158,
      "##eliç": 4159,
      "##iyede": 4160,
      "gerçekten": 4161,
      "Karar": 4162,
      "itiraz": 4163,
      "##dük": 4164,
      "##pe": 4165,
      "##ora": 4166,
      "örgütü": 4167,
      "##memiş": 4168,
      "görünüyor": 4169,
      "idari": 4170,
      "Abd": 4171,
      "Tomislav": 4172,
      "vak": 4173,
      "geleceğ": 4174,
      "iyileş": 4175,
      "zamandır": 4176,
      "imzaladılar": 4177,
      "reddet": 4178,
      "arz": 4179,
      "uyarınca": 4180,
      "80": 4181,
      "##jiç": 4182,
      "ziyareti": 4183,
      "kurumları": 4184,
      "Dnev": 4185,
      "##ort": 4186,
      "oylama": 4187,
      "kısmı": 4188,
      "hayatını": 4189,
      "itha": 4190,
      "umuyor": 4191,
      "Uzman": 4192,
      "##kırım": 4193,
      "##ıya": 4194,
      "sayesinde": 4195,
      "hitab": 4196,
      "##omo": 4197,
      "oldukları": 4198,
      "gösteri": 4199,
      "başlayan": 4200,
      "tercih": 4201,
      "çalışmaları": 4202,
      "eğil": 4203,
      "Kup": 4204,
      "##ktan": 4205,
      "ilişkilerin": 4206,
      "getiren": 4207,
      "çabaları": 4208,
      "kapsamlı": 4209,
      "öngörülüyor": 4210,
      "hitaben": 4211,
      "Lider": 4212,
      "ima": 4213,
      "mekt": 4214,
      "ruh": 4215,
      "##miştir": 4216,
      "sorum": 4217,
      "ilgi": 4218,
      "##oloji": 4219,
      "üretic": 4220,
      "istediğini": 4221,
      "personel": 4222,
      "bilgisayar": 4223,
      "##SD": 4224,
      "##onal": 4225,
      "tanık": 4226,
      "dağ": 4227,
      "##ilerine": 4228,
      "alına": 4229,
      "katılmak": 4230,
      "tutuklama": 4231,
      "Moskova": 4232,
      "Yatırım": 4233,
      "##tur": 4234,
      "##ga": 4235,
      "yapım": 4236,
      "##iyatro": 4237,
      "mesl": 4238,
      "Abdullah": 4239,
      "gem": 4240,
      "yük": 4241,
      "şah": 4242,
      "biraz": 4243,
      "başsav": 4244,
      "aldığını": 4245,
      "kaygı": 4246,
      "yolsuz": 4247,
      "sürecine": 4248,
      "##bilmesi": 4249,
      "##ecektir": 4250,
      "Birliğe": 4251,
      "toplumsal": 4252,
      "Dan": 4253,
      "Sağ": 4254,
      "Yas": 4255,
      "binden": 4256,
      "##engin": 4257,
      "birisi": 4258,
      "almaya": 4259,
      "göreve": 4260,
      "dışı": 4261,
      "reformlar": 4262,
      "imzalandı": 4263,
      "Sanat": 4264,
      "tüket": 4265,
      "Suriye": 4266,
      "45": 4267,
      "traf": 4268,
      "##ala": 4269,
      "Birlik": 4270,
      "kalkınma": 4271,
      "Mold": 4272,
      "Petr": 4273,
      "##enek": 4274,
      "savunuyor": 4275,
      "olasılığı": 4276,
      "ata": 4277,
      "##burg": 4278,
      "artırma": 4279,
      "yıllarda": 4280,
      "uğr": 4281,
      "sokak": 4282,
      "görüştü": 4283,
      "vardı": 4284,
      "partileri": 4285,
      "korum": 4286,
      "CE": 4287,
      "Jer": 4288,
      "##syonu": 4289,
      "etmeyi": 4290,
      "Bugün": 4291,
      "paket": 4292,
      "Med": 4293,
      "bec": 4294,
      "niyet": 4295,
      "sin": 4296,
      "##OA": 4297,
      "zamanı": 4298,
      "ziyarette": 4299,
      "150": 4300,
      "Yetkili": 4301,
      "##ovska": 4302,
      "kaydet": 4303,
      "taraflı": 4304,
      "partilerin": 4305,
      "taleb": 4306,
      "bür": 4307,
      "götür": 4308,
      "Komitesi": 4309,
      "Milan": 4310,
      "dolarlık": 4311,
      "Kal": 4312,
      "Sür": 4313,
      "şirketin": 4314,
      "Diplomasi": 4315,
      "Oper": 4316,
      "##kın": 4317,
      "##gara": 4318,
      "##dimir": 4319,
      "##rali": 4320,
      "##ukat": 4321,
      "##mesiyle": 4322,
      "##diklerini": 4323,
      "dolaş": 4324,
      "Ekonomik": 4325,
      "Osman": 4326,
      "400": 4327,
      "Uy": 4328,
      "##meni": 4329,
      "##madan": 4330,
      "##emesi": 4331,
      "##kadem": 4332,
      "bölgesinde": 4333,
      "kazanan": 4334,
      "Banka": 4335,
      "Afganistan": 4336,
      "mücadelede": 4337,
      "müzakerelerini": 4338,
      "##ektörü": 4339,
      "Kil": 4340,
      "mer": 4341,
      "suik": 4342,
      "başlayacak": 4343,
      "yönetmen": 4344,
      "projenin": 4345,
      "##meyeceğini": 4346,
      "biçimde": 4347,
      "yapacağı": 4348,
      "##sta": 4349,
      "##zerk": 4350,
      "kullanım": 4351,
      "yükselt": 4352,
      "Te": 4353,
      "##fett": 4354,
      "sağda": 4355,
      "##afa": 4356,
      "belirtiliyor": 4357,
      "mahkemesiyle": 4358,
      "Nikoliç": 4359,
      "ekip": 4360,
      "sefer": 4361,
      "karmaşık": 4362,
      "##ılmasının": 4363,
      "geldiler": 4364,
      "ayır": 4365,
      "enflasyon": 4366,
      "ip": 4367,
      "##arken": 4368,
      "etki": 4369,
      "geldiğini": 4370,
      "bölgesi": 4371,
      "değişim": 4372,
      "dolu": 4373,
      "##ebek": 4374,
      "##uar": 4375,
      "##biliyor": 4376,
      "sahn": 4377,
      "##mıştır": 4378,
      "vatandaşların": 4379,
      "##meyen": 4380,
      "##atörü": 4381,
      "mir": 4382,
      "güçlük": 4383,
      "projesi": 4384,
      "değişiklikler": 4385,
      "çarp": 4386,
      "İgor": 4387,
      "##meli": 4388,
      "yanında": 4389,
      "parça": 4390,
      "Genç": 4391,
      "Moldova": 4392,
      "Res": 4393,
      "ders": 4394,
      "sem": 4395,
      "##kul": 4396,
      "##riyat": 4397,
      "##vi": 4398,
      "katliam": 4399,
      "yasanın": 4400,
      "Alek": 4401,
      "Fatmir": 4402,
      "VOA": 4403,
      "maç": 4404,
      "pas": 4405,
      "##TA": 4406,
      "kararın": 4407,
      "adil": 4408,
      "bazıları": 4409,
      "Bat": 4410,
      "Gir": 4411,
      "zengin": 4412,
      "##ste": 4413,
      "sağlam": 4414,
      "Belg": 4415,
      "Demokrasi": 4416,
      "hayal": 4417,
      "Adriyat": 4418,
      "kabin": 4419,
      "##lerimiz": 4420,
      "getiriyor": 4421,
      "Adriyatik": 4422,
      "Aç": 4423,
      "İk": 4424,
      "##ray": 4425,
      "##inda": 4426,
      "##ayolu": 4427,
      "##lüğ": 4428,
      "sayısının": 4429,
      "gerçekleşecek": 4430,
      "##abileceğini": 4431,
      "##çok": 4432,
      "buldu": 4433,
      "onları": 4434,
      "arab": 4435,
      "görüşmek": 4436,
      "öldürül": 4437,
      "Hakları": 4438,
      "geleneksel": 4439,
      "Eğitim": 4440,
      "meş": 4441,
      "verdiğini": 4442,
      "toplantısı": 4443,
      "çatışma": 4444,
      "90": 4445,
      "Zrvenkovski": 4446,
      "içişleri": 4447,
      "iyimser": 4448,
      "##ahkum": 4449,
      "hazırlık": 4450,
      "Alt": 4451,
      "katılımcı": 4452,
      "benim": 4453,
      "öğrenc": 4454,
      "teşkilat": 4455,
      "hesap": 4456,
      "Goran": 4457,
      "kalı": 4458,
      "Karadağlı": 4459,
      "##çılık": 4460,
      "şartları": 4461,
      "Rob": 4462,
      "gar": 4463,
      "dayalı": 4464,
      "##tiç": 4465,
      "doktor": 4466,
      "Hafta": 4467,
      "Sr": 4468,
      "sını": 4469,
      "##eva": 4470,
      "gazetesinin": 4471,
      "yıla": 4472,
      "Vladimir": 4473,
      "Mitrovica": 4474,
      "Ci": 4475,
      "Kö": 4476,
      "Sam": 4477,
      "##siç": 4478,
      "##ud": 4479,
      "##maması": 4480,
      "##elt": 4481,
      "uygulanan": 4482,
      "haberlere": 4483,
      "sıkı": 4484,
      "Telekom": 4485,
      "röportajda": 4486,
      "##iry": 4487,
      "üyelerinin": 4488,
      "kıyas": 4489,
      "eyaletin": 4490,
      "Örgütü": 4491,
      "soykırım": 4492,
      "Hrist": 4493,
      "##SA": 4494,
      "##FE": 4495,
      "##antaj": 4496,
      "##aku": 4497,
      "##elj": 4498,
      "ayrım": 4499,
      "heyeti": 4500,
      "uğra": 4501,
      "hukukun": 4502,
      "alışveriş": 4503,
      "Haş": 4504,
      "##ğan": 4505,
      "##ovo": 4506,
      "sürecin": 4507,
      "hedefi": 4508,
      "##olojik": 4509,
      "bank": 4510,
      "çoğunluğu": 4511,
      "ifadesi": 4512,
      "Bi": 4513,
      "Pan": 4514,
      "hüküm": 4515,
      "ülkelere": 4516,
      "kişiler": 4517,
      "liman": 4518,
      "gay": 4519,
      "ulus": 4520,
      "##labilir": 4521,
      "verilmesi": 4522,
      "başlatı": 4523,
      "özerk": 4524,
      "##iyana": 4525,
      "geçerli": 4526,
      "ülkelerine": 4527,
      "dünyası": 4528,
      "##barat": 4529,
      "madd": 4530,
      "Meclisi": 4531,
      "Hay": 4532,
      "Mat": 4533,
      "##pek": 4534,
      "kalit": 4535,
      "sergi": 4536,
      "iddianam": 4537,
      "##memesi": 4538,
      "kolaylaştır": 4539,
      "olursa": 4540,
      "milliyetçi": 4541,
      "Viyana": 4542,
      "han": 4543,
      "ra": 4544,
      "durumdaki": 4545,
      "gazetesine": 4546,
      "sonuçları": 4547,
      "Karaman": 4548,
      "Ohri": 4549,
      "Pat": 4550,
      "Tas": 4551,
      "mah": 4552,
      "şeyi": 4553,
      "sağladı": 4554,
      "gelişmeler": 4555,
      "hatta": 4556,
      "terörist": 4557,
      "krizin": 4558,
      "##berg": 4559,
      "danışman": 4560,
      "Karamanlis": 4561,
      "Çok": 4562,
      "##eciler": 4563,
      "kişilerin": 4564,
      "2012": 4565,
      "Mahkeme": 4566,
      "Jerem": 4567,
      "becer": 4568,
      "55": 4569,
      "Tüm": 4570,
      "##DK": 4571,
      "olsun": 4572,
      "##üllü": 4573,
      "hafif": 4574,
      "tasarruf": 4575,
      "##ısındaki": 4576,
      "uzlaş": 4577,
      "takımı": 4578,
      "düzeyde": 4579,
      "uyarıda": 4580,
      "komünist": 4581,
      "istikrarı": 4582,
      "döv": 4583,
      "Haşim": 4584,
      "##sine": 4585,
      "ederken": 4586,
      "yansı": 4587,
      "Konsey": 4588,
      "göçmen": 4589,
      "kara": 4590,
      "mahkum": 4591,
      "yetersiz": 4592,
      "1991": 4593,
      "İşbir": 4594,
      "##ukanoviç": 4595,
      "Nat": 4596,
      "Po": 4597,
      "sen": 4598,
      "##ğinden": 4599,
      "##ult": 4600,
      "görüşün": 4601,
      "haberlerde": 4602,
      "rolü": 4603,
      "İsviç": 4604,
      "Polonya": 4605,
      "Cumhurbaşkan": 4606,
      "kış": 4607,
      "##bet": 4608,
      "##pit": 4609,
      "süredir": 4610,
      "sergil": 4611,
      "bunları": 4612,
      "düşünüyorum": 4613,
      "ertelen": 4614,
      "şikayet": 4615,
      "Şampiyon": 4616,
      "Temsilci": 4617,
      "mekaniz": 4618,
      "Jeremiç": 4619,
      "Du": 4620,
      "ham": 4621,
      "##ocu": 4622,
      "haberine": 4623,
      "taşıma": 4624,
      "##tişim": 4625,
      "kurtarma": 4626,
      "Az": 4627,
      "Bak": 4628,
      "Yasa": 4629,
      "gide": 4630,
      "##tin": 4631,
      "dey": 4632,
      "sağlayan": 4633,
      "yakınlarındaki": 4634,
      "kilis": 4635,
      "RFE": 4636,
      "müt": 4637,
      "##ish": 4638,
      "##ilmesinin": 4639,
      "düştü": 4640,
      "görevdeki": 4641,
      "güvenli": 4642,
      "etmekle": 4643,
      "Bek": 4644,
      "Del": 4645,
      "RL": 4646,
      "##gesi": 4647,
      "##orad": 4648,
      "##ediyor": 4649,
      "politikası": 4650,
      "popüler": 4651,
      "erişim": 4652,
      "dolayı": 4653,
      "çevir": 4654,
      "Oyun": 4655,
      "Dnevnik": 4656,
      "Sh": 4657,
      "eğit": 4658,
      "vaz": 4659,
      "##nuv": 4660,
      "##bah": 4661,
      "geril": 4662,
      "duyduğu": 4663,
      "ikna": 4664,
      "##aciç": 4665,
      "##rk": 4666,
      "##madığı": 4667,
      "yıllardır": 4668,
      "yolcu": 4669,
      "derecede": 4670,
      "firması": 4671,
      "HD": 4672,
      "Spor": 4673,
      "Val": 4674,
      "görmek": 4675,
      "##lamaları": 4676,
      "yaşıyor": 4677,
      "Konfer": 4678,
      "##roso": 4679,
      "Muhale": 4680,
      "Barroso": 4681,
      "Bunlar": 4682,
      "Em": 4683,
      "Lon": 4684,
      "Sti": 4685,
      "Uk": 4686,
      "dak": 4687,
      "hatır": 4688,
      "mas": 4689,
      "sine": 4690,
      "çök": 4691,
      "##raj": 4692,
      "edin": 4693,
      "##leyecek": 4694,
      "görüşmelerde": 4695,
      "PA": 4696,
      "SFOR": 4697,
      "aile": 4698,
      "veril": 4699,
      "gerekse": 4700,
      "altını": 4701,
      "demokras": 4702,
      "uygula": 4703,
      "Katılım": 4704,
      "başlangıç": 4705,
      "##madığını": 4706,
      "komut": 4707,
      "dağıt": 4708,
      "Kamu": 4709,
      "##bon": 4710,
      "##RO": 4711,
      "verici": 4712,
      "sürece": 4713,
      "##liğine": 4714,
      "1998": 4715,
      "döneminde": 4716,
      "ünlü": 4717,
      "fikr": 4718,
      "Ukray": 4719,
      "Laj": 4720,
      "##dıkları": 4721,
      "başa": 4722,
      "kurumsal": 4723,
      "sigara": 4724,
      "etkilen": 4725,
      "FT": 4726,
      "Li": 4727,
      "metr": 4728,
      "##geç": 4729,
      "##izasyon": 4730,
      "##rag": 4731,
      "yapmayı": 4732,
      "seçimlerinde": 4733,
      "artırmak": 4734,
      "itibaren": 4735,
      "Noel": 4736,
      "rahat": 4737,
      "korumak": 4738,
      "ber": 4739,
      "##lanmasının": 4740,
      "edile": 4741,
      "sözleş": 4742,
      "adına": 4743,
      "taşıyan": 4744,
      "##eceğiz": 4745,
      "Teknolo": 4746,
      "sandaly": 4747,
      "korunması": 4748,
      "##RD": 4749,
      "vermeye": 4750,
      "yaklaşım": 4751,
      "redde": 4752,
      "dönüştür": 4753,
      "##ülebilir": 4754,
      "öğretim": 4755,
      "noktası": 4756,
      "Kupası": 4757,
      "Kilis": 4758,
      "Dr": 4759,
      "önlemek": 4760,
      "##eşil": 4761,
      "güvenliği": 4762,
      "istikrarlı": 4763,
      "Ahmet": 4764,
      "özgürlük": 4765,
      "Gö": 4766,
      "##isel": 4767,
      "görevden": 4768,
      "girdi": 4769,
      "askıya": 4770,
      "Bakanlar": 4771,
      "çekti": 4772,
      "bildiriliyor": 4773,
      "##ehri": 4774,
      "ulaştı": 4775,
      "##luğa": 4776,
      "Ljub": 4777,
      "performans": 4778,
      "normal": 4779,
      "deneyim": 4780,
      "Cor": 4781,
      "EB": 4782,
      "Gor": 4783,
      "##CO": 4784,
      "##isinden": 4785,
      "##maktan": 4786,
      "sürecek": 4787,
      "başlaması": 4788,
      "tespit": 4789,
      "nüfusun": 4790,
      "##layıcı": 4791,
      "Yolsuzluk": 4792,
      "##fetteki": 4793,
      "görüşündeler": 4794,
      "Mon": 4795,
      "bize": 4796,
      "km": 4797,
      "##lye": 4798,
      "##larken": 4799,
      "##ess": 4800,
      "konuşma": 4801,
      "##melerini": 4802,
      "Milorad": 4803,
      "yanlış": 4804,
      "##üstü": 4805,
      "##alık": 4806,
      "##tefik": 4807,
      "bloğun": 4808,
      "özgürlüğü": 4809,
      "##lardı": 4810,
      "altındaki": 4811,
      "bina": 4812,
      "Jav": 4813,
      "Pak": 4814,
      "bunlar": 4815,
      "boyko": 4816,
      "Toplantı": 4817,
      "Rady": 4818,
      "tec": 4819,
      "##ekk": 4820,
      "##emiz": 4821,
      "elinde": 4822,
      "tedbirleri": 4823,
      "Turizm": 4824,
      "Traian": 4825,
      "İsveç": 4826,
      "Jap": 4827,
      "Sa": 4828,
      "##sas": 4829,
      "##ner": 4830,
      "siyasiler": 4831,
      "##oyu": 4832,
      "##uc": 4833,
      "yaptır": 4834,
      "yapıldı": 4835,
      "ülkelerde": 4836,
      "zorlu": 4837,
      "düzenlendi": 4838,
      "Yorgo": 4839,
      "eğlen": 4840,
      "milletvekilleri": 4841,
      "##mar": 4842,
      "arke": 4843,
      "sonlarında": 4844,
      "hazırlanan": 4845,
      "resmen": 4846,
      "kimlik": 4847,
      "teknoloj": 4848,
      "Paul": 4849,
      "##egor": 4850,
      "karşıladı": 4851,
      "##mesinde": 4852,
      "önceden": 4853,
      "yetkililerle": 4854,
      "uzmanlar": 4855,
      "Görev": 4856,
      "tanınmış": 4857,
      "teknoloji": 4858,
      "sorumlusu": 4859,
      "##bra": 4860,
      "##zı": 4861,
      "etmiş": 4862,
      "katılıyor": 4863,
      "düzenledi": 4864,
      "öğrenci": 4865,
      "Özg": 4866,
      "fak": 4867,
      "kitap": 4868,
      "##aten": 4869,
      "##acan": 4870,
      "köpr": 4871,
      "##abileceği": 4872,
      "Bayram": 4873,
      "Buna": 4874,
      "##ıcı": 4875,
      "##ebilecek": 4876,
      "##ena": 4877,
      "başlama": 4878,
      "kategor": 4879,
      "George": 4880,
      "vazgeç": 4881,
      "cam": 4882,
      "öden": 4883,
      "##kur": 4884,
      "##les": 4885,
      "##leniyor": 4886,
      "##ceanu": 4887,
      "asla": 4888,
      "anlaşmazlık": 4889,
      "tehlikeye": 4890,
      "oturum": 4891,
      "kamuoyu": 4892,
      "arkadaş": 4893,
      "HI": 4894,
      "dost": 4895,
      "çocu": 4896,
      "Anket": 4897,
      "geçti": 4898,
      "Birliğin": 4899,
      "bakanlık": 4900,
      "bekleyen": 4901,
      "kaydedildi": 4902,
      "Hava": 4903,
      "Kab": 4904,
      "vaat": 4905,
      "çet": 4906,
      "vermesi": 4907,
      "Bush": 4908,
      "gerektir": 4909,
      "müzik": 4910,
      "ikisi": 4911,
      "Bağımsız": 4912,
      "fotoğraf": 4913,
      "##lili": 4914,
      "kayıp": 4915,
      "sağlanması": 4916,
      "sonrası": 4917,
      "mahkemenin": 4918,
      "açılan": 4919,
      "seviyede": 4920,
      "##dıklarını": 4921,
      "girişimi": 4922,
      "açtığı": 4923,
      "görüşmede": 4924,
      "aldılar": 4925,
      "doğruladı": 4926,
      "gerçekleştirilen": 4927,
      "şunları": 4928,
      "##haf": 4929,
      "kurdu": 4930,
      "##kanda": 4931,
      "kişilik": 4932,
      "Örneğin": 4933,
      "gıda": 4934,
      "İst": 4935,
      "##jans": 4936,
      "general": 4937,
      "yetkilisi": 4938,
      "terörle": 4939,
      "filmi": 4940,
      "şeffaf": 4941,
      "##ilir": 4942,
      "yapması": 4943,
      "ülkelerden": 4944,
      "sorunların": 4945,
      "muam": 4946,
      "Parvan": 4947,
      "Gür": 4948,
      "##NE": 4949,
      "birçok": 4950,
      "##urken": 4951,
      "##utin": 4952,
      "olağan": 4953,
      "anlaşmasının": 4954,
      "Branko": 4955,
      "koordin": 4956,
      "ithalat": 4957,
      "##PA": 4958,
      "sağlıyor": 4959,
      "bulundular": 4960,
      "derhal": 4961,
      "öğrenciler": 4962,
      "işbirliğine": 4963,
      "Afrik": 4964,
      "HDZ": 4965,
      "birinin": 4966,
      "yöntem": 4967,
      "hükümete": 4968,
      "onlara": 4969,
      "##melerine": 4970,
      "gazetesi": 4971,
      "Strat": 4972,
      "laik": 4973,
      "bahs": 4974,
      "Lajcak": 4975,
      "ira": 4976,
      "tip": 4977,
      "##hi": 4978,
      "kullanma": 4979,
      "gözalt": 4980,
      "dörd": 4981,
      "harekete": 4982,
      "yaşadığı": 4983,
      "kalkın": 4984,
      "uçak": 4985,
      "sakin": 4986,
      "Parvanov": 4987,
      "Co": 4988,
      "rest": 4989,
      "##gü": 4990,
      "##liç": 4991,
      "##aştır": 4992,
      "##ayla": 4993,
      "değin": 4994,
      "uzat": 4995,
      "sandık": 4996,
      "gelecekteki": 4997,
      "Hükümetin": 4998,
      "gazeteci": 4999,
      "koalisyonu": 5000,
      "Tariceanu": 5001,
      "zaten": 5002,
      "Öğ": 5003,
      "##sak": 5004,
      "##arda": 5005,
      "##dığına": 5006,
      "sorgu": 5007,
      "mahkemeye": 5008,
      "istiyoruz": 5009,
      "tavs": 5010,
      "Antonio": 5011,
      "Meh": 5012,
      "boş": 5013,
      "İliş": 5014,
      "##ema": 5015,
      "##iyan": 5016,
      "doğr": 5017,
      "davran": 5018,
      "köken": 5019,
      "Aleksan": 5020,
      "Sonu": 5021,
      "##sızlık": 5022,
      "katılacak": 5023,
      "Radiç": 5024,
      "harcama": 5025,
      "Mev": 5026,
      "iletişim": 5027,
      "suçlanan": 5028,
      "Belç": 5029,
      "yayınladı": 5030,
      "sektöründe": 5031,
      "Akdeniz": 5032,
      "kıyasla": 5033,
      "##uki": 5034,
      "##ğa": 5035,
      "##va": 5036,
      "##lacağı": 5037,
      "İçin": 5038,
      "Kuvvet": 5039,
      "Linda": 5040,
      "ister": 5041,
      "mük": 5042,
      "olanağı": 5043,
      "##cular": 5044,
      "yardımı": 5045,
      "merkezinde": 5046,
      "##server": 5047,
      "Amerika": 5048,
      "EBRD": 5049,
      "32": 5050,
      "üz": 5051,
      "güzel": 5052,
      "##erj": 5053,
      "geldiği": 5054,
      "gelişim": 5055,
      "işada": 5056,
      "alanlarda": 5057,
      "kişisel": 5058,
      "derec": 5059,
      "akt": 5060,
      "düzenlenecek": 5061,
      "Liberal": 5062,
      "sınıf": 5063,
      "Doğ": 5064,
      "alarak": 5065,
      "büny": 5066,
      "num": 5067,
      "##şe": 5068,
      "##niyet": 5069,
      "##ceviç": 5070,
      "##ğından": 5071,
      "kalıyor": 5072,
      "çalışmaya": 5073,
      "istek": 5074,
      "görevini": 5075,
      "öncesi": 5076,
      "İsviçre": 5077,
      "Bab": 5078,
      "Ras": 5079,
      "##ckovski": 5080,
      "##ince": 5081,
      "##diya": 5082,
      "##lılar": 5083,
      "işsiz": 5084,
      "kaçır": 5085,
      "##distan": 5086,
      "basında": 5087,
      "nı": 5088,
      "##anoviç": 5089,
      "çıkma": 5090,
      "kaçın": 5091,
      "bildiride": 5092,
      "dikkate": 5093,
      "Josip": 5094,
      "Nor": 5095,
      "adan": 5096,
      "lık": 5097,
      "şansı": 5098,
      "##SO": 5099,
      "süresi": 5100,
      "##ersen": 5101,
      "seçildi": 5102,
      "getirilmesi": 5103,
      "avukat": 5104,
      "##leştirme": 5105,
      "müzakerelerine": 5106,
      "grubun": 5107,
      "eğilim": 5108,
      "75": 5109,
      "Vas": 5110,
      "oto": 5111,
      "##süz": 5112,
      "##led": 5113,
      "müdür": 5114,
      "kök": 5115,
      "##mızı": 5116,
      "tasarı": 5117,
      "Karadaku": 5118,
      "boykot": 5119,
      "##IC": 5120,
      "##etiyle": 5121,
      "krizi": 5122,
      "teşekk": 5123,
      "otomo": 5124,
      "açıklamasında": 5125,
      "kendilerini": 5126,
      "bomba": 5127,
      "garan": 5128,
      "36": 5129,
      "caz": 5130,
      "ters": 5131,
      "##sunuz": 5132,
      "##AD": 5133,
      "##NN": 5134,
      "yılının": 5135,
      "belirsiz": 5136,
      "başlaya": 5137,
      "ortaklık": 5138,
      "standartlarına": 5139,
      "Burada": 5140,
      "istihdam": 5141,
      "arabulu": 5142,
      "İvo": 5143,
      "##engen": 5144,
      "##oyol": 5145,
      "seçimlere": 5146,
      "edip": 5147,
      "sunduğu": 5148,
      "bölümü": 5149,
      "##ational": 5150,
      "radikal": 5151,
      "Londra": 5152,
      "pah": 5153,
      "ton": 5154,
      "##vans": 5155,
      "##etre": 5156,
      "##iyorum": 5157,
      "##observer": 5158,
      "Açık": 5159,
      "Ukrayna": 5160,
      "Sonuç": 5161,
      "Blo": 5162,
      "Beta": 5163,
      "konuyla": 5164,
      "tarafı": 5165,
      "kıyı": 5166,
      "çaplı": 5167,
      "##elaket": 5168,
      "kaynağı": 5169,
      "65": 5170,
      "Boz": 5171,
      "##sının": 5172,
      "##kel": 5173,
      "##cilik": 5174,
      "##one": 5175,
      "##lic": 5176,
      "yılları": 5177,
      "##lenmiş": 5178,
      "bulma": 5179,
      "bulmak": 5180,
      "belirgin": 5181,
      "raporu": 5182,
      "genişleme": 5183,
      "Slovak": 5184,
      "Düny": 5185,
      "Fu": 5186,
      "şampiyon": 5187,
      "##imar": 5188,
      "olmalı": 5189,
      "kimse": 5190,
      "iptal": 5191,
      "biy": 5192,
      "İyi": 5193,
      "##lamış": 5194,
      "karşıtı": 5195,
      "fazlası": 5196,
      "toplumu": 5197,
      "müzakerelere": 5198,
      "başkanlığı": 5199,
      "engelle": 5200,
      "final": 5201,
      "Schengen": 5202,
      "üyeliğinin": 5203,
      "kırık": 5204,
      "mektup": 5205,
      "##çilerin": 5206,
      "##ws": 5207,
      "##unlu": 5208,
      "##deş": 5209,
      "ayındaki": 5210,
      "Karadeniz": 5211,
      "Komutan": 5212,
      "Robert": 5213,
      "aşa": 5214,
      "maden": 5215,
      "Mücadel": 5216,
      "kanal": 5217,
      "Dünyasında": 5218,
      "Ziyaret": 5219,
      "##eji": 5220,
      "birliği": 5221,
      "##ılmaz": 5222,
      "Euro": 5223,
      "refah": 5224,
      "haberlerine": 5225,
      "otel": 5226,
      "öngören": 5227,
      "Yaklaş": 5228,
      "pasapor": 5229,
      "İşbirliği": 5230,
      "Özgür": 5231,
      "Ask": 5232,
      "İdar": 5233,
      "##satı": 5234,
      "##bikat": 5235,
      "197": 5236,
      "Radikal": 5237,
      "sandalye": 5238,
      "Sağlık": 5239,
      "lük": 5240,
      "tali": 5241,
      "altern": 5242,
      "vatandaşları": 5243,
      "gider": 5244,
      "Georgiev": 5245,
      "İktidar": 5246,
      "Stipe": 5247,
      "alternatif": 5248,
      "YT": 5249,
      "çeşit": 5250,
      "##eceğimiz": 5251,
      "##lerindeki": 5252,
      "kendisi": 5253,
      "faiz": 5254,
      "şeklindeki": 5255,
      "ertel": 5256,
      "Değ": 5257,
      "başsavcısı": 5258,
      "Dj": 5259,
      "sim": 5260,
      "##ii": 5261,
      "##elerek": 5262,
      "sözlerini": 5263,
      "onların": 5264,
      "kaydettiği": 5265,
      "##layıp": 5266,
      "devral": 5267,
      "Fa": 5268,
      "felaket": 5269,
      "ırk": 5270,
      "##maye": 5271,
      "##iyoruz": 5272,
      "karşılığında": 5273,
      "yasayı": 5274,
      "üçte": 5275,
      "##melerin": 5276,
      "şartlar": 5277,
      "artırılması": 5278,
      "düny": 5279,
      "##malıdır": 5280,
      "kullanılacak": 5281,
      "Uzmanlar": 5282,
      "Javier": 5283,
      "Forum": 5284,
      "Svet": 5285,
      "##üyle": 5286,
      "işle": 5287,
      "bulunu": 5288,
      "getirme": 5289,
      "sayım": 5290,
      "nitelik": 5291,
      "koydu": 5292,
      "kilometre": 5293,
      "cesaret": 5294,
      "Mor": 5295,
      "üs": 5296,
      "##udi": 5297,
      "##mayan": 5298,
      "yapa": 5299,
      "tarihinde": 5300,
      "tepk": 5301,
      "Osmanlı": 5302,
      "SDS": 5303,
      "ışık": 5304,
      "##tos": 5305,
      "##lıklarını": 5306,
      "olduğundan": 5307,
      "##mekten": 5308,
      "Buckovski": 5309,
      "##usiç": 5310,
      "halka": 5311,
      "kurumlarının": 5312,
      "##meyecek": 5313,
      "mesele": 5314,
      "içeren": 5315,
      "bazda": 5316,
      "misyonu": 5317,
      "nün": 5318,
      "##tel": 5319,
      "##lerken": 5320,
      "kurmak": 5321,
      "alanlarında": 5322,
      "insanları": 5323,
      "cezası": 5324,
      "Toplum": 5325,
      "beklediğini": 5326,
      "finansman": 5327,
      "eğlence": 5328,
      "Ale": 5329,
      "Bundan": 5330,
      "Nehri": 5331,
      "Zaman": 5332,
      "ark": 5333,
      "aranan": 5334,
      "yıldı": 5335,
      "erdi": 5336,
      "##leyici": 5337,
      "çabalarına": 5338,
      "çözüme": 5339,
      "nüfuz": 5340,
      "başbakanı": 5341,
      "##endika": 5342,
      "Novi": 5343,
      "Ramazan": 5344,
      "gerginlik": 5345,
      "34": 5346,
      "Merk": 5347,
      "araştır": 5348,
      "uyum": 5349,
      "##muyor": 5350,
      "duyulan": 5351,
      "Be": 5352,
      "skanda": 5353,
      "önünü": 5354,
      "##okol": 5355,
      "seçenek": 5356,
      "suçladı": 5357,
      "yüzlerce": 5358,
      "sırasıyla": 5359,
      "zorluk": 5360,
      "atılmış": 5361,
      "##uvar": 5362,
      "Yargı": 5363,
      "benz": 5364,
      "seçmenlerin": 5365,
      "Var": 5366,
      "ora": 5367,
      "##lanik": 5368,
      "açan": 5369,
      "##lamada": 5370,
      "tarafın": 5371,
      "görüşmesi": 5372,
      "ortasında": 5373,
      "nedeni": 5374,
      "tamamlanması": 5375,
      "tartışmalı": 5376,
      "görüşmelerin": 5377,
      "idare": 5378,
      "Selanik": 5379,
      "temaslarda": 5380,
      "Etkinlik": 5381,
      "Bla": 5382,
      "Zir": 5383,
      "##ice": 5384,
      "ekonominin": 5385,
      "kazandır": 5386,
      "çözül": 5387,
      "yasaları": 5388,
      "Talat": 5389,
      "başlatma": 5390,
      "model": 5391,
      "Ivo": 5392,
      "yu": 5393,
      "##ere": 5394,
      "uyumlu": 5395,
      "bölgeye": 5396,
      "çalışması": 5397,
      "ortada": 5398,
      "bulunduğunu": 5399,
      "Martti": 5400,
      "muhab": 5401,
      "grev": 5402,
      "33": 5403,
      "Jes": 5404,
      "bat": 5405,
      "ekliyor": 5406,
      "Birleş": 5407,
      "Paris": 5408,
      "dönemi": 5409,
      "polisin": 5410,
      "##tonun": 5411,
      "programına": 5412,
      "uğraş": 5413,
      "Ag": 5414,
      "##müyor": 5415,
      "##che": 5416,
      "belge": 5417,
      "çapında": 5418,
      "Radyosu": 5419,
      "##kurmay": 5420,
      "Afrika": 5421,
      "Konu": 5422,
      "Kamp": 5423,
      "Sal": 5424,
      "keş": 5425,
      "çal": 5426,
      "##ğim": 5427,
      "##lendi": 5428,
      "gerekir": 5429,
      "sağlamaya": 5430,
      "genelinde": 5431,
      "katıldığı": 5432,
      "ödülü": 5433,
      "kabine": 5434,
      "telefonu": 5435,
      "mensuplarına": 5436,
      "sanık": 5437,
      "Pas": 5438,
      "##adaki": 5439,
      "##aşa": 5440,
      "##eyn": 5441,
      "devleti": 5442,
      "olabileceğini": 5443,
      "destekleyen": 5444,
      "edilemez": 5445,
      "kims": 5446,
      "Petersen": 5447,
      "##general": 5448,
      "metre": 5449,
      "müttefik": 5450,
      "Davut": 5451,
      "Yaz": 5452,
      "dol": 5453,
      "##vica": 5454,
      "##ınıyor": 5455,
      "önündeki": 5456,
      "katılması": 5457,
      "çıkıyor": 5458,
      "120": 5459,
      "sıkıntı": 5460,
      "Kostas": 5461,
      "asıl": 5462,
      "alındığında": 5463,
      "bilinen": 5464,
      "canlandır": 5465,
      "Rug": 5466,
      "Voy": 5467,
      "yum": 5468,
      "Çocuk": 5469,
      "##itik": 5470,
      "##lup": 5471,
      "##azak": 5472,
      "haklarını": 5473,
      "düzenleme": 5474,
      "ekonomisi": 5475,
      "Organ": 5476,
      "tutuklandı": 5477,
      "Intern": 5478,
      "Serg": 5479,
      "istihbarat": 5480,
      "doğrult": 5481,
      "Di": 5482,
      "yeşil": 5483,
      "##ğiyle": 5484,
      "##eyin": 5485,
      "##eyecek": 5486,
      "etmesine": 5487,
      "##evre": 5488,
      "almayı": 5489,
      "##cağından": 5490,
      "kritik": 5491,
      "güçleri": 5492,
      "değildir": 5493,
      "tavır": 5494,
      "yenil": 5495,
      "otomobil": 5496,
      "Le": 5497,
      "ndeki": 5498,
      "sp": 5499,
      "tiyatro": 5500,
      "##enler": 5501,
      "aylarda": 5502,
      "yerleştir": 5503,
      "BHF": 5504,
      "istatistik": 5505,
      "demiry": 5506,
      "maruz": 5507,
      "rakip": 5508,
      "Jessen": 5509,
      "Sad": 5510,
      "##ku": 5511,
      "##eku": 5512,
      "depr": 5513,
      "##ilerek": 5514,
      "etmesini": 5515,
      "##araj": 5516,
      "##evo": 5517,
      "yerleş": 5518,
      "##lamayı": 5519,
      "##uzur": 5520,
      "##ektaş": 5521,
      "yönetic": 5522,
      "nüfusunun": 5523,
      "be": 5524,
      "##ase": 5525,
      "##lım": 5526,
      "dalg": 5527,
      "##işimi": 5528,
      "ini": 5529,
      "yolundaki": 5530,
      "olmayı": 5531,
      "redded": 5532,
      "ayrıntılı": 5533,
      "suikast": 5534,
      "mün": 5535,
      "##her": 5536,
      "##IA": 5537,
      "##yaz": 5538,
      "##kanın": 5539,
      "teda": 5540,
      "destekliyor": 5541,
      "otoyol": 5542,
      "duyuruda": 5543,
      "makamlarının": 5544,
      "inanıyorum": 5545,
      "blok": 5546,
      "Silah": 5547,
      "Ama": 5548,
      "Ja": 5549,
      "SP": 5550,
      "##HP": 5551,
      "##eleriyle": 5552,
      "##edik": 5553,
      "düzenli": 5554,
      "çağdaş": 5555,
      "kurumlar": 5556,
      "Bölge": 5557,
      "Finlan": 5558,
      "Mer": 5559,
      "Must": 5560,
      "##demi": 5561,
      "##lanarak": 5562,
      "##str": 5563,
      "##opulos": 5564,
      "süreyle": 5565,
      "olduğumuz": 5566,
      "gerekç": 5567,
      "##ediğini": 5568,
      "avantaj": 5569,
      "deng": 5570,
      "farkında": 5571,
      "Hasani": 5572,
      "Analistler": 5573,
      "Rugova": 5574,
      "International": 5575,
      "Pav": 5576,
      "mayın": 5577,
      "inanı": 5578,
      "##opo": 5579,
      "gösterdiği": 5580,
      "kaldırılması": 5581,
      "Avusturyalı": 5582,
      "kısmını": 5583,
      "Grup": 5584,
      "##çileri": 5585,
      "birini": 5586,
      "sayısını": 5587,
      "##imizin": 5588,
      "sürdürüyor": 5589,
      "Asya": 5590,
      "çağrısı": 5591,
      "rekor": 5592,
      "Müzaker": 5593,
      "alınacak": 5594,
      "döviz": 5595,
      "Davutoğlu": 5596,
      "verilere": 5597,
      "##ısal": 5598,
      "sözde": 5599,
      "isten": 5600,
      "##eliği": 5601,
      "planını": 5602,
      "imkan": 5603,
      "sürdürülebilir": 5604,
      "olmayacak": 5605,
      "yineledi": 5606,
      "doğrultusunda": 5607,
      "Trans": 5608,
      "Çağ": 5609,
      "##MRO": 5610,
      "anlaşmasını": 5611,
      "serv": 5612,
      "duyuyor": 5613,
      "sıcak": 5614,
      "etkisi": 5615,
      "Müzesi": 5616,
      "Reform": 5617,
      "Belçika": 5618,
      "Alex": 5619,
      "Merkel": 5620,
      "600": 5621,
      "Bunu": 5622,
      "suna": 5623,
      "tren": 5624,
      "##iner": 5625,
      "##ori": 5626,
      "##dian": 5627,
      "enerj": 5628,
      "elekt": 5629,
      "zorunlu": 5630,
      "mahkemesinin": 5631,
      "turnuv": 5632,
      "şartı": 5633,
      "öğretmen": 5634,
      "safh": 5635,
      "Stojan": 5636,
      "aktarılan": 5637,
      "Mücadele": 5638,
      "Cukanoviç": 5639,
      "Met": 5640,
      "kâr": 5641,
      "rad": 5642,
      "##iki": 5643,
      "##oğa": 5644,
      "kayde": 5645,
      "##apo": 5646,
      "ülkelerinde": 5647,
      "Parlamento": 5648,
      "acı": 5649,
      "ku": 5650,
      "##kırı": 5651,
      "gördü": 5652,
      "etraf": 5653,
      "Avro": 5654,
      "çıkarı": 5655,
      "bulunarak": 5656,
      "görüşünde": 5657,
      "planlarını": 5658,
      "aktif": 5659,
      "Hristof": 5660,
      "Teknoloji": 5661,
      "Am": 5662,
      "Div": 5663,
      "GDA": 5664,
      "Tuna": 5665,
      "huzur": 5666,
      "müş": 5667,
      "işe": 5668,
      "işlenen": 5669,
      "bulunması": 5670,
      "katılmaya": 5671,
      "dairesi": 5672,
      "destekley": 5673,
      "hasar": 5674,
      "yenilen": 5675,
      "şimdiye": 5676,
      "mülteci": 5677,
      "metrek": 5678,
      "pasaport": 5679,
      "PSD": 5680,
      "VMRO": 5681,
      "İkinci": 5682,
      "##altı": 5683,
      "etmişti": 5684,
      "kurt": 5685,
      "yapıcı": 5686,
      "planlanıyor": 5687,
      "harek": 5688,
      "sant": 5689,
      "açığı": 5690,
      "250": 5691,
      "faaliyetleri": 5692,
      "News": 5693,
      "Kanada": 5694,
      "inşası": 5695,
      "imaj": 5696,
      "YTD": 5697,
      "Blic": 5698,
      "Şim": 5699,
      "##ebileceğini": 5700,
      "##balı": 5701,
      "##gh": 5702,
      "verilm": 5703,
      "suçlanıyor": 5704,
      "Yeniden": 5705,
      "kaybetti": 5706,
      "Hara": 5707,
      "birara": 5708,
      "##ruk": 5709,
      "sahne": 5710,
      "##ildiğini": 5711,
      "##imizi": 5712,
      "liderlerinin": 5713,
      "adli": 5714,
      "üyeliğini": 5715,
      "edilmesini": 5716,
      "karışık": 5717,
      "anayasal": 5718,
      "Resmi": 5719,
      "Batılı": 5720,
      "Belgede": 5721,
      "##elerle": 5722,
      "##tacak": 5723,
      "##idro": 5724,
      "araba": 5725,
      "gösterdiğini": 5726,
      "olmaları": 5727,
      "hedefine": 5728,
      "çıkardı": 5729,
      "Borisov": 5730,
      "şüpheli": 5731,
      "Sen": 5732,
      "Üy": 5733,
      "antik": 5734,
      "arama": 5735,
      "güvenilir": 5736,
      "davr": 5737,
      "izle": 5738,
      "çalışmalarını": 5739,
      "kuruldu": 5740,
      "Nikol": 5741,
      "ekib": 5742,
      "Josipoviç": 5743,
      "##dunun": 5744,
      "##elerden": 5745,
      "sonbah": 5746,
      "analiz": 5747,
      "konular": 5748,
      "##ülü": 5749,
      "##lamaz": 5750,
      "Berlin": 5751,
      "fırsatı": 5752,
      "ihraç": 5753,
      "Drag": 5754,
      "dördüncü": 5755,
      "37": 5756,
      "Luk": 5757,
      "af": 5758,
      "karşılamak": 5759,
      "ediyoruz": 5760,
      "katılımı": 5761,
      "çekiyor": 5762,
      "hizmetleri": 5763,
      "Miroslav": 5764,
      "analistler": 5765,
      "kısıtlama": 5766,
      "arabulucu": 5767,
      "diz": 5768,
      "gur": 5769,
      "leh": 5770,
      "##oyan": 5771,
      "##TC": 5772,
      "##zi": 5773,
      "gördüğü": 5774,
      "unut": 5775,
      "Sofia": 5776,
      "Temsilciler": 5777,
      "neler": 5778,
      "##zu": 5779,
      "konut": 5780,
      "hazırladığı": 5781,
      "kentindeki": 5782,
      "Bildir": 5783,
      "hukuki": 5784,
      "havaalan": 5785,
      "Micha": 5786,
      "Yaklaşık": 5787,
      "800": 5788,
      "bizi": 5789,
      "İr": 5790,
      "##lının": 5791,
      "##red": 5792,
      "##hu": 5793,
      "##ano": 5794,
      "gören": 5795,
      "Ana": 5796,
      "bakanlığının": 5797,
      "izleme": 5798,
      "bağımsızlığı": 5799,
      "Hükümeti": 5800,
      "edildiği": 5801,
      "dokun": 5802,
      "sekret": 5803,
      "Air": 5804,
      "Mad": 5805,
      "SDP": 5806,
      "şaş": 5807,
      "##orsiy": 5808,
      "görevl": 5809,
      "dışındaki": 5810,
      "tamamladı": 5811,
      "desteklemek": 5812,
      "bankacılık": 5813,
      "Savaşı": 5814,
      "sorununun": 5815,
      "İslamcı": 5816,
      "üniversit": 5817,
      "bulunacak": 5818,
      "Kap": 5819,
      "sel": 5820,
      "##ğınma": 5821,
      "yetki": 5822,
      "sermaye": 5823,
      "gelişme": 5824,
      "festivali": 5825,
      "euroluk": 5826,
      "sabit": 5827,
      "Dimitris": 5828,
      "##ısır": 5829,
      "çalıştı": 5830,
      "herş": 5831,
      "açıklamaya": 5832,
      "gruplar": 5833,
      "Bölgesel": 5834,
      "verimli": 5835,
      "Yönetim": 5836,
      "Mevcut": 5837,
      "kov": 5838,
      "##EF": 5839,
      "##ağa": 5840,
      "liderlerin": 5841,
      "yetkililere": 5842,
      "şeyin": 5843,
      "strateji": 5844,
      "sorununa": 5845,
      "Turk": 5846,
      "##ronun": 5847,
      "gece": 5848,
      "##ral": 5849,
      "##barı": 5850,
      "##vod": 5851,
      "konuk": 5852,
      "ekonomisinin": 5853,
      "doğum": 5854,
      "Arap": 5855,
      "##luğunun": 5856,
      "eleştirdi": 5857,
      "uzmanları": 5858,
      "tavsiy": 5859,
      "finanse": 5860,
      "darbe": 5861,
      "ötesi": 5862,
      "Dinkiç": 5863,
      "İlişkiler": 5864,
      "Oda": 5865,
      "Sel": 5866,
      "Sınır": 5867,
      "kitab": 5868,
      "İl": 5869,
      "ışı": 5870,
      "##ebil": 5871,
      "##ikay": 5872,
      "##ulmaz": 5873,
      "kararının": 5874,
      "şirketler": 5875,
      "vatandaşlarının": 5876,
      "görüldü": 5877,
      "Mostar": 5878,
      "CNN": 5879,
      "Sol": 5880,
      "Vak": 5881,
      "ajans": 5882,
      "ler": 5883,
      "oğ": 5884,
      "ro": 5885,
      "##MNE": 5886,
      "##ammer": 5887,
      "yaparak": 5888,
      "##edel": 5889,
      "sayısında": 5890,
      "##lığındaki": 5891,
      "kıy": 5892,
      "kurulacak": 5893,
      "kullanılan": 5894,
      "Tray": 5895,
      "şahıs": 5896,
      "yaptırım": 5897,
      "Finlandiya": 5898,
      "Pad": 5899,
      "TV": 5900,
      "vade": 5901,
      "##pl": 5902,
      "##zy": 5903,
      "aykırı": 5904,
      "##ımlı": 5905,
      "işleri": 5906,
      "yaşında": 5907,
      "kurumların": 5908,
      "Proje": 5909,
      "DPMNE": 5910,
      "şüphel": 5911,
      "##entin": 5912,
      "Muham": 5913,
      "Muhalefet": 5914,
      "Mal": 5915,
      "geleceğini": 5916,
      "olduğunda": 5917,
      "kazandığı": 5918,
      "olayları": 5919,
      "##prom": 5920,
      "standartları": 5921,
      "direktörü": 5922,
      "yoksulluk": 5923,
      "Cumhurbaşkanlığı": 5924,
      "Göz": 5925,
      "bilm": 5926,
      "sez": 5927,
      "zan": 5928,
      "##oiu": 5929,
      "##ore": 5930,
      "##oski": 5931,
      "##omir": 5932,
      "taraftar": 5933,
      "belirli": 5934,
      "duruma": 5935,
      "olmaması": 5936,
      "yargıç": 5937,
      "oluşuyor": 5938,
      "madde": 5939,
      "Kadın": 5940,
      "üreticisi": 5941,
      "Slovakya": 5942,
      "Van": 5943,
      "gelerek": 5944,
      "##elektrik": 5945,
      "##onun": 5946,
      "etmem": 5947,
      "Kosor": 5948,
      "uzmanı": 5949,
      "alanındaki": 5950,
      "zamanlar": 5951,
      "izni": 5952,
      "şirketleri": 5953,
      "EUFOR": 5954,
      "Gazprom": 5955,
      "dondur": 5956,
      "Laura": 5957,
      "meslektaş": 5958,
      "Gürc": 5959,
      "Vel": 5960,
      "ona": 5961,
      "##mür": 5962,
      "##yum": 5963,
      "##pet": 5964,
      "##illeri": 5965,
      "meselesi": 5966,
      "anlamda": 5967,
      "##ronik": 5968,
      "yükümlülüklerini": 5969,
      "Şampiyonası": 5970,
      "43": 5971,
      "Ceku": 5972,
      "Dör": 5973,
      "bayan": 5974,
      "balık": 5975,
      "pr": 5976,
      "tıp": 5977,
      "zul": 5978,
      "olmasının": 5979,
      "##ayol": 5980,
      "açacak": 5981,
      "açılması": 5982,
      "gerçe": 5983,
      "sorunlara": 5984,
      "izlen": 5985,
      "kısmen": 5986,
      "kentin": 5987,
      "Hakk": 5988,
      "Bunların": 5989,
      "Carla": 5990,
      "tavsiye": 5991,
      "Gürcistan": 5992,
      "Cen": 5993,
      "Dras": 5994,
      "Fi": 5995,
      "Fil": 5996,
      "Ha": 5997,
      "##isyen": 5998,
      "##arap": 5999,
      "planladığını": 6000,
      "kişiyi": 6001,
      "derg": 6002,
      "umutları": 6003,
      "kötüye": 6004,
      "safha": 6005,
      "çarptır": 6006,
      "Mehmet": 6007,
      "Ev": 6008,
      "KD": 6009,
      "Ziv": 6010,
      "usul": 6011,
      "##düm": 6012,
      "##ücü": 6013,
      "başlıklı": 6014,
      "olduğunun": 6015,
      "dünyada": 6016,
      "geliştirme": 6017,
      "ihtilafı": 6018,
      "dağıtım": 6019,
      "muhtem": 6020,
      "47": 6021,
      "##aları": 6022,
      "##risti": 6023,
      "##any": 6024,
      "##işev": 6025,
      "toplandı": 6026,
      "subay": 6027,
      "yaptığını": 6028,
      "onur": 6029,
      "getirmesi": 6030,
      "belirttiler": 6031,
      "baskın": 6032,
      "bütünleşme": 6033,
      "şartlarını": 6034,
      "gidiyor": 6035,
      "tatbikat": 6036,
      "çoğunlukla": 6037,
      "kendilerine": 6038,
      "Draskoviç": 6039,
      "kam": 6040,
      "##alel": 6041,
      "##omberg": 6042,
      "karak": 6043,
      "sürede": 6044,
      "yolda": 6045,
      "##ilendir": 6046,
      "bulunmak": 6047,
      "sınırları": 6048,
      "Komiseri": 6049,
      "vatandaşlar": 6050,
      "hassas": 6051,
      "Olimpiyatları": 6052,
      "Koruma": 6053,
      "Markoviç": 6054,
      "adanın": 6055,
      "pahalı": 6056,
      "İbra": 6057,
      "şa": 6058,
      "sınırlı": 6059,
      "adını": 6060,
      "sigor": 6061,
      "Karşı": 6062,
      "değişiklikleri": 6063,
      "DSS": 6064,
      "Zirv": 6065,
      "Dani": 6066,
      "uc": 6067,
      "yapmış": 6068,
      "gelmesi": 6069,
      "olayı": 6070,
      "##usunu": 6071,
      "kaynakları": 6072,
      "bununla": 6073,
      "arttı": 6074,
      "Jose": 6075,
      "Split": 6076,
      "yıldönümü": 6077,
      "Stratej": 6078,
      "Filip": 6079,
      "Siz": 6080,
      "şebek": 6081,
      "##yl": 6082,
      "##emiş": 6083,
      "içine": 6084,
      "##elikle": 6085,
      "istis": 6086,
      "kaps": 6087,
      "üçlü": 6088,
      "davası": 6089,
      "Kıbrıslı": 6090,
      "örgütün": 6091,
      "Kurul": 6092,
      "muhalefetteki": 6093,
      "zirvesinde": 6094,
      "itibarı": 6095,
      "numara": 6096,
      "Paddy": 6097,
      "Bler": 6098,
      "Yarış": 6099,
      "masa": 6100,
      "##no": 6101,
      "##arik": 6102,
      "##örü": 6103,
      "##aban": 6104,
      "almış": 6105,
      "toplan": 6106,
      "belirle": 6107,
      "Karaciç": 6108,
      "##log": 6109,
      "olasılığını": 6110,
      "üretimi": 6111,
      "kadınların": 6112,
      "Barb": 6113,
      "Temsilcisi": 6114,
      "##yasından": 6115,
      "emniyet": 6116,
      "Stanişev": 6117,
      "Mediapo": 6118,
      "Altın": 6119,
      "##eljko": 6120,
      "Mediapool": 6121,
      "Beş": 6122,
      "baraj": 6123,
      "##bat": 6124,
      "##ell": 6125,
      "##emeye": 6126,
      "olmuş": 6127,
      "Milo": 6128,
      "onaylanması": 6129,
      "Profes": 6130,
      "tanınan": 6131,
      "bekliyoruz": 6132,
      "dayanarak": 6133,
      "PASO": 6134,
      "KDV": 6135,
      "38": 6136,
      "Kay": 6137,
      "kına": 6138,
      "##ill": 6139,
      "yapımı": 6140,
      "yapılmış": 6141,
      "##olos": 6142,
      "##üşvet": 6143,
      "mahkemesine": 6144,
      "amaçlayan": 6145,
      "##siyon": 6146,
      "tehlikeli": 6147,
      "sunulan": 6148,
      "meşru": 6149,
      "Bloomberg": 6150,
      "PASOK": 6151,
      "Bog": 6152,
      "bal": 6153,
      "algı": 6154,
      "karşılık": 6155,
      "yasası": 6156,
      "davanın": 6157,
      "genelde": 6158,
      "##eceğinden": 6159,
      "konumunda": 6160,
      "kayıtlı": 6161,
      "yurtdışında": 6162,
      "Birleşik": 6163,
      "deprem": 6164,
      "Vo": 6165,
      "sur": 6166,
      "siz": 6167,
      "##mini": 6168,
      "##üğü": 6169,
      "birimi": 6170,
      "bulu": 6171,
      "Anad": 6172,
      "geride": 6173,
      "yakınlarında": 6174,
      "oranla": 6175,
      "önerdi": 6176,
      "alırken": 6177,
      "Politika": 6178,
      "şefi": 6179,
      "vizesiz": 6180,
      "Jaap": 6181,
      "42": 6182,
      "Gerek": 6183,
      "Nab": 6184,
      "Tah": 6185,
      "##ılacak": 6186,
      "##cra": 6187,
      "##RS": 6188,
      "dep": 6189,
      "##ime": 6190,
      "##amak": 6191,
      "gerekçe": 6192,
      "##ision": 6193,
      "bağımlı": 6194,
      "varlık": 6195,
      "müzakerelerde": 6196,
      "oranının": 6197,
      "şimdiden": 6198,
      "anlaşmazlığı": 6199,
      "John": 6200,
      "gündeme": 6201,
      "üniversite": 6202,
      "Haradin": 6203,
      "biraraya": 6204,
      "44": 6205,
      "Lazar": 6206,
      "Tat": 6207,
      "yemek": 6208,
      "##ysa": 6209,
      "##ende": 6210,
      "inin": 6211,
      "vereceğini": 6212,
      "veriliyor": 6213,
      "avronun": 6214,
      "görevine": 6215,
      "paralel": 6216,
      "##melere": 6217,
      "hedefliyor": 6218,
      "bakım": 6219,
      "gerçekleştirdi": 6220,
      "Yönet": 6221,
      "Hareketi": 6222,
      "kampanyası": 6223,
      "tazmin": 6224,
      "istediği": 6225,
      "gözaltına": 6226,
      "Anadolu": 6227,
      "Mit": 6228,
      "du": 6229,
      "hikay": 6230,
      "iad": 6231,
      "Üst": 6232,
      "##PI": 6233,
      "##SK": 6234,
      "##elle": 6235,
      "yapısal": 6236,
      "vererek": 6237,
      "parlamentosu": 6238,
      "eşi": 6239,
      "##lanacağını": 6240,
      "fiyatları": 6241,
      "Japonya": 6242,
      "Voyvod": 6243,
      "Nast": 6244,
      "ajansı": 6245,
      "##sanı": 6246,
      "##cil": 6247,
      "##cıların": 6248,
      "olmaz": 6249,
      "kullanımı": 6250,
      "##dikten": 6251,
      "şirketlerin": 6252,
      "vatandaşı": 6253,
      "borc": 6254,
      "tenis": 6255,
      "parlamentos": 6256,
      "##odor": 6257,
      "istedik": 6258,
      "cezalandır": 6259,
      "hoşgör": 6260,
      "46": 6261,
      "Hat": 6262,
      "SN": 6263,
      "gali": 6264,
      "hidro": 6265,
      "idi": 6266,
      "##lamanın": 6267,
      "konuları": 6268,
      "açıyor": 6269,
      "getirdiği": 6270,
      "kazanç": 6271,
      "Taçi": 6272,
      "düzeyinde": 6273,
      "iddiaları": 6274,
      "standartlarını": 6275,
      "Müdür": 6276,
      "saatlerde": 6277,
      "ilaç": 6278,
      "dayanan": 6279,
      "entegrasyonu": 6280,
      "Anayas": 6281,
      "Bakoyan": 6282,
      "olağanüstü": 6283,
      "Nastase": 6284,
      "48": 6285,
      "Con": 6286,
      "Lef": 6287,
      "Str": 6288,
      "Yüz": 6289,
      "##sini": 6290,
      "##siniz": 6291,
      "##biyat": 6292,
      "##ansta": 6293,
      "##iyiz": 6294,
      "işten": 6295,
      "işlev": 6296,
      "Başsav": 6297,
      "önemini": 6298,
      "hazırlanıyor": 6299,
      "yapılandır": 6300,
      "##layış": 6301,
      "umduğunu": 6302,
      "zanlısı": 6303,
      "artması": 6304,
      "sığınma": 6305,
      "bağlantılı": 6306,
      "rejiminin": 6307,
      "kasabasında": 6308,
      "Temas": 6309,
      "Can": 6310,
      "Mısır": 6311,
      "##fı": 6312,
      "işken": 6313,
      "Ante": 6314,
      "doğu": 6315,
      "harit": 6316,
      "çocuklar": 6317,
      "Görüşmede": 6318,
      "bünyesinde": 6319,
      "Michael": 6320,
      "giy": 6321,
      "nes": 6322,
      "ndaki": 6323,
      "##tileri": 6324,
      "##ho": 6325,
      "##oni": 6326,
      "##alin": 6327,
      "kardeş": 6328,
      "##idor": 6329,
      "ziyaretinde": 6330,
      "gerektiğine": 6331,
      "sınırı": 6332,
      "sektörünün": 6333,
      "umutlarını": 6334,
      "Büyükelçiliği": 6335,
      "konsorsiy": 6336,
      "artıyor": 6337,
      "##ucco": 6338,
      "am": 6339,
      "nis": 6340,
      "vet": 6341,
      "##şek": 6342,
      "##uli": 6343,
      "##ph": 6344,
      "##ındır": 6345,
      "##lerdeki": 6346,
      "önleme": 6347,
      "vermiş": 6348,
      "sürerek": 6349,
      "açıklanan": 6350,
      "getirdiler": 6351,
      "kred": 6352,
      "insanın": 6353,
      "duydu": 6354,
      "dönemine": 6355,
      "Günlüğü": 6356,
      "çalışmalarının": 6357,
      "çocukların": 6358,
      "seviyesinde": 6359,
      "sebe": 6360,
      "Cioc": 6361,
      "dakika": 6362,
      "CHP": 6363,
      "Sadece": 6364,
      "reh": 6365,
      "tır": 6366,
      "##siyet": 6367,
      "birey": 6368,
      "##all": 6369,
      "##azi": 6370,
      "##anım": 6371,
      "##ürken": 6372,
      "Arnavutların": 6373,
      "görüşmeleri": 6374,
      "izley": 6375,
      "Demokratlar": 6376,
      "ilişkilerini": 6377,
      "memuru": 6378,
      "gücünün": 6379,
      "##vansiyon": 6380,
      "Nabucco": 6381,
      "Haradinay": 6382,
      "Akadem": 6383,
      "Kul": 6384,
      "rüşvet": 6385,
      "##alar": 6386,
      "##cin": 6387,
      "##çilik": 6388,
      "##ekonom": 6389,
      "##yanoviç": 6390,
      "halen": 6391,
      "cezasına": 6392,
      "grupları": 6393,
      "ankete": 6394,
      "herkesin": 6395,
      "dokunulmaz": 6396,
      "Ciocoiu": 6397,
      "Go": 6398,
      "##aydı": 6399,
      "yapıl": 6400,
      "internet": 6401,
      "ayda": 6402,
      "orman": 6403,
      "izliyor": 6404,
      "yoksa": 6405,
      "yürüten": 6406,
      "dünyasından": 6407,
      "değerlendirme": 6408,
      "Marina": 6409,
      "mecliste": 6410,
      "rezer": 6411,
      "Kilisesi": 6412,
      "Dus": 6413,
      "Kim": 6414,
      "Kras": 6415,
      "Port": 6416,
      "##sch": 6417,
      "##uf": 6418,
      "##iyse": 6419,
      "açma": 6420,
      "çıkış": 6421,
      "##ektir": 6422,
      "ülkelerinden": 6423,
      "azından": 6424,
      "planları": 6425,
      "olmaktan": 6426,
      "##yebilir": 6427,
      "nedenle": 6428,
      "sürdürdü": 6429,
      "telekom": 6430,
      "Roma": 6431,
      "statüsünü": 6432,
      "700": 6433,
      "Manu": 6434,
      "test": 6435,
      "##tarı": 6436,
      "##dın": 6437,
      "##iyer": 6438,
      "yağ": 6439,
      "yerde": 6440,
      "işler": 6441,
      "bölgeler": 6442,
      "düzenlem": 6443,
      "kondu": 6444,
      "çıkarıldı": 6445,
      "iddiasıyla": 6446,
      "UNES": 6447,
      "kampany": 6448,
      "Uygu": 6449,
      "başlatılan": 6450,
      "kapsayan": 6451,
      "UNESCO": 6452,
      "Hin": 6453,
      "Lja": 6454,
      "Ulaştırma": 6455,
      "sunuyor": 6456,
      "##büs": 6457,
      "##emi": 6458,
      "süreli": 6459,
      "kayak": 6460,
      "çalışacak": 6461,
      "uygulamak": 6462,
      "##lave": 6463,
      "temsilci": 6464,
      "sistemini": 6465,
      "resim": 6466,
      "vatandaşlarına": 6467,
      "önerilen": 6468,
      "aşağı": 6469,
      "maddi": 6470,
      "Kaide": 6471,
      "##onsor": 6472,
      "tüketic": 6473,
      "sinyal": 6474,
      "##hafazak": 6475,
      "santrali": 6476,
      "Ger": 6477,
      "bes": 6478,
      "##ID": 6479,
      "birinde": 6480,
      "anlat": 6481,
      "gerekecek": 6482,
      "yangın": 6483,
      "aracı": 6484,
      "avrodan": 6485,
      "çıkarma": 6486,
      "boyut": 6487,
      "paketi": 6488,
      "mezar": 6489,
      "##cılığıyla": 6490,
      "muamele": 6491,
      "Mustafa": 6492,
      "Yaş": 6493,
      "##ER": 6494,
      "göstererek": 6495,
      "merkeziyet": 6496,
      "gönüllü": 6497,
      "hizmete": 6498,
      "##ilmişti": 6499,
      "idaresi": 6500,
      "Avustral": 6501,
      "ithal": 6502,
      "sporcu": 6503,
      "Çalışma": 6504,
      "Komutanı": 6505,
      "Sergey": 6506,
      "şaşır": 6507,
      "Ljajiç": 6508,
      "Es": 6509,
      "sın": 6510,
      "##ulacak": 6511,
      "##ctiv": 6512,
      "##UI": 6513,
      "##ever": 6514,
      "işi": 6515,
      "oluşturan": 6516,
      "gelişmiş": 6517,
      "bıraktı": 6518,
      "cumhurbaşkanının": 6519,
      "desteğini": 6520,
      "görünüm": 6521,
      "ortamı": 6522,
      "İstatistik": 6523,
      "##opoulos": 6524,
      "Daciç": 6525,
      "Hav": 6526,
      "##qu": 6527,
      "##ator": 6528,
      "##lanmıştı": 6529,
      "karara": 6530,
      "Hırvatlar": 6531,
      "büyüy": 6532,
      "getirecek": 6533,
      "kapsa": 6534,
      "tarihinin": 6535,
      "geçirilmesi": 6536,
      "dönüşüm": 6537,
      "protokol": 6538,
      "olurken": 6539,
      "seyir": 6540,
      "faktör": 6541,
      "İbrahim": 6542,
      "Sivil": 6543,
      "Yah": 6544,
      "luk": 6545,
      "##zam": 6546,
      "olacağına": 6547,
      "çoktan": 6548,
      "güçlerinin": 6549,
      "sorununu": 6550,
      "kilometr": 6551,
      "çoğunun": 6552,
      "üstünlüğü": 6553,
      "aleyhinde": 6554,
      "Babacan": 6555,
      "doldur": 6556,
      "Blerta": 6557,
      "Huk": 6558,
      "Kendi": 6559,
      "List": 6560,
      "fi": 6561,
      "füz": 6562,
      "##dafi": 6563,
      "öneri": 6564,
      "yollarını": 6565,
      "EurA": 6566,
      "projeler": 6567,
      "yasaların": 6568,
      "Milletvek": 6569,
      "üstesinden": 6570,
      "##cho": 6571,
      "Taci": 6572,
      "yazarı": 6573,
      "önerisini": 6574,
      "UNDP": 6575,
      "kuzeydeki": 6576,
      "kutlama": 6577,
      "patlama": 6578,
      "gümüş": 6579,
      "Recepi": 6580,
      "Adri": 6581,
      "Popescu": 6582,
      "ettikleri": 6583,
      "Operasyon": 6584,
      "Clin": 6585,
      "Dok": 6586,
      "le": 6587,
      "##melik": 6588,
      "##ğer": 6589,
      "##lamasına": 6590,
      "##isiyle": 6591,
      "##laşa": 6592,
      "isyan": 6593,
      "neh": 6594,
      "seçimlerden": 6595,
      "ortağı": 6596,
      "adalete": 6597,
      "ediyorum": 6598,
      "##uluyor": 6599,
      "Milli": 6600,
      "Ermeni": 6601,
      "çalışmalarına": 6602,
      "tutuklanması": 6603,
      "olaylar": 6604,
      "ödülünü": 6605,
      "Önümüzdeki": 6606,
      "ların": 6607,
      "Kaddafi": 6608,
      "bankası": 6609,
      "tecr": 6610,
      "sponsor": 6611,
      "demiryolu": 6612,
      "EurActiv": 6613,
      "51": 6614,
      "Dün": 6615,
      "Kıs": 6616,
      "ah": 6617,
      "ilave": 6618,
      "İlerle": 6619,
      "##lanmasından": 6620,
      "ettir": 6621,
      "işçi": 6622,
      "##lüğünü": 6623,
      "belirterek": 6624,
      "planının": 6625,
      "yazı": 6626,
      "hattının": 6627,
      "Mladen": 6628,
      "kadınlar": 6629,
      "sıf": 6630,
      "mağdur": 6631,
      "edilebilir": 6632,
      "Yolsuzlukla": 6633,
      "Tut": 6634,
      "plat": 6635,
      "##liler": 6636,
      "##tiyat": 6637,
      "##rim": 6638,
      "##abakat": 6639,
      "getirildi": 6640,
      "insani": 6641,
      "çözmek": 6642,
      "daveti": 6643,
      "halkına": 6644,
      "karşısında": 6645,
      "askerleri": 6646,
      "çağırıyor": 6647,
      "##fax": 6648,
      "gazeteciler": 6649,
      "geliştirilmesi": 6650,
      "eksikliği": 6651,
      "özgürlüğ": 6652,
      "sabah": 6653,
      "kalıcı": 6654,
      "Nikolovski": 6655,
      "ucuz": 6656,
      "Manuel": 6657,
      "Diy": 6658,
      "DUI": 6659,
      "Gerç": 6660,
      "Lüks": 6661,
      "Slav": 6662,
      "Taki": 6663,
      "sendika": 6664,
      "##ıb": 6665,
      "##yken": 6666,
      "##emmel": 6667,
      "ayına": 6668,
      "##mayacağı": 6669,
      "bildirg": 6670,
      "destekleme": 6671,
      "takip": 6672,
      "Dahası": 6673,
      "sergilen": 6674,
      "Medya": 6675,
      "kovuştur": 6676,
      "zulüm": 6677,
      "41": 6678,
      "Ki": 6679,
      "vide": 6680,
      "##sman": 6681,
      "##veç": 6682,
      "##ary": 6683,
      "##imet": 6684,
      "##anık": 6685,
      "##izik": 6686,
      "##üzgar": 6687,
      "sözleşme": 6688,
      "aracılığıyla": 6689,
      "alanı": 6690,
      "##melerde": 6691,
      "rapora": 6692,
      "tutumunu": 6693,
      "miktarda": 6694,
      "mültec": 6695,
      "Vet": 6696,
      "##yiz": 6697,
      "olmas": 6698,
      "##oğuk": 6699,
      "gölg": 6700,
      "sayfa": 6701,
      "yasalar": 6702,
      "tanıt": 6703,
      "2013": 6704,
      "çizdi": 6705,
      "kriterleri": 6706,
      "hangi": 6707,
      "itibarıyla": 6708,
      "Guar": 6709,
      "oda": 6710,
      "çey": 6711,
      "##OS": 6712,
      "##erg": 6713,
      "##iya": 6714,
      "##eyerek": 6715,
      "verdikleri": 6716,
      "##ital": 6717,
      "Makfax": 6718,
      "haklarının": 6719,
      "ülkelerle": 6720,
      "tutuyor": 6721,
      "ilerlemeyi": 6722,
      "tartışmalar": 6723,
      "Amerikalı": 6724,
      "havayolu": 6725,
      "görevlisi": 6726,
      "özerklik": 6727,
      "Düz": 6728,
      "LDK": 6729,
      "Ve": 6730,
      "bg": 6731,
      "##sim": 6732,
      "##rin": 6733,
      "##iyonu": 6734,
      "##işi": 6735,
      "Hırist": 6736,
      "##cağımız": 6737,
      "##ibe": 6738,
      "siyasilerin": 6739,
      "avroyu": 6740,
      "kullanan": 6741,
      "projeleri": 6742,
      "borcu": 6743,
      "kuruluşları": 6744,
      "genişle": 6745,
      "hareketi": 6746,
      "barışçı": 6747,
      "zirvede": 6748,
      "##ülecek": 6749,
      "İttifakın": 6750,
      "barikat": 6751,
      "ilerletme": 6752,
      "rezerv": 6753,
      "Lab": 6754,
      "USA": 6755,
      "##mos": 6756,
      "##rosu": 6757,
      "##labilecek": 6758,
      "##astır": 6759,
      "##olj": 6760,
      "geçmesi": 6761,
      "çıkmaz": 6762,
      "196": 6763,
      "görevlendir": 6764,
      "çözme": 6765,
      "haberleşme": 6766,
      "toplumunun": 6767,
      "kurumlarına": 6768,
      "desteklediğini": 6769,
      "istiyorlar": 6770,
      "ticareti": 6771,
      "heykel": 6772,
      "güçlendirme": 6773,
      "birbirine": 6774,
      "kavuş": 6775,
      "Vuyanoviç": 6776,
      "komuta": 6777,
      "kökenli": 6778,
      "bulunuluyor": 6779,
      "müşter": 6780,
      "Dört": 6781,
      "##ylelikle": 6782,
      "Lüksem": 6783,
      "Bro": 6784,
      "alk": 6785,
      "ide": 6786,
      "##sinin": 6787,
      "##ris": 6788,
      "yapılmasını": 6789,
      "ordunun": 6790,
      "##muştur": 6791,
      "takv": 6792,
      "yazılım": 6793,
      "çözümü": 6794,
      "faaliyete": 6795,
      "şüphelen": 6796,
      "ayrımcılık": 6797,
      "Voyvodina": 6798,
      "Guardian": 6799,
      "Cur": 6800,
      "Gj": 6801,
      "Ker": 6802,
      "Ram": 6803,
      "Tes": 6804,
      "poz": 6805,
      "##yarak": 6806,
      "##end": 6807,
      "##aşi": 6808,
      "##cıları": 6809,
      "belirleme": 6810,
      "çalıştığı": 6811,
      "getirmeye": 6812,
      "Belgradlı": 6813,
      "ortaklaşa": 6814,
      "parlamentonun": 6815,
      "##ılmıştı": 6816,
      "parlamentoda": 6817,
      "ekibi": 6818,
      "Dimit": 6819,
      "sinema": 6820,
      "muhabiri": 6821,
      "Hakkındaki": 6822,
      "tazminat": 6823,
      "##ekonomik": 6824,
      "Hıristiyan": 6825,
      "Lüksemburg": 6826,
      "Bin": 6827,
      "Dir": 6828,
      "Tak": 6829,
      "Teş": 6830,
      "alama": 6831,
      "yatır": 6832,
      "##liliği": 6833,
      "##zko": 6834,
      "##laj": 6835,
      "##itsa": 6836,
      "endek": 6837,
      "Artık": 6838,
      "Sırplara": 6839,
      "hükümetini": 6840,
      "zamanında": 6841,
      "zamanlarda": 6842,
      "gerçekleşmesi": 6843,
      "şeyler": 6844,
      "tedarik": 6845,
      "ödeme": 6846,
      "Kofi": 6847,
      "sonucuna": 6848,
      "köprü": 6849,
      "Lefko": 6850,
      "##sis": 6851,
      "##ebileceği": 6852,
      "sağladığı": 6853,
      "bağlam": 6854,
      "plana": 6855,
      "ihtiyat": 6856,
      "mevzu": 6857,
      "şirketinin": 6858,
      "Bakanlık": 6859,
      "toplantıya": 6860,
      "azınlıkların": 6861,
      "edeceği": 6862,
      "##melidir": 6863,
      "Yakın": 6864,
      "irade": 6865,
      "##peten": 6866,
      "Daniel": 6867,
      "53": 6868,
      "Hey": 6869,
      "Plus": 6870,
      "zemin": 6871,
      "##okoviç": 6872,
      "çıkması": 6873,
      "bölgelerde": 6874,
      "çalışmak": 6875,
      "komit": 6876,
      "akıl": 6877,
      "yürüttü": 6878,
      "bilgiler": 6879,
      "danışmanlık": 6880,
      "Aleksandar": 6881,
      "Norveç": 6882,
      "garanti": 6883,
      "hidroelektrik": 6884,
      "Clinton": 6885,
      "com": 6886,
      "İddi": 6887,
      "şim": 6888,
      "##lj": 6889,
      "##med": 6890,
      "##mit": 6891,
      "##vanya": 6892,
      "##hendi": 6893,
      "##ekiz": 6894,
      "##işle": 6895,
      "yoldan": 6896,
      "yansıt": 6897,
      "göstermek": 6898,
      "döndü": 6899,
      "giren": 6900,
      "Schw": 6901,
      "gerçekçi": 6902,
      "başkenti": 6903,
      "Davor": 6904,
      "aktardığına": 6905,
      "eminim": 6906,
      "Tarım": 6907,
      "vadede": 6908,
      "Pf": 6909,
      "##rid": 6910,
      "##elçi": 6911,
      "##elidir": 6912,
      "##ovar": 6913,
      "##oka": 6914,
      "tarafsız": 6915,
      "seçimlerinin": 6916,
      "1993": 6917,
      "hayati": 6918,
      "oynadığı": 6919,
      "kısmının": 6920,
      "Terör": 6921,
      "Neb": 6922,
      "To": 6923,
      "akadem": 6924,
      "Şef": 6925,
      "##iği": 6926,
      "##üc": 6927,
      "##malarını": 6928,
      "##lanıp": 6929,
      "##ılmak": 6930,
      "##ovision": 6931,
      "##tıcı": 6932,
      "başlıyor": 6933,
      "yıllar": 6934,
      "kapalı": 6935,
      "edici": 6936,
      "bastır": 6937,
      "##kozy": 6938,
      "yönetmelik": 6939,
      "bakanlarının": 6940,
      "yatırımcılar": 6941,
      "ilerlemenin": 6942,
      "düşünc": 6943,
      "ulaştırma": 6944,
      "şiddetli": 6945,
      "kurucu": 6946,
      "ittifak": 6947,
      "Sergi": 6948,
      "emlak": 6949,
      "koşulları": 6950,
      "Oyunları": 6951,
      "mutlu": 6952,
      "mülkiyet": 6953,
      "mükemmel": 6954,
      "Ex": 6955,
      "Hal": 6956,
      "Putin": 6957,
      "paz": 6958,
      "satı": 6959,
      "##esa": 6960,
      "##lanmak": 6961,
      "##tıyor": 6962,
      "konularda": 6963,
      "sürmekte": 6964,
      "##erse": 6965,
      "göstergesi": 6966,
      "tutar": 6967,
      "Sarkozy": 6968,
      "attı": 6969,
      "kuzeyindeki": 6970,
      "talebi": 6971,
      "pazarlık": 6972,
      "Koali": 6973,
      "Önc": 6974,
      "Milososki": 6975,
      "nispeten": 6976,
      "Portekiz": 6977,
      "Böyle": 6978,
      "Igor": 6979,
      "##ei": 6980,
      "##ily": 6981,
      "etmeleri": 6982,
      "anlayış": 6983,
      "Eurovision": 6984,
      "##liğinde": 6985,
      "güvenliğini": 6986,
      "imha": 6987,
      "basit": 6988,
      "1996": 6989,
      "çözülmesi": 6990,
      "desteklen": 6991,
      "Miloş": 6992,
      "bana": 6993,
      "operatörü": 6994,
      "öğrenim": 6995,
      "maliye": 6996,
      "tasla": 6997,
      "kilo": 6998,
      "Toplam": 6999,
      "##ologlar": 7000,
      "işadam": 7001,
      "skandal": 7002,
      "85": 7003,
      "Hel": 7004,
      "cema": 7005,
      "##ederal": 7006,
      "anlatı": 7007,
      "geçecek": 7008,
      "güv": 7009,
      "karşılandı": 7010,
      "hükümetine": 7011,
      "##istin": 7012,
      "Yunanlı": 7013,
      "##liğiyle": 7014,
      "projeye": 7015,
      "Ermen": 7016,
      "istikrarın": 7017,
      "mesaf": 7018,
      "hapse": 7019,
      "başvuru": 7020,
      "Bizim": 7021,
      "Bakoyanni": 7022,
      "Kaz": 7023,
      "bab": 7024,
      "ez": 7025,
      "##amir": 7026,
      "Bugüne": 7027,
      "halde": 7028,
      "göstermesi": 7029,
      "Milovanoviç": 7030,
      "sistemine": 7031,
      "etmekte": 7032,
      "çabalarının": 7033,
      "geçirdi": 7034,
      "kurulmasını": 7035,
      "geçmişte": 7036,
      "korku": 7037,
      "##emeyeceğini": 7038,
      "söyleniyor": 7039,
      "çabuk": 7040,
      "işkence": 7041,
      "tıb": 7042,
      "##ıma": 7043,
      "##lerdi": 7044,
      "##eyeceğini": 7045,
      "##ağın": 7046,
      "##uts": 7047,
      "kapan": 7048,
      "kararına": 7049,
      "tutul": 7050,
      "Komün": 7051,
      "çeken": 7052,
      "hızla": 7053,
      "Kredi": 7054,
      "edilmesine": 7055,
      "emeklilik": 7056,
      "Stankoviç": 7057,
      "itiraf": 7058,
      "yinel": 7059,
      "##lüğüne": 7060,
      "servis": 7061,
      "Hür": 7062,
      "Oba": 7063,
      "UAD": 7064,
      "bey": 7065,
      "canlı": 7066,
      "sa": 7067,
      "##ydi": 7068,
      "##tına": 7069,
      "gördük": 7070,
      "##avr": 7071,
      "##usundaki": 7072,
      "sahte": 7073,
      "seçimlerine": 7074,
      "dolay": 7075,
      "Küresel": 7076,
      "yükseldi": 7077,
      "milletvekillerinin": 7078,
      "kamuoyuna": 7079,
      "dayanıyor": 7080,
      "Girişim": 7081,
      "##süzlük": 7082,
      "SDSM": 7083,
      "gurur": 7084,
      "##iir": 7085,
      "##riyet": 7086,
      "##uğ": 7087,
      "##17": 7088,
      "##IS": 7089,
      "##une": 7090,
      "##ahh": 7091,
      "vermeyi": 7092,
      "ant": 7093,
      "varlığını": 7094,
      "tartı": 7095,
      "Brez": 7096,
      "desteklemeye": 7097,
      "Genelkurmay": 7098,
      "görüşmelere": 7099,
      "kaçakçı": 7100,
      "kaçakçılık": 7101,
      "Bölgesi": 7102,
      "etkinliklere": 7103,
      "bayr": 7104,
      "Vakfı": 7105,
      "Hukuk": 7106,
      "hari": 7107,
      "##gre": 7108,
      "##ze": 7109,
      "##LA": 7110,
      "##ino": 7111,
      "olanlar": 7112,
      "beld": 7113,
      "üyesinin": 7114,
      "bilişim": 7115,
      "çıkara": 7116,
      "bölgesindeki": 7117,
      "fazlasını": 7118,
      "kalmayı": 7119,
      "anlaşmalar": 7120,
      "hakkına": 7121,
      "bakanlar": 7122,
      "çıkarılması": 7123,
      "sisteminde": 7124,
      "geçirme": 7125,
      "faaliyetlerini": 7126,
      "##larımızı": 7127,
      "meclise": 7128,
      "Durres": 7129,
      "beraber": 7130,
      "Miloşeviç": 7131,
      "Mus": 7132,
      "Nic": 7133,
      "Rice": 7134,
      "kem": 7135,
      "pan": 7136,
      "prat": 7137,
      "zinc": 7138,
      "##tası": 7139,
      "##dine": 7140,
      "##RA": 7141,
      "##inal": 7142,
      "yapacağını": 7143,
      "işley": 7144,
      "##ilitan": 7145,
      "belki": 7146,
      "korsan": 7147,
      "harcan": 7148,
      "oluşturma": 7149,
      "Radi": 7150,
      "kırsal": 7151,
      "bloğa": 7152,
      "bildirdiğine": 7153,
      "önlemler": 7154,
      "İrlanda": 7155,
      "Fak": 7156,
      "rüzgar": 7157,
      "süb": 7158,
      "tez": 7159,
      "##iti": 7160,
      "##tid": 7161,
      "##roy": 7162,
      "yetkiler": 7163,
      "##balık": 7164,
      "##brov": 7165,
      "topluma": 7166,
      "amaçlanıyor": 7167,
      "ulaşmak": 7168,
      "yönetiminin": 7169,
      "kontrolü": 7170,
      "Ortadoğu": 7171,
      "sağlayacağını": 7172,
      "birleştirme": 7173,
      "aleyhindeki": 7174,
      "trafik": 7175,
      "##pektif": 7176,
      "Askeri": 7177,
      "62": 7178,
      "Boy": 7179,
      "Echo": 7180,
      "Tih": 7181,
      "kın": 7182,
      "sunma": 7183,
      "yed": 7184,
      "birleşme": 7185,
      "##ate": 7186,
      "##iste": 7187,
      "getirdiğini": 7188,
      "ekonomist": 7189,
      "sayılı": 7190,
      "SEE": 7191,
      "planına": 7192,
      "##erald": 7193,
      "hizmeti": 7194,
      "Kriz": 7195,
      "edildiğini": 7196,
      "Kuruluş": 7197,
      "ruhsat": 7198,
      "Akademisi": 7199,
      "Kısa": 7200,
      "Neboj": 7201,
      "Jean": 7202,
      "Kol": 7203,
      "fil": 7204,
      "nez": 7205,
      "rast": 7206,
      "Çerçev": 7207,
      "çö": 7208,
      "##jug": 7209,
      "##akende": 7210,
      "##land": 7211,
      "ayından": 7212,
      "bulgu": 7213,
      "kurmaya": 7214,
      "yolunu": 7215,
      "dans": 7216,
      "diğerleri": 7217,
      "kullanarak": 7218,
      "##niki": 7219,
      "##otor": 7220,
      "hayvan": 7221,
      "##vetkoviç": 7222,
      "##izibil": 7223,
      "##luğunda": 7224,
      "meseleler": 7225,
      "hissesini": 7226,
      "umudu": 7227,
      "Traj": 7228,
      "Valentin": 7229,
      "Kuvvetleri": 7230,
      "Odası": 7231,
      "Zivkoviç": 7232,
      "Dusan": 7233,
      "PfP": 7234,
      "Hürriyet": 7235,
      "Obama": 7236,
      "Gra": 7237,
      "Kir": 7238,
      "Vatanda": 7239,
      "ağı": 7240,
      "##eka": 7241,
      "yalan": 7242,
      "kart": 7243,
      "inc": 7244,
      "gelmiş": 7245,
      "devra": 7246,
      "yönelt": 7247,
      "krize": 7248,
      "##ock": 7249,
      "başkanlığındaki": 7250,
      "sonuçlara": 7251,
      "İşçi": 7252,
      "##memiz": 7253,
      "gönderdi": 7254,
      "1000": 7255,
      "Basın": 7256,
      "##oft": 7257,
      "ücretsiz": 7258,
      "makro": 7259,
      "oynanan": 7260,
      "Ödülü": 7261,
      "##utsche": 7262,
      "39": 7263,
      "Eu": 7264,
      "Emek": 7265,
      "Gu": 7266,
      "Jac": 7267,
      "Çevre": 7268,
      "##tek": 7269,
      "##dilik": 7270,
      "##SP": 7271,
      "##isiç": 7272,
      "##medik": 7273,
      "konularında": 7274,
      "##idar": 7275,
      "Ardından": 7276,
      "##diren": 7277,
      "anlaştılar": 7278,
      "planın": 7279,
      "kalmış": 7280,
      "eren": 7281,
      "ilerlemeye": 7282,
      "değişikliği": 7283,
      "##müştü": 7284,
      "etkinlikte": 7285,
      "##törü": 7286,
      "erkekler": 7287,
      "David": 7288,
      "hepsi": 7289,
      "USAID": 7290,
      "tıbbi": 7291,
      "Günü": 7292,
      "Sah": 7293,
      "Ven": 7294,
      "kit": 7295,
      "nef": 7296,
      "to": 7297,
      "va": 7298,
      "şarap": 7299,
      "##likleri": 7300,
      "işleyen": 7301,
      "açıklaması": 7302,
      "sürdürme": 7303,
      "çalışmalar": 7304,
      "Geo": 7305,
      "ödey": 7306,
      "muhalefetin": 7307,
      "diren": 7308,
      "mağlup": 7309,
      "Filistin": 7310,
      "Krasniki": 7311,
      "sınav": 7312,
      "Nebojsa": 7313,
      "Azer": 7314,
      "Ke": 7315,
      "Un": 7316,
      "kans": 7317,
      "##gal": 7318,
      "##inç": 7319,
      "##ecekler": 7320,
      "Sırpları": 7321,
      "sağlana": 7322,
      "##gari": 7323,
      "bulundur": 7324,
      "durumunu": 7325,
      "bakanlığından": 7326,
      "aksine": 7327,
      "oluşturulması": 7328,
      "Topi": 7329,
      "gençler": 7330,
      "medy": 7331,
      "Inzko": 7332,
      "kesiminde": 7333,
      "rejimi": 7334,
      "##erince": 7335,
      "HINA": 7336,
      "Fer": 7337,
      "Geri": 7338,
      "KK": 7339,
      "Para": 7340,
      "RT": 7341,
      "ademi": 7342,
      "militan": 7343,
      "varılan": 7344,
      "##ire": 7345,
      "##ity": 7346,
      "süreçte": 7347,
      "uyruk": 7348,
      "##cağım": 7349,
      "seçilen": 7350,
      "savaşı": 7351,
      "hedefleniyor": 7352,
      "gazetesinde": 7353,
      "sürdürmeye": 7354,
      "##olas": 7355,
      "artışla": 7356,
      "##ültesi": 7357,
      "kimsenin": 7358,
      "Avustralya": 7359,
      "Teşki": 7360,
      "pratik": 7361,
      "Euobserver": 7362,
      "Gr": 7363,
      "Mc": 7364,
      "Sov": 7365,
      "bron": 7366,
      "İlg": 7367,
      "##arkı": 7368,
      "##dim": 7369,
      "##lanmasında": 7370,
      "başından": 7371,
      "günleri": 7372,
      "verilmiş": 7373,
      "onlar": 7374,
      "düşman": 7375,
      "önemlidir": 7376,
      "basına": 7377,
      "muhafazak": 7378,
      "##meyeceği": 7379,
      "başardı": 7380,
      "kriterlerini": 7381,
      "Tanjug": 7382,
      "deyişle": 7383,
      "çocuğ": 7384,
      "arkasında": 7385,
      "davranış": 7386,
      "balta": 7387,
      "video": 7388,
      "bronz": 7389,
      "Nano": 7390,
      "Olay": 7391,
      "Rich": 7392,
      "Sü": 7393,
      "##SF": 7394,
      "##aseb": 7395,
      "##iski": 7396,
      "##isiu": 7397,
      "yeterince": 7398,
      "bölgeyi": 7399,
      "kaynaklanıyor": 7400,
      "başladığı": 7401,
      "hareketin": 7402,
      "Ülkede": 7403,
      "malz": 7404,
      "gidiş": 7405,
      "Petar": 7406,
      "iyileştirme": 7407,
      "##iskop": 7408,
      "İspany": 7409,
      "Moisiu": 7410,
      "Suçları": 7411,
      "##ristian": 7412,
      "İspanyol": 7413,
      "Fotoğraf": 7414,
      "fizik": 7415,
      "nedir": 7416,
      "so": 7417,
      "vereceği": 7418,
      "ülkelerini": 7419,
      "duygu": 7420,
      "izledi": 7421,
      "hedefleri": 7422,
      "yetkililerinin": 7423,
      "sistemin": 7424,
      "Güç": 7425,
      "başlatılması": 7426,
      "grupların": 7427,
      "Kürdistan": 7428,
      "olmayacağını": 7429,
      "##rosoft": 7430,
      "reklam": 7431,
      "alacağı": 7432,
      "aşırılık": 7433,
      "Deutsche": 7434,
      "tüketim": 7435,
      "aktardığı": 7436,
      "Microsoft": 7437,
      "elektronik": 7438,
      "usulsüzlük": 7439,
      "##hendis": 7440,
      "Sovyet": 7441,
      "Bür": 7442,
      "Kovac": 7443,
      "Lüb": 7444,
      "Taraf": 7445,
      "sitesi": 7446,
      "tık": 7447,
      "##sek": 7448,
      "##form": 7449,
      "##cilerin": 7450,
      "##arko": 7451,
      "yıllarında": 7452,
      "##lenda": 7453,
      "yeri": 7454,
      "toplama": 7455,
      "tuttu": 7456,
      "##uyu": 7457,
      "bask": 7458,
      "Prlenda": 7459,
      "ikiye": 7460,
      "yatırımı": 7461,
      "örgütleri": 7462,
      "##tiyaz": 7463,
      "taşıdığı": 7464,
      "töreninde": 7465,
      "Bazıları": 7466,
      "ürünleri": 7467,
      "gücünü": 7468,
      "geleceğe": 7469,
      "başlangıçta": 7470,
      "KKTC": 7471,
      "Calin": 7472,
      "Yusu": 7473,
      "bo": 7474,
      "İh": 7475,
      "##tz": 7476,
      "##ineler": 7477,
      "##dat": 7478,
      "##lanırken": 7479,
      "olmuştu": 7480,
      "ard": 7481,
      "##iyordu": 7482,
      "işleme": 7483,
      "istekli": 7484,
      "sağlaması": 7485,
      "Maroviç": 7486,
      "uygulanmasını": 7487,
      "kavram": 7488,
      "açılışını": 7489,
      "Programı": 7490,
      "Bütünleşme": 7491,
      "Dubrov": 7492,
      "dolayısıyla": 7493,
      "Güm": 7494,
      "Ot": 7495,
      "disi": 7496,
      "kop": 7497,
      "##bin": 7498,
      "##are": 7499,
      "birden": 7500,
      "##imin": 7501,
      "##ulmuş": 7502,
      "##steş": 7503,
      "söylediği": 7504,
      "eder": 7505,
      "durumdan": 7506,
      "tanıyan": 7507,
      "gerçekleştirdiği": 7508,
      "buradaki": 7509,
      "aslında": 7510,
      "belgeleri": 7511,
      "Serbest": 7512,
      "savundu": 7513,
      "gidecek": 7514,
      "Konferans": 7515,
      "teşekkür": 7516,
      "orada": 7517,
      "##ght": 7518,
      "Küç": 7519,
      "sinin": 7520,
      "##etik": 7521,
      "##liye": 7522,
      "##ürüst": 7523,
      "##sım": 7524,
      "##akit": 7525,
      "##ılıp": 7526,
      "##liğinden": 7527,
      "kişiye": 7528,
      "çabalar": 7529,
      "##çılar": 7530,
      "otor": 7531,
      "kimin": 7532,
      "yaşandı": 7533,
      "Liderler": 7534,
      "yumuş": 7535,
      "Silahlı": 7536,
      "numaralı": 7537,
      "İlerleme": 7538,
      "Süley": 7539,
      "Yusuf": 7540,
      "Dej": 7541,
      "Kır": 7542,
      "Pac": 7543,
      "Yaban": 7544,
      "cev": 7545,
      "##olik": 7546,
      "##iniç": 7547,
      "başara": 7548,
      "##cebo": 7549,
      "olabilecek": 7550,
      "çıkacak": 7551,
      "sahib": 7552,
      "kalması": 7553,
      "Prot": 7554,
      "yönetimindeki": 7555,
      "nih": 7556,
      "Frank": 7557,
      "Haberleşme": 7558,
      "Bence": 7559,
      "mutabakat": 7560,
      "vaka": 7561,
      "reddediyor": 7562,
      "Muhamet": 7563,
      "zanlının": 7564,
      "##tidara": 7565,
      "Vatandaş": 7566,
      "Süleyman": 7567,
      "Bit": 7568,
      "Boc": 7569,
      "Gre": 7570,
      "G17": 7571,
      "Kaç": 7572,
      "MIA": 7573,
      "PDK": 7574,
      "##acağız": 7575,
      "##arator": 7576,
      "##üntü": 7577,
      "yere": 7578,
      "Angel": 7579,
      "sağlanan": 7580,
      "sağlanacak": 7581,
      "seçti": 7582,
      "belirlenen": 7583,
      "##ibune": 7584,
      "##başı": 7585,
      "seçimlerini": 7586,
      "elinden": 7587,
      "liderlik": 7588,
      "edebilir": 7589,
      "imzalanması": 7590,
      "yoksun": 7591,
      "Gücü": 7592,
      "asgari": 7593,
      "##evizyonu": 7594,
      "alacağını": 7595,
      "danışmanı": 7596,
      "Natasa": 7597,
      "eğitimi": 7598,
      "muhtemelen": 7599,
      "nihayet": 7600,
      "49": 7601,
      "54": 7602,
      "56": 7603,
      "Com": 7604,
      "Ele": 7605,
      "Na": 7606,
      "Tiyat": 7607,
      "olmasından": 7608,
      "düzenleyen": 7609,
      "milyonlarca": 7610,
      "kullanıyor": 7611,
      "sorunlarla": 7612,
      "iktidara": 7613,
      "aldıkları": 7614,
      "etmektedir": 7615,
      "engellemek": 7616,
      "rolünü": 7617,
      "Radyo": 7618,
      "##priz": 7619,
      "##elendirme": 7620,
      "desteğiyle": 7621,
      "cezaev": 7622,
      "ordus": 7623,
      "kutladı": 7624,
      "Akımı": 7625,
      "Koridor": 7626,
      "kasaba": 7627,
      "noktada": 7628,
      "istikrara": 7629,
      "liste": 7630,
      "Projenin": 7631,
      "Öğren": 7632,
      "Bogdan": 7633,
      "Eyle": 7634,
      "Hem": 7635,
      "forum": 7636,
      "##loviç": 7637,
      "##sinde": 7638,
      "##ve": 7639,
      "##iyade": 7640,
      "aray": 7641,
      "##abilmesi": 7642,
      "güneş": 7643,
      "yerinde": 7644,
      "##ilmesinde": 7645,
      "karşılama": 7646,
      "uygulaması": 7647,
      "1997": 7648,
      "haberler": 7649,
      "yatırımlar": 7650,
      "yürüy": 7651,
      "katılmayı": 7652,
      "sevk": 7653,
      "tedbirlerin": 7654,
      "farklılık": 7655,
      "değişikliklerin": 7656,
      "##mıyorum": 7657,
      "Vlado": 7658,
      "Gazetec": 7659,
      "Fuarı": 7660,
      "Facebo": 7661,
      "Divanı": 7662,
      "sonbaharda": 7663,
      "sezon": 7664,
      "##izibilite": 7665,
      "Facebook": 7666,
      "Celiç": 7667,
      "Edi": 7668,
      "Kız": 7669,
      "Milen": 7670,
      "Yan": 7671,
      "şeh": 7672,
      "##nj": 7673,
      "##mamış": 7674,
      "içi": 7675,
      "düzelt": 7676,
      "yakından": 7677,
      "ülkelerindeki": 7678,
      "davada": 7679,
      "hedefini": 7680,
      "dolara": 7681,
      "iflas": 7682,
      "sektöründeki": 7683,
      "##tıklarını": 7684,
      "tehdidi": 7685,
      "fikri": 7686,
      "hisset": 7687,
      "suçlamaları": 7688,
      "Vukovar": 7689,
      "larda": 7690,
      "Tribune": 7691,
      "mağaz": 7692,
      "teşkilatı": 7693,
      "radyo": 7694,
      "toplantının": 7695,
      "büyüyen": 7696,
      "##oljub": 7697,
      "52": 7698,
      "Ga": 7699,
      "for": 7700,
      "sini": 7701,
      "##taş": 7702,
      "##TP": 7703,
      "##ovic": 7704,
      "##amız": 7705,
      "gördüğünü": 7706,
      "##usunun": 7707,
      "suçlar": 7708,
      "hakaret": 7709,
      "##ıldığında": 7710,
      "##leyerek": 7711,
      "izleyen": 7712,
      "sektörüne": 7713,
      "askerler": 7714,
      "gönderdiği": 7715,
      "bilgileri": 7716,
      "düzenlediler": 7717,
      "alım": 7718,
      "konferansta": 7719,
      "perakende": 7720,
      "yetkisi": 7721,
      "##hua": 7722,
      "AI": 7723,
      "Fo": 7724,
      "Fonu": 7725,
      "Mur": 7726,
      "şok": 7727,
      "##tini": 7728,
      "##âh": 7729,
      "##lanmaya": 7730,
      "kaf": 7731,
      "##olf": 7732,
      "günler": 7733,
      "ani": 7734,
      "##ceğini": 7735,
      "sırayı": 7736,
      "##ütüp": 7737,
      "göstermeye": 7738,
      "tarihten": 7739,
      "sorunlarını": 7740,
      "insanlık": 7741,
      "hata": 7742,
      "Toplu": 7743,
      "nüfusu": 7744,
      "çocukları": 7745,
      "bilgilere": 7746,
      "zanlılarının": 7747,
      "saldırıları": 7748,
      "Haris": 7749,
      "Peter": 7750,
      "Deniz": 7751,
      "kavuştur": 7752,
      "dolaşım": 7753,
      "Alexan": 7754,
      "Tutuk": 7755,
      "Tihiç": 7756,
      "Geoana": 7757,
      "##ütüphan": 7758,
      "Jon": 7759,
      "KP": 7760,
      "Kra": 7761,
      "Ves": 7762,
      "raf": 7763,
      "öf": 7764,
      "##çilere": 7765,
      "##44": 7766,
      "##arz": 7767,
      "##azzam": 7768,
      "sürdüğü": 7769,
      "böylelikle": 7770,
      "önemi": 7771,
      "ilişki": 7772,
      "topluluk": 7773,
      "insanlara": 7774,
      "Anlaşmasının": 7775,
      "operasyonu": 7776,
      "mobil": 7777,
      "çalışanları": 7778,
      "Mirko": 7779,
      "gereğini": 7780,
      "Özgürlük": 7781,
      "İktidardaki": 7782,
      "ırklı": 7783,
      "Turkish": 7784,
      "Dubrovnik": 7785,
      "Küçük": 7786,
      "ANA": 7787,
      "Dest": 7788,
      "Eya": 7789,
      "Zeljko": 7790,
      "bedel": 7791,
      "fas": 7792,
      "##los": 7793,
      "##fsan": 7794,
      "##lamasını": 7795,
      "##abiliyor": 7796,
      "karayolu": 7797,
      "ülkesinde": 7798,
      "verilmesini": 7799,
      "konuyu": 7800,
      "##ilmeleri": 7801,
      "haklı": 7802,
      "yanından": 7803,
      "düşen": 7804,
      "kararlaştır": 7805,
      "yardımıyla": 7806,
      "oyların": 7807,
      "kaldığı": 7808,
      "hazırlanmış": 7809,
      "dernek": 7810,
      "hedeflerine": 7811,
      "sorumluluğunu": 7812,
      "katıldılar": 7813,
      "Schill": 7814,
      "büyümenin": 7815,
      "hissed": 7816,
      "Öner": 7817,
      "taban": 7818,
      "iyileştirilmesi": 7819,
      "azaltmak": 7820,
      "törenine": 7821,
      "bitir": 7822,
      "Lefkoşe": 7823,
      "Schilling": 7824,
      "66": 7825,
      "Gi": 7826,
      "Kent": 7827,
      "Kitap": 7828,
      "Ok": 7829,
      "Zvetkoviç": 7830,
      "cih": 7831,
      "lib": 7832,
      "##cileri": 7833,
      "##TV": 7834,
      "##eski": 7835,
      "dalında": 7836,
      "##emli": 7837,
      "sürpriz": 7838,
      "mühim": 7839,
      "görevde": 7840,
      "elden": 7841,
      "zorla": 7842,
      "muazzam": 7843,
      "kaynaklanan": 7844,
      "Konjik": 7845,
      "oluşturduğu": 7846,
      "sunuldu": 7847,
      "kuruluşlarının": 7848,
      "Soren": 7849,
      "##malıyız": 7850,
      "ankette": 7851,
      "koşullar": 7852,
      "uygulanmasına": 7853,
      "Yapı": 7854,
      "Yapılan": 7855,
      "Andre": 7856,
      "komünizm": 7857,
      "##cker": 7858,
      "Çerçeve": 7859,
      "Alexander": 7860,
      "Gro": 7861,
      "Herald": 7862,
      "Mis": 7863,
      "Pula": 7864,
      "Xin": 7865,
      "fat": 7866,
      "Çoğu": 7867,
      "##dün": 7868,
      "##car": 7869,
      "##imir": 7870,
      "etmenin": 7871,
      "##masız": 7872,
      "almasına": 7873,
      "planladığı": 7874,
      "ermesinden": 7875,
      "muad": 7876,
      "projesinin": 7877,
      "çıkarlarını": 7878,
      "sayıdaki": 7879,
      "öngörüyor": 7880,
      "uygulamada": 7881,
      "güneydoğu": 7882,
      "bayrak": 7883,
      "otobüs": 7884,
      "sigorta": 7885,
      "Dünyanın": 7886,
      "Boyko": 7887,
      "makroekonomik": 7888,
      "Eylem": 7889,
      "Cer": 7890,
      "Dağı": 7891,
      "Fre": 7892,
      "##ry": 7893,
      "##üğ": 7894,
      "##ılmasından": 7895,
      "##ınız": 7896,
      "##avi": 7897,
      "and": 7898,
      "süresinin": 7899,
      "üyelerinden": 7900,
      "çalıştığını": 7901,
      "edebiyat": 7902,
      "turu": 7903,
      "ayrılık": 7904,
      "sonuçlarını": 7905,
      "yoktur": 7906,
      "oranları": 7907,
      "beşinci": 7908,
      "meseleleri": 7909,
      "şiddetle": 7910,
      "işbirliğiyle": 7911,
      "devred": 7912,
      "topraklarında": 7913,
      "perspektif": 7914,
      "barındır": 7915,
      "Pekin": 7916,
      "artışı": 7917,
      "iyileşme": 7918,
      "Nataşa": 7919,
      "yıldız": 7920,
      "Stojanovska": 7921,
      "Profesör": 7922,
      "Uygulama": 7923,
      "Xinhua": 7924,
      "Ham": 7925,
      "Ros": 7926,
      "psik": 7927,
      "uf": 7928,
      "##fta": 7929,
      "##ardı": 7930,
      "üyelerine": 7931,
      "sözcü": 7932,
      "müfet": 7933,
      "elçi": 7934,
      "kulüb": 7935,
      "girecek": 7936,
      "girmesi": 7937,
      "reformlara": 7938,
      "projeyi": 7939,
      "hemş": 7940,
      "değerinde": 7941,
      "dahilinde": 7942,
      "sorumluluğu": 7943,
      "kanalı": 7944,
      "belgede": 7945,
      "Katolik": 7946,
      "azaltma": 7947,
      "listesinde": 7948,
      "bilimsel": 7949,
      "yararlı": 7950,
      "Siyaset": 7951,
      "mantık": 7952,
      "duruşma": 7953,
      "gereği": 7954,
      "münaseb": 7955,
      "Hristofiyas": 7956,
      "Konjikusiç": 7957,
      "müfettiş": 7958,
      "58": 7959,
      "Est": 7960,
      "payı": 7961,
      "##OC": 7962,
      "##erini": 7963,
      "##ilerden": 7964,
      "##opoli": 7965,
      "Türkler": 7966,
      "geçiyor": 7967,
      "değildi": 7968,
      "##dard": 7969,
      "##bileceğine": 7970,
      "tac": 7971,
      "bölgesine": 7972,
      "görüşlerini": 7973,
      "güvenc": 7974,
      "kalp": 7975,
      "taşın": 7976,
      "örgütünün": 7977,
      "yaratmak": 7978,
      "pazarına": 7979,
      "zanlıları": 7980,
      "Finan": 7981,
      "başkentinde": 7982,
      "yolsuzluğa": 7983,
      "veto": 7984,
      "platform": 7985,
      "UPI": 7986,
      "cen": 7987,
      "yiy": 7988,
      "##ğumuz": 7989,
      "##AP": 7990,
      "##ileceğini": 7991,
      "yapılma": 7992,
      "taraftan": 7993,
      "karşıt": 7994,
      "istiş": 7995,
      "çıkart": 7996,
      "##ketbol": 7997,
      "alanları": 7998,
      "imtiyaz": 7999,
      "değişen": 8000,
      "beklentiler": 8001,
      "##ugen": 8002,
      "kendisinin": 8003,
      "gençlerin": 8004,
      "eyalette": 8005,
      "İngilizce": 8006,
      "ofis": 8007,
      "yolsuzluğun": 8008,
      "taşımacılık": 8009,
      "restoran": 8010,
      "Agim": 8011,
      "yürüttüğü": 8012,
      "Richard": 8013,
      "95": 8014,
      "Mas": 8015,
      "Meta": 8016,
      "Wil": 8017,
      "##acağına": 8018,
      "##pen": 8019,
      "##lamasının": 8020,
      "##eth": 8021,
      "birine": 8022,
      "demek": 8023,
      "##osta": 8024,
      "##amik": 8025,
      "başı": 8026,
      "açabilir": 8027,
      "sürüldü": 8028,
      "ilet": 8029,
      "bilet": 8030,
      "seçene": 8031,
      "##sızın": 8032,
      "görevinden": 8033,
      "İstih": 8034,
      "kullandı": 8035,
      "komisyonu": 8036,
      "amaçlıyor": 8037,
      "başkanları": 8038,
      "daire": 8039,
      "Sanayi": 8040,
      "eşlik": 8041,
      "Stam": 8042,
      "operatör": 8043,
      "kaldırma": 8044,
      "Müsteş": 8045,
      "davaları": 8046,
      "çağırdılar": 8047,
      "Papa": 8048,
      "Papad": 8049,
      "stratejisi": 8050,
      "##ashi": 8051,
      "dağıtı": 8052,
      "çatışmalar": 8053,
      "HIV": 8054,
      "şair": 8055,
      "Labus": 8056,
      "Lübnan": 8057,
      "Rah": 8058,
      "Tuz": 8059,
      "aya": 8060,
      "gür": 8061,
      "hekt": 8062,
      "lay": 8063,
      "##cül": 8064,
      "##ağını": 8065,
      "ülkesinden": 8066,
      "aydır": 8067,
      "##tikleri": 8068,
      "sayımı": 8069,
      "amacının": 8070,
      "paranın": 8071,
      "yatırımları": 8072,
      "tutuklu": 8073,
      "olayların": 8074,
      "Kurum": 8075,
      "barışı": 8076,
      "etkinliğe": 8077,
      "şüphe": 8078,
      "kanun": 8079,
      "##larımızın": 8080,
      "Ordus": 8081,
      "Teknik": 8082,
      "yaralandı": 8083,
      "şarkıcı": 8084,
      "koordine": 8085,
      "Bozidar": 8086,
      "##plek": 8087,
      "İlgili": 8088,
      "münasebetiyle": 8089,
      "Lit": 8090,
      "ib": 8091,
      "nci": 8092,
      "##lor": 8093,
      "##kal": 8094,
      "##ğiz": 8095,
      "##EK": 8096,
      "##ilirken": 8097,
      "##ater": 8098,
      "##ulmasını": 8099,
      "içeri": 8100,
      "##utov": 8101,
      "ülkesine": 8102,
      "aydan": 8103,
      "##iğe": 8104,
      "yoluna": 8105,
      "planlama": 8106,
      "bütünleş": 8107,
      "çekmek": 8108,
      "AKI": 8109,
      "Brammer": 8110,
      "kısım": 8111,
      "Stre": 8112,
      "yarışma": 8113,
      "yenilik": 8114,
      "kuvvetleri": 8115,
      "Silay": 8116,
      "notunu": 8117,
      "kışkır": 8118,
      "kırıklığına": 8119,
      "gerekçesiyle": 8120,
      "Barbutov": 8121,
      "buluş": 8122,
      "incelen": 8123,
      "layık": 8124,
      "Brammertz": 8125,
      "Aş": 8126,
      "Ba": 8127,
      "Bah": 8128,
      "Liz": 8129,
      "Nimet": 8130,
      "beni": 8131,
      "dük": 8132,
      "rot": 8133,
      "sunan": 8134,
      "yola": 8135,
      "##bev": 8136,
      "##isa": 8137,
      "kadem": 8138,
      "buluyor": 8139,
      "##alıyor": 8140,
      "yaratı": 8141,
      "##menler": 8142,
      "amac": 8143,
      "kararları": 8144,
      "alanlar": 8145,
      "sahipleri": 8146,
      "kalıntı": 8147,
      "dışarı": 8148,
      "##beden": 8149,
      "##ranka": 8150,
      "##port": 8151,
      "krizden": 8152,
      "##pres": 8153,
      "Marko": 8154,
      "finansmanı": 8155,
      "tepkiler": 8156,
      "grubunun": 8157,
      "toplantısına": 8158,
      "ailesinin": 8159,
      "emr": 8160,
      "emri": 8161,
      "güçlendirilmesi": 8162,
      "çerçeve": 8163,
      "iyileştirmek": 8164,
      "İttifaka": 8165,
      "Finans": 8166,
      "Paktı": 8167,
      "suretiyle": 8168,
      "nezaret": 8169,
      "uyruklu": 8170,
      "Ili": 8171,
      "hır": 8172,
      "tutan": 8173,
      "##don": 8174,
      "açıklandı": 8175,
      "savaşın": 8176,
      "örneği": 8177,
      "çekiş": 8178,
      "##uyorlar": 8179,
      "Bilgi": 8180,
      "Bununla": 8181,
      "heyetinin": 8182,
      "sergisi": 8183,
      "##ijital": 8184,
      "ayaklanma": 8185,
      "Tarih": 8186,
      "lisans": 8187,
      "kendini": 8188,
      "mektupta": 8189,
      "Adrian": 8190,
      "Schwarz": 8191,
      "liberal": 8192,
      "Silayciç": 8193,
      "Nimetz": 8194,
      "57": 8195,
      "For": 8196,
      "Tiyatro": 8197,
      "Va": 8198,
      "İvica": 8199,
      "##kar": 8200,
      "##laki": 8201,
      "##yacağını": 8202,
      "##ami": 8203,
      "##okul": 8204,
      "devir": 8205,
      "tarafların": 8206,
      "yollardan": 8207,
      "dönen": 8208,
      "oyu": 8209,
      "##imize": 8210,
      "gelene": 8211,
      "zamandan": 8212,
      "##rif": 8213,
      "programın": 8214,
      "standartlara": 8215,
      "##obel": 8216,
      "geliştirmek": 8217,
      "meclisin": 8218,
      "uçuş": 8219,
      "listesinin": 8220,
      "uyarıyor": 8221,
      "çifte": 8222,
      "modernizasyon": 8223,
      "kazı": 8224,
      "Jankoviç": 8225,
      "yarısı": 8226,
      "Öğret": 8227,
      "üzüntü": 8228,
      "sübvansiyon": 8229,
      "Dön": 8230,
      "Rek": 8231,
      "hali": 8232,
      "şer": 8233,
      "##cektir": 8234,
      "##akis": 8235,
      "##akıt": 8236,
      "kah": 8237,
      "##izasyonu": 8238,
      "##ita": 8239,
      "oldular": 8240,
      "##halif": 8241,
      "devlete": 8242,
      "geçerek": 8243,
      "karşılayan": 8244,
      "yaşlı": 8245,
      "Belene": 8246,
      "bölgelerinde": 8247,
      "195": 8248,
      "yasasını": 8249,
      "önemlisi": 8250,
      "202": 8251,
      "anlaşmaları": 8252,
      "desteklenmesi": 8253,
      "yazılı": 8254,
      "ilişkilerde": 8255,
      "turizmi": 8256,
      "zirvesi": 8257,
      "kararlılığını": 8258,
      "tablo": 8259,
      "Burgaz": 8260,
      "öncelikli": 8261,
      "Etnik": 8262,
      "anayasaya": 8263,
      "esnek": 8264,
      "İvanoviç": 8265,
      "maliyeti": 8266,
      "Bojana": 8267,
      "rakibi": 8268,
      "mekanizma": 8269,
      "beraat": 8270,
      "dünyasında": 8271,
      "metreküp": 8272,
      "Üyelik": 8273,
      "Sizce": 8274,
      "kilometrelik": 8275,
      "mevzuat": 8276,
      "Brezil": 8277,
      "Azerbay": 8278,
      "But": 8279,
      "Kop": 8280,
      "Nüf": 8281,
      "Yen": 8282,
      "yla": 8283,
      "##FTA": 8284,
      "##ilme": 8285,
      "##isiz": 8286,
      "dam": 8287,
      "##ito": 8288,
      "anah": 8289,
      "düzgün": 8290,
      "savcılar": 8291,
      "haklarına": 8292,
      "harc": 8293,
      "yasaya": 8294,
      "oluşturdu": 8295,
      "tutukladı": 8296,
      "başlatıldı": 8297,
      "zanlıların": 8298,
      "dikkatli": 8299,
      "etkileri": 8300,
      "politikasını": 8301,
      "öncelikleri": 8302,
      "Lukiç": 8303,
      "partilerinin": 8304,
      "ayakta": 8305,
      "Dimitrova": 8306,
      "şansını": 8307,
      "sanayii": 8308,
      "fikrini": 8309,
      "bayanlar": 8310,
      "Hindistan": 8311,
      "##beveyn": 8312,
      "Zv": 8313,
      "blog": 8314,
      "emir": 8315,
      "fasıl": 8316,
      "lı": 8317,
      "##AR": 8318,
      "##gah": 8319,
      "##jev": 8320,
      "##EL": 8321,
      "##matı": 8322,
      "##ekte": 8323,
      "ülkeyle": 8324,
      "aydın": 8325,
      "##cea": 8326,
      "olabileceği": 8327,
      "yaptılar": 8328,
      "##ilebilir": 8329,
      "haftalık": 8330,
      "projesine": 8331,
      "toplumlar": 8332,
      "bağımsızlığının": 8333,
      "Savcı": 8334,
      "artıracak": 8335,
      "taşıdığını": 8336,
      "azalma": 8337,
      "taslak": 8338,
      "istiyorum": 8339,
      "Inde": 8340,
      "koalisyonunun": 8341,
      "politikasının": 8342,
      "benzeri": 8343,
      "misyonunun": 8344,
      "vergisi": 8345,
      "meclist": 8346,
      "Danimar": 8347,
      "uzlaşmaya": 8348,
      "sunacak": 8349,
      "Fakültesi": 8350,
      "Danimarka": 8351,
      "Frat": 8352,
      "Jad": 8353,
      "Mey": 8354,
      "Vis": 8355,
      "haz": 8356,
      "web": 8357,
      "##nas": 8358,
      "##var": 8359,
      "##mamız": 8360,
      "etken": 8361,
      "##ith": 8362,
      "yarısında": 8363,
      "park": 8364,
      "Priz": 8365,
      "yapılanma": 8366,
      "sağlayı": 8367,
      "alınmış": 8368,
      "kurumlara": 8369,
      "alıyorlar": 8370,
      "açığını": 8371,
      "##luğuna": 8372,
      "##lamakla": 8373,
      "##ozar": 8374,
      "desteğin": 8375,
      "moon": 8376,
      "İnsanlar": 8377,
      "Tele": 8378,
      "bulunmadığını": 8379,
      "rota": 8380,
      "sıfır": 8381,
      "kademeli": 8382,
      "batı": 8383,
      "dos": 8384,
      "kör": 8385,
      "vat": 8386,
      "##şi": 8387,
      "##ener": 8388,
      "##iller": 8389,
      "##urn": 8390,
      "kariyer": 8391,
      "almasını": 8392,
      "geleni": 8393,
      "##ilmesinden": 8394,
      "kaybeden": 8395,
      "duruldu": 8396,
      "bulunuldu": 8397,
      "kaldığını": 8398,
      "başlamasından": 8399,
      "hakkını": 8400,
      "##terler": 8401,
      "sıradan": 8402,
      "destekli": 8403,
      "çıkarmak": 8404,
      "alınmasını": 8405,
      "Partisinin": 8406,
      "bunlara": 8407,
      "tahv": 8408,
      "##gela": 8409,
      "standartların": 8410,
      "rakamın": 8411,
      "Uzun": 8412,
      "Denizi": 8413,
      "personeli": 8414,
      "yatırımcıların": 8415,
      "birleşik": 8416,
      "sunulacak": 8417,
      "benims": 8418,
      "Ljubl": 8419,
      "Dimitri": 8420,
      "Mes": 8421,
      "Stand": 8422,
      "Tüz": 8423,
      "Tab": 8424,
      "##goviç": 8425,
      "##emedi": 8426,
      "##ilerinden": 8427,
      "araz": 8428,
      "intih": 8429,
      "işy": 8430,
      "taraflar": 8431,
      "ilgisi": 8432,
      "##heugen": 8433,
      "tutmak": 8434,
      "vardır": 8435,
      "oyunu": 8436,
      "##melerinin": 8437,
      "##gresi": 8438,
      "zamanın": 8439,
      "akşam": 8440,
      "onaylanan": 8441,
      "önerisi": 8442,
      "Kurt": 8443,
      "Daily": 8444,
      "politikaları": 8445,
      "##ampiyonu": 8446,
      "çalışıyorlar": 8447,
      "güneyindeki": 8448,
      "bütçesi": 8449,
      "atıfta": 8450,
      "Verheugen": 8451,
      "vizyon": 8452,
      "hafiflet": 8453,
      "tedavi": 8454,
      "konsorsiyum": 8455,
      "beyan": 8456,
      "Radio": 8457,
      "Gümrük": 8458,
      "Kaçak": 8459,
      "arayış": 8460,
      "Azerbaycan": 8461,
      "63": 8462,
      "Gelen": 8463,
      "Hiç": 8464,
      "Hep": 8465,
      "KLA": 8466,
      "form": 8467,
      "##lesi": 8468,
      "##ond": 8469,
      "birinc": 8470,
      "##osunun": 8471,
      "##likler": 8472,
      "işgal": 8473,
      "##ştır": 8474,
      "düzel": 8475,
      "getirerek": 8476,
      "krediler": 8477,
      "mahkemeyle": 8478,
      "akra": 8479,
      "tarz": 8480,
      "artırdı": 8481,
      "askerlerinin": 8482,
      "gelişimi": 8483,
      "Kostov": 8484,
      "kurucusu": 8485,
      "uğrat": 8486,
      "İttifakı": 8487,
      "belirlenmiş": 8488,
      "Gelecek": 8489,
      "Havaalan": 8490,
      "Şeffaf": 8491,
      "##inelerce": 8492,
      "mühimmat": 8493,
      "Financi": 8494,
      "64": 8495,
      "Pam": 8496,
      "Sab": 8497,
      "dürüst": 8498,
      "hüc": 8499,
      "##nis": 8500,
      "##orat": 8501,
      "##ılmaya": 8502,
      "günümüz": 8503,
      "tarafının": 8504,
      "çıkarılan": 8505,
      "suçların": 8506,
      "gösterildi": 8507,
      "düşünü": 8508,
      "görevlerini": 8509,
      "erecek": 8510,
      "Press": 8511,
      "aklama": 8512,
      "çıkarlarına": 8513,
      "polisinin": 8514,
      "katılımını": 8515,
      "kurumu": 8516,
      "raporun": 8517,
      "hayır": 8518,
      "tartışmaya": 8519,
      "görülmemiş": 8520,
      "##lamakta": 8521,
      "##lamayacağını": 8522,
      "dünyadaki": 8523,
      "saldırılar": 8524,
      "medyanın": 8525,
      "endişelerini": 8526,
      "Aday": 8527,
      "Novak": 8528,
      "dayat": 8529,
      "imkansız": 8530,
      "Şimşek": 8531,
      "Yabancı": 8532,
      "Tuzla": 8533,
      "Frattini": 8534,
      "Prizren": 8535,
      "67": 8536,
      "Ph": 8537,
      "Sec": 8538,
      "Vl": 8539,
      "Yalnızca": 8540,
      "atık": 8541,
      "İmp": 8542,
      "biriydi": 8543,
      "##dent": 8544,
      "geçersiz": 8545,
      "uyan": 8546,
      "açıklanma": 8547,
      "##ılırken": 8548,
      "sahası": 8549,
      "savunu": 8550,
      "##ick": 8551,
      "varan": 8552,
      "haftalarda": 8553,
      "akış": 8554,
      "kurumlarını": 8555,
      "Ayhan": 8556,
      "Soruştur": 8557,
      "##dıktan": 8558,
      "##anışma": 8559,
      "bölümünü": 8560,
      "puanla": 8561,
      "##himerini": 8562,
      "fabrika": 8563,
      "nakil": 8564,
      "Gordan": 8565,
      "tedav": 8566,
      "füze": 8567,
      "Kemal": 8568,
      "Tiyatrosu": 8569,
      "İmparator": 8570,
      "Kut": 8571,
      "Sistem": 8572,
      "Vi": 8573,
      "öyle": 8574,
      "##mo": 8575,
      "##iriç": 8576,
      "##mam": 8577,
      "işver": 8578,
      "Angela": 8579,
      "bölgesinin": 8580,
      "onayı": 8581,
      "alandaki": 8582,
      "varlığı": 8583,
      "imzaladığı": 8584,
      "yazık": 8585,
      "çözümün": 8586,
      "vatandaşlara": 8587,
      "oku": 8588,
      "Büyükelçi": 8589,
      "nitelendiren": 8590,
      "inanıyorlar": 8591,
      "atılan": 8592,
      "meclisi": 8593,
      "ilç": 8594,
      "1989": 8595,
      "CEFTA": 8596,
      "talebinde": 8597,
      "miras": 8598,
      "rahatsız": 8599,
      "Forumu": 8600,
      "Organize": 8601,
      "harici": 8602,
      "hektar": 8603,
      "Şeffaflık": 8604,
      "72": 8605,
      "EC": 8606,
      "Ku": 8607,
      "Kla": 8608,
      "lüks": 8609,
      "##gının": 8610,
      "##RT": 8611,
      "birliğinin": 8612,
      "daimi": 8613,
      "##tantin": 8614,
      "##ilerle": 8615,
      "arıyor": 8616,
      "yetiş": 8617,
      "sorunla": 8618,
      "edebilecek": 8619,
      "##etten": 8620,
      "bildiri": 8621,
      "bazılarının": 8622,
      "raporunu": 8623,
      "##latko": 8624,
      "geçirmek": 8625,
      "başladığını": 8626,
      "çağıran": 8627,
      "basınında": 8628,
      "malların": 8629,
      "fiyatı": 8630,
      "tabi": 8631,
      "##layacağını": 8632,
      "hızlandırma": 8633,
      "memurları": 8634,
      "Özelleştirme": 8635,
      "lardaki": 8636,
      "##meliyiz": 8637,
      "açıklamasına": 8638,
      "donanım": 8639,
      "Marija": 8640,
      "Gözlem": 8641,
      "##ayolları": 8642,
      "olmasa": 8643,
      "Komünist": 8644,
      "Jadranka": 8645,
      "Gab": 8646,
      "GER": 8647,
      "soğuk": 8648,
      "vek": 8649,
      "şub": 8650,
      "şampiyonu": 8651,
      "##meti": 8652,
      "##kest": 8653,
      "##ft": 8654,
      "##ğuna": 8655,
      "##imiyle": 8656,
      "arasına": 8657,
      "##tady": 8658,
      "##yana": 8659,
      "yaşanıyor": 8660,
      "getirilen": 8661,
      "istasyon": 8662,
      "elveriş": 8663,
      "tarihe": 8664,
      "##leyi": 8665,
      "sonuçlandı": 8666,
      "sektörünü": 8667,
      "gerçekleştirildi": 8668,
      "##gunluk": 8669,
      "etkileyen": 8670,
      "alıp": 8671,
      "davaların": 8672,
      "belgesel": 8673,
      "seviyesine": 8674,
      "konferansı": 8675,
      "kalabalık": 8676,
      "Sekreter": 8677,
      "direktör": 8678,
      "yoğunlaş": 8679,
      "konsey": 8680,
      "Gazeteciler": 8681,
      "cazip": 8682,
      "arabuluculuk": 8683,
      "kamyon": 8684,
      "Koalisyon": 8685,
      "sadık": 8686,
      "Dejan": 8687,
      "Eyalet": 8688,
      "GERB": 8689,
      "esk": 8690,
      "stan": 8691,
      "##mişt": 8692,
      "##his": 8693,
      "##jek": 8694,
      "##aryo": 8695,
      "##imini": 8696,
      "##omet": 8697,
      "sürmesi": 8698,
      "işlenmiş": 8699,
      "ını": 8700,
      "##ilmesiyle": 8701,
      "üyelerini": 8702,
      "##manoviç": 8703,
      "hükümetler": 8704,
      "suçun": 8705,
      "denk": 8706,
      "Europe": 8707,
      "ayrılan": 8708,
      "çıkardılar": 8709,
      "mücadelenin": 8710,
      "gazete": 8711,
      "Entegr": 8712,
      "atma": 8713,
      "adımları": 8714,
      "ayrıldı": 8715,
      "kurulmasına": 8716,
      "niteliğ": 8717,
      "bilgilendir": 8718,
      "işareti": 8719,
      "Üçüncü": 8720,
      "gemi": 8721,
      "Esad": 8722,
      "Teşkilatı": 8723,
      "Indepen": 8724,
      "61": 8725,
      "Dora": 8726,
      "Misyon": 8727,
      "Nobel": 8728,
      "Raz": 8729,
      "SDA": 8730,
      "alev": 8731,
      "elim": 8732,
      "mimar": 8733,
      "riski": 8734,
      "vir": 8735,
      "ümit": 8736,
      "##ig": 8737,
      "##ns": 8738,
      "##fed": 8739,
      "##aka": 8740,
      "##atin": 8741,
      "##tanın": 8742,
      "konusunu": 8743,
      "savunan": 8744,
      "ekonomiyi": 8745,
      "doğur": 8746,
      "komitesi": 8747,
      "dönemin": 8748,
      "aksi": 8749,
      "çıkarları": 8750,
      "sürdürülen": 8751,
      "Partinin": 8752,
      "açılacak": 8753,
      "olayın": 8754,
      "artırmaya": 8755,
      "Niko": 8756,
      "siyasetçiler": 8757,
      "katılanların": 8758,
      "manz": 8759,
      "Rohan": 8760,
      "fabrikası": 8761,
      "gündeminde": 8762,
      "statüsünün": 8763,
      "kendine": 8764,
      "suikas": 8765,
      "sekreter": 8766,
      "ışığında": 8767,
      "Başsavcı": 8768,
      "bireysel": 8769,
      "pazarı": 8770,
      "Lizbon": 8771,
      "Independent": 8772,
      "Düş": 8773,
      "Dava": 8774,
      "bebek": 8775,
      "gev": 8776,
      "ikil": 8777,
      "##sına": 8778,
      "##net": 8779,
      "##enk": 8780,
      "##imler": 8781,
      "##osje": 8782,
      "ardı": 8783,
      "gününe": 8784,
      "almıştı": 8785,
      "toplanan": 8786,
      "soruna": 8787,
      "hükümetle": 8788,
      "##elikop": 8789,
      "onar": 8790,
      "Altı": 8791,
      "davayı": 8792,
      "duyduğunu": 8793,
      "öncesine": 8794,
      "raporuna": 8795,
      "oluşturmak": 8796,
      "sunmak": 8797,
      "katıla": 8798,
      "hayatta": 8799,
      "çoğunluğunun": 8800,
      "eleştirilere": 8801,
      "Bölgede": 8802,
      "ailesi": 8803,
      "eyaletteki": 8804,
      "eksiksiz": 8805,
      "ihtiyacımız": 8806,
      "Durum": 8807,
      "Samar": 8808,
      "koordinasyon": 8809,
      "Değiş": 8810,
      "yıldızı": 8811,
      "Stratejik": 8812,
      "cihaz": 8813,
      "intihar": 8814,
      "Cav": 8815,
      "Seli": 8816,
      "efsan": 8817,
      "ebeveyn": 8818,
      "gol": 8819,
      "Şiddet": 8820,
      "##rem": 8821,
      "##nes": 8822,
      "##gâh": 8823,
      "##ülasyon": 8824,
      "##hard": 8825,
      "##ekon": 8826,
      "ayar": 8827,
      "kurmayı": 8828,
      "ülkelerdeki": 8829,
      "Alf": 8830,
      "1244": 8831,
      "komplek": 8832,
      "turda": 8833,
      "sektörün": 8834,
      "şartların": 8835,
      "programları": 8836,
      "Kosteliç": 8837,
      "değerlendiriyor": 8838,
      "girişimin": 8839,
      "hisse": 8840,
      "saatlik": 8841,
      "isimli": 8842,
      "edeceğiz": 8843,
      "kanıtı": 8844,
      "İvanov": 8845,
      "tartışmalara": 8846,
      "gözlemci": 8847,
      "bombalı": 8848,
      "Srbi": 8849,
      "Konferansı": 8850,
      "işadamı": 8851,
      "öfk": 8852,
      "Mem": 8853,
      "Rü": 8854,
      "Vic": 8855,
      "mus": 8856,
      "##adan": 8857,
      "##sef": 8858,
      "##AK": 8859,
      "##IB": 8860,
      "##duk": 8861,
      "etmiyor": 8862,
      "##itor": 8863,
      "yarım": 8864,
      "##alisti": 8865,
      "karşılıyor": 8866,
      "hükümetinden": 8867,
      "uygulanacak": 8868,
      "haftaki": 8869,
      "Pred": 8870,
      "desteklenen": 8871,
      "##elena": 8872,
      "örneğin": 8873,
      "öldü": 8874,
      "başkanının": 8875,
      "##chev": 8876,
      "düşünce": 8877,
      "etkinliği": 8878,
      "gitmek": 8879,
      "sıkış": 8880,
      "azaltılması": 8881,
      "adıyla": 8882,
      "Görüşmelerde": 8883,
      "1980": 8884,
      "çıkmaza": 8885,
      "oğlu": 8886,
      "İddianam": 8887,
      "fiziksel": 8888,
      "yürüyüş": 8889,
      "78": 8890,
      "by": 8891,
      "feder": 8892,
      "süt": 8893,
      "##medeki": 8894,
      "##sü": 8895,
      "##NS": 8896,
      "##larsa": 8897,
      "##lendiği": 8898,
      "devi": 8899,
      "topladı": 8900,
      "yetiştir": 8901,
      "suça": 8902,
      "konması": 8903,
      "tuttur": 8904,
      "girmek": 8905,
      "bakanlığına": 8906,
      "merkezinin": 8907,
      "imzalama": 8908,
      "mücadeleyi": 8909,
      "Ergen": 8910,
      "##lükteki": 8911,
      "##oloj": 8912,
      "atmos": 8913,
      "çabaların": 8914,
      "tamamı": 8915,
      "kapsamındaki": 8916,
      "eşya": 8917,
      "dikt": 8918,
      "istikrarsız": 8919,
      "makamların": 8920,
      "EUobserver": 8921,
      "zanlılarını": 8922,
      "ordusu": 8923,
      "milletvekillerine": 8924,
      "Elektrik": 8925,
      "profesörü": 8926,
      "kapasitesini": 8927,
      "gözlemciler": 8928,
      "reak": 8929,
      "##emeyecek": 8930,
      "Dimitrov": 8931,
      "##sınız": 8932,
      "bahset": 8933,
      "inanılan": 8934,
      "kurtul": 8935,
      "güveni": 8936,
      "Leh": 8937,
      "Nich": 8938,
      "Zor": 8939,
      "binin": 8940,
      "##rsa": 8941,
      "##cinin": 8942,
      "##liy": 8943,
      "birer": 8944,
      "##umi": 8945,
      "kurb": 8946,
      "düzinelerce": 8947,
      "çıktığı": 8948,
      "kararlar": 8949,
      "Birinci": 8950,
      "##uluş": 8951,
      "edecektir": 8952,
      "müzakerelerinde": 8953,
      "salon": 8954,
      "programının": 8955,
      "değerlendirmek": 8956,
      "görüntü": 8957,
      "DPS": 8958,
      "parlamentoya": 8959,
      "Sonr": 8960,
      "eylemleri": 8961,
      "Bölgedeki": 8962,
      "takımının": 8963,
      "inanıyoruz": 8964,
      "bölümünde": 8965,
      "İslami": 8966,
      "harcamaları": 8967,
      "adamları": 8968,
      "kira": 8969,
      "Beyaz": 8970,
      "inanılıyor": 8971,
      "etrafında": 8972,
      "kıyısındaki": 8973,
      "SNSD": 8974,
      "alkol": 8975,
      "Direktörü": 8976,
      "Group": 8977,
      "PIC": 8978,
      "Yayın": 8979,
      "dijital": 8980,
      "fizibilite": 8981,
      "helikop": 8982,
      "##mik": 8983,
      "##gos": 8984,
      "kade": 8985,
      "##lkeri": 8986,
      "##ilerde": 8987,
      "verirken": 8988,
      "yıllarca": 8989,
      "belirsizlik": 8990,
      "mühendis": 8991,
      "seçimlerinden": 8992,
      "Alb": 8993,
      "kazanma": 8994,
      "izlemek": 8995,
      "şirketlerinin": 8996,
      "akın": 8997,
      "dahi": 8998,
      "programını": 8999,
      "başlattığı": 9000,
      "130": 9001,
      "gerçekleştirilecek": 9002,
      "##ebla": 9003,
      "##ebilmesi": 9004,
      "Sorun": 9005,
      "Iraklı": 9006,
      "açtığını": 9007,
      "##madılar": 9008,
      "kalacağını": 9009,
      "Holkeri": 9010,
      "yoğunluk": 9011,
      "ihlali": 9012,
      "konferansa": 9013,
      "havali": 9014,
      "korumaya": 9015,
      "kasabası": 9016,
      "Terziç": 9017,
      "öğrencilerin": 9018,
      "teşekküllü": 9019,
      "hoşgörü": 9020,
      "şimdilik": 9021,
      "##iskopos": 9022,
      "Estonya": 9023,
      "Basında": 9024,
      "BSP": 9025,
      "Gal": 9026,
      "KSF": 9027,
      "Peki": 9028,
      "afet": 9029,
      "hac": 9030,
      "mit": 9031,
      "##sos": 9032,
      "##FA": 9033,
      "##ilot": 9034,
      "##male": 9035,
      "##sıyor": 9036,
      "##izatör": 9037,
      "açmayı": 9038,
      "##üldüğü": 9039,
      "belirlemek": 9040,
      "savcılık": 9041,
      "194": 9042,
      "durumlarda": 9043,
      "başladılar": 9044,
      "organizasyon": 9045,
      "kaydettiğini": 9046,
      "gazetecilerin": 9047,
      "yaşamak": 9048,
      "##eceğim": 9049,
      "büyümeyi": 9050,
      "protestocu": 9051,
      "kullanıcı": 9052,
      "##bert": 9053,
      "özgürlüğünü": 9054,
      "darb": 9055,
      "##lerimizi": 9056,
      "koordinatörü": 9057,
      "Rasim": 9058,
      "sebep": 9059,
      "fiili": 9060,
      "istişar": 9061,
      "Bri": 9062,
      "Col": 9063,
      "His": 9064,
      "Haciç": 9065,
      "Ivica": 9066,
      "Tör": 9067,
      "set": 9068,
      "the": 9069,
[...]
