[PAD]
[UNK]
[CLS]
[SEP]
[MASK]
!
"
#
$
%
&
'
(
)
*
+
,
-
.
/
0
1
2
3
4
5
6
7
8
9
:
;
<
=
>
?
@
A
B
C
D
E
F
G
H
I
J
K
L
M
N
O
P
Q
R
S
T
U
V
W
X
Y
Z
[
\
]
^
_
`
a
b
c
d
e
f
g
h
i
j
k
l
m
n
o
p
q
r
s
t
u
v
w
x
y
z
{
}
©
ª
°
±
º
½
¾
Ã
Ç
É
Ö
Ü
Ý
Þ
á
â
ç
è
é
ë
í
î
ï
ð
ñ
ó
ö
ø
û
ü
ý
þ
ć
č
đ
Ğ
ğ
İ
ı
Ş
ş
Š
š
Ž
ž
μ
а
б
г
и
л
р
у
х
ъ
я
–
—
‘
’
“
”
…
##l
##a
##ş
##ı
##m
##s
##o
##y
##i
##t
##d
##k
##r
##n
##e
##f
##u
##b
##p
##c
##ğ
##T
##A
##P
##ç
##g
##z
##v
##ö
##ü
##h
##j
##w
##S
##Y
##H
##D
##7
##3
##E
##4
##ð
##6
##1
##O
##M
##9
##F
##R
##C
##N
##0
##5
##â
##2
##8
##B
##L
##I
##x
##q
##G
##X
##K
##U
##İ
##W
##þ
##Z
##V
##é
##º
##î
##J
##ž
##Ü
##°
##Q
##Ö
##ø
##ë
##É
##Ş
##š
##û
##í
##č
##Ç
##đ
##ć
##х
##½
##ï
##я
##Ý
##г
##ъ
##л
##а
##р
##и
##Ğ
##ó
##á
##ñ
##è
##ý
##Ã
##©
##у
##la
##er
##in
##an
##ın
##ar
##en
##ir
##ak
##lar
##il
##ma
##el
##ek
##da
##le
##un
##or
##es
##on
##et
ve
##di
##li
##as
##lı
##de
##ler
bir
##ır
##at
##is
##iy
##lan
##ur
##ün
de
##ya
##aş
##im
##dı
da
##lu
##ti
##ür
##ların
ka
##em
##ik
##ında
##tan
##ini
##os
##al
##ul
##ey
##ör
##yor
##ıl
ya
##sı
##ov
ol
##dan
##ük
##iş
##ec
##du
##ağ
##am
##ları
##ine
##um
##tı
##den
##az
##ay
##anı
iç
##esi
##iz
##lk
##iler
##istan
##eler
##ut
##inin
için
##ını
##ra
##ği
##onu
##om
baş
##üz
gör
##eç
##üm
##aki
##av
et
yap
##ara
##cak
##ık
##inde
##ev
##ğı
##ki
##st
ön
sö
##ış
Sır
##ol
##ed
ar
##leri
##ab
bu
##ok
kar
in
##ah
##laş
ülk
ger
gün
ver
##iç
AB
##it
##lık
##op
##eki
##ön
yıl
##ması
##ına
##me
oldu
##te
##unu
##yle
al
##ası
##ru
son
an
##ta
konu
aç
gel
##iyor
##mas
ay
##lik
##mak
##ova
##len
Kos
##art
##ha
##ro
##ca
nin
##ından
##üş
##lg
##cı
en
##ının
##ğini
##oğ
sür
yer
##ım
Kosova
nın
##ıs
or
##daki
##alı
olduğ
##asında
##ül
##lama
iş
##eni
##00
ile
##yon
##şı
##mek
bü
##uz
##larak
##bistan
ın
Sırbistan
günü
##şt
##ürk
##ce
olan
dev
olarak
##zer
Türk
##unda
söyle
##rup
##ilm
##ili
Av
##luk
bul
##iye
An
##ece
kur
##id
bel
##let
##ecek
##ez
##eri
yar
yön
Bu
##ladı
##deki
##üküm
kat
geç
Ar
##larını
##dir
##yla
üzer
daha
##dır
Avrup
top
##enin
##akan
değ
##lus
üy
gö
ola
##kan
##ali
gü
##imes
dedi
sor
gerek
##araf
yeni
##isi
##ükümet
##eş
kay
##dar
##ka
##kanı
söyledi
bö
taraf
Avrupa
##man
ek
##ers
karşı
Baş
Sırp
su
Hır
##ap
##vat
düz
uy
Mak
200
##ip
##inden
##uk
Hırvat
ed
##tır
##bil
##eye
mil
##edon
##lü
##ğını
##cağ
Makedon
is
##unun
##ede
##diği
##ız
büy
sağ
##bir
##est
##iyas
##maya
##ef
açık
etti
##us
##ılı
##avut
##hur
##men
konus
yak
##ski
##unan
bil
hükümet
##umhur
Türkiye
##akanı
##ci
Arn
Arnavut
##dım
seç
##ındaki
##iğ
##ekle
göre
##ad
belir
##larının
çık
ta
yol
yet
##iyle
##oviç
çok
olduğunu
##edi
##na
##ken
##elik
##yan
##ib
suç
söz
yaş
dur
##oli
##af
##yı
##onom
##lara
hab
yaptı
ilg
sah
iki
daki
##gar
çalı
Bel
##aret
büyük
yapı
sav
##tik
##eyi
##kil
siyas
anlaş
bölg
ken
##mış
So
##ari
##ven
yüz
##lerin
pro
##gu
##arası
arasında
##dığı
tarafından
gen
hak
##arı
Bul
##luslar
##ist
##he
te
##luslararası
##una
bağ
Makedonya
devam
Kara
Bulgar
BH
##erk
Yunan
olu
##liği
##erek
düzen
##ilen
##mesi
Rom
##baş
##ştir
gerç
on
19
##larına
##mes
##eleri
ne
##ster
##üks
yan
##umhurbaş
##etir
##ic
##lerini
##gra
çalış
getir
kadar
önem
##ekt
##iğer
sır
hal
##ıyor
bulun
ekonom
öz
##lığı
ilgili
##sk
av
den
uz
##üt
ist
ara
##sız
say
görüş
Hırvatistan
göster
ama
Başb
##ast
Eur
##cu
##kin
düş
##mu
dan
##grad
##anya
olma
##re
şek
##işt
Belgrad
dön
##eli
yas
kap
poli
tek
mü
karar
##ibi
görev
yaptığı
##larında
durum
belirt
##osna
Times
diğer
iy
##üyor
SE
##oy
her
##ans
##bul
par
##rı
##san
zam
kon
##lıyor
##ildi
seçim
siyasi
##rat
##ahk
##ket
konusunda
Paz
ilk
el
Arnavutluk
##dür
ülkeler
##ileri
üzere
##dağ
alan
##erkez
##ğu
Karadağ
##lacak
dest
##ean
avro
az
##öz
##ret
doğ
milyon
İs
##masına
##liğ
lid
##iyet
Bakanı
##indeki
Europ
plan
un
##azla
##masını
tut
ref
##anda
var
fazla
##liş
güven
##gi
ABD
olduğu
##ahkem
SET
önemli
edi
SETimes
müz
sahip
alt
##det
yardım
##lığ
tem
büt
Sout
oy
##ştur
European
##iv
##heast
Southeast
20
Bulgaristan
##esinin
10
##üs
dem
##umhurbaşkanı
##ünde
diy
gerçekle
Bir
##lerine
##işleri
kal
kul
iliş
##meye
##lanan
kr
ih
üç
##dığını
konuş
##AT
ülkenin
##esinde
sonra
##lerle
##ade
başla
##miş
işbir
Romanya
yetkil
##dü
ort
Yunanistan
gibi
ye
olmak
uygu
##imiz
gir
özel
sonr
NAT
ada
##esel
NATO
BM
bin
##lam
##tür
##ba
##aker
ko
11
##lerinin
ediyor
##cağını
##ilmesi
kiş
uluslararası
ülke
##zan
Ancak
##ye
##larda
im
yaklaş
sonu
##azır
##br
##kı
kullan
er
##lere
bek
##uy
##artesi
haberi
##meler
##za
Bal
##atır
birlik
müzaker
toplu
anlaşma
tari
çağ
Kom
kabul
##lenen
##acak
##yonu
##üp
##nak
hazır
güç
##gı
yüzde
açıklama
devlet
yılında
##eceğini
##imi
##orm
verdiği
ise
##ünü
##sa
Balkan
Cumhurbaşkanı
##leştir
Al
##ıldı
lider
##iyat
##ada
önce
##arak
##lantı
haf
##sil
12
bas
şekil
Pr
##ile
tarih
##ina
orta
##ilerin
Or
savaş
##ulu
ser
gelen
sorun
dış
Re
199
##lav
şekilde
part
kom
##apor
##ko
##suz
##rar
insan
##ji
kor
##iyaret
Bosna
##gr
##esine
##se
##nik
birlikte
##oğu
yay
##azı
eski
kazan
değil
hakk
iyi
##iran
çöz
dav
##lo
zor
##ter
duy
##atırım
##del
nun
ask
yönet
yüks
##ılması
##izm
bulundu
yapılan
içinde
##si
bakan
##bilir
Ek
##irket
genel
##öyle
##diç
merkez
haber
gaz
ede
st
ziyaret
der
ik
reform
zaman
gerekti
mu
##ınır
ekonomik
İn
##ılım
##leş
Gen
##diler
kaynak
har
imza
kendi
##diğini
Hers
sıra
Kon
sürec
sonrasında
##yet
bütün
##be
hafta
##asyon
sağla
##ünya
şöyle
##ett
mahkem
##gan
##ley
Başbakan
Hersek
Pazartesi
veya
Kı
üzerinde
neden
yanı
başkanı
##akat
destek
##ac
Dış
##ran
yatırım
##edef
##ot
##uma
mev
##tış
Ban
kö
yaklaşık
##umlu
tak
ortak
##atı
##okrat
##brıs
Kıbrıs
Par
##ımsız
##cadel
proj
önc
##mayı
iz
##dik
tur
sınır
dönem
##lerinde
şirket
hedef
ayrı
ak
Tem
##lardan
##esini
##elen
##iştir
açıklamada
##der
##lendir
##şam
ilişk
kes
toplum
ayında
amaç
##anın
çıkar
gerçekleş
##ub
değiş
ilerle
##tü
##ize
##ark
##to
##üne
##lamen
ad
##eceği
Bakan
##lerde
##mi
san
##masının
ör
##larından
temsil
tama
Dışişleri
yasa
Çar
yayın
mücadel
polis
##ri
müzakereler
kaç
alın
##şamba
##aba
belirtti
olacak
Komis
Mil
öl
##asındaki
Çarşamba
toplantı
bağımsız
katılım
##siz
gazet
geldi
Dem
üst
##ecli
##şa
sayı
kurum
##ültür
##cağı
aldı
##ektör
At
##unuyor
##leme
tar
söy
15
Ara
##landı
geri
ev
alıyor
##manın
##mp
eden
##nı
##oc
##iliyor
##arış
çek
hem
bildir
bazı
işbirliği
##istem
##ges
En
##eçte
##gel
Başbakanı
##lay
kıs
Mart
üyelik
deki
göz
##ten
rapor
##ğimiz
Er
##ica
##ddi
##hale
09
düzenlenen
do
Uluslararası
Salı
tanı
beklen
##etty
##kları
##lusal
Getty
##mages
yönelik
Prişt
##güt
##tif
Images
##larla
##tiv
##lük
başkan
##ch
yetkililer
##lanması
07
sistem
verdi
06
05
AK
##rak
##tar
##ug
yerine
##oğun
##üsü
Ta
demeçte
##cısı
Priştine
##ayı
if
##abil
Reut
taş
yür
##atanda
değer
##ğü
Reuters
sürdür
08
geçen
03
yüksek
##rik
Rus
##ren
##yacak
04
##çi
##eşit
Per
##işim
AF
hakkında
bunun
##ton
etmek
iddi
sonuç
##ej
halk
##lül
ha
##lem
sat
##ğit
##olo
AFP
##gram
Gün
yönünde
konusu
Sar
yaz
yok
si
doğru
##edeki
ter
at
##cü
##lah
##ledi
arasındaki
Haz
biri
çaba
##eh
##tr
çalışma
##lat
##liyor
vatanda
dör
##tırma
##uştur
gerektiğini
öğ
yakın
##han
##tir
May
##erji
##sam
şey
##jan
##ban
kent
kamu
oluştur
##aliyet
##ag
tes
##şem
Sav
uzun
fa
##mız
yı
##ünün
konuşan
karş
res
##uzey
##ilere
Br
Kons
aynı
##adece
yana
onay
##ça
fark
Mayıs
##eket
yerel
tüm
##osya
ayrıca
Ekim
Haziran
##ilik
çözüm
201
yeniden
Part
dah
tamam
Perşem
##up
##akam
##eşitli
Perşembe
düşün
kurulu
##umhuriyet
Başkanı
##olu
bulunuyor
##unma
Aralık
##lüyor
sektör
##tikrar
##ne
##çı
gelecek
##if
##por
diyen
geçir
İt
##ğine
hay
##meyi
##suzluk
hiç
katıl
pek
##asa
Rum
##uyor
Ocak
Demokrat
vatandaş
engel
amaçlı
bun
##estiv
teh
##eviç
teş
açı
##muz
söylüyor
ulaş
##ğitim
##ısından
##ovski
güvenlik
##ürlü
oran
öner
##mesine
tutuk
sev
25
dahil
##lığını
mem
hükümeti
kapsam
##lerinden
olası
##per
##kü
sadece
inşa
Nis
stat
Pazar
Anlaş
sal
##asım
30
##ing
##ündeki
##anan
##üf
şart
dört
Saray
##etr
program
Temmuz
Kasım
kı
##tık
karşın
##oslav
bor
##fer
düzey
##mesini
Gü
İş
dair
ün
Yeni
Üsk
##landır
##vet
Üsküp
##mada
##tiğimiz
Alman
##uv
başladı
sorumlu
aday
açısından
Nisan
olay
artır
örgüt
başlat
Dünya
##yar
tic
hız
adım
##kinci
destekle
##min
Sarayb
##cut
##izi
yargı
##uş
amacı
Balkanlar
##üy
##fet
##masında
##ras
##van
araya
Ey
ot
sun
##dur
enerji
##gil
ten
##luğ
aldığı
cez
rağ
gön
##isinin
##azar
Saraybosna
etnik
##lüm
##osu
kuruluş
rağmen
Kosovalı
Eylül
gerekiyor
hükümetin
##cek
##izmet
Güney
##eral
mücadele
17
üret
tam
##likle
ted
##ja
##ciler
parlamen
olması
##ayan
13
##mem
AP
değişik
##ubat
##detti
##aln
##larıyla
üyesi
tartış
16
18
Bor
Şubat
bekleniyor
Cumhuriyet
ban
Bos
##alnız
geniş
duyur
##anlı
##ümüz
##eclis
##gor
faaliyet
Yar
14
para
##od
ben
görül
eğitim
bak
hizmet
Hükümet
boy
başka
ortaya
Pro
##syon
##aç
##aat
##çe
Bank
şekl
Merkez
vur
Kar
gerçekleştir
tel
Atina
##siy
yolsuzluk
oluş
San
ayr
um
##layan
##lov
##sel
Kur
##lanıyor
milyar
sırasında
##ilmiş
derece
diyerek
Konseyi
##rub
kurul
##alnızca
katı
##ısında
Genel
iddia
##maları
Yug
##ladığı
beş
##oş
nit
UN
yapılacak
ikinci
##tiy
##umhurbaşkan
##tığı
kişi
##ser
Komisyonu
asker
Mahkem
Nik
##ola
kültür
##dül
çağır
##eb
mevcut
##ep
Yugoslav
##lamak
yürüt
Tadiç
geliş
nüf
edil
hareket
Partisi
hat
Ülk
##nalı
anda
barış
kuzey
olum
##kili
Rusya
Ay
##ava
mey
eş
##iddi
##asının
grup
##mey
organ
##vek
##ici
gönder
Ra
##iplo
##ağı
##ocuk
##liğini
tedbir
Geç
hiçbir
##doğu
bulunan
##tika
altında
basın
aş
##tand
Mla
dik
##oz
St
##asına
Da
ekledi
Slov
##lamaya
##lerden
Fakat
ciddi
zir
askeri
ancak
##itesi
üye
##asını
Bil
yalnızca
avroluk
şu
##ünden
##letvek
Sof
saldır
##ımı
##koviç
tah
##üç
##gun
kim
nedeniyle
oper
mesel
tale
görüşmeler
Cuma
kad
Zag
##imdi
edilen
Güven
yıllık
etkin
kaçak
terör
yönetim
rol
farklı
Bosnalı
hayat
##undan
##stos
sayıda
Cumhuriyeti
##ust
öğren
##ğustos
Ağustos
resmi
##ovan
Zagre
durumda
taşı
##ge
##tidar
azal
çev
kriz
amacıyla
meydan
red
##undaki
dün
film
##ide
##lim
##duğu
##iddet
yarat
##menin
pazar
fin
##üksel
git
##aj
02
##tiler
##ılmış
dile
##masından
##maz
##anıyor
##ştu
ilişkin
İngil
mali
stand
21
kesin
has
istikrar
tas
kaldır
27
yi
ilerleme
ilişkiler
gereken
Brüksel
##raf
kil
##ülen
##makta
istiyor
ihtiy
geçtiğimiz
Top
##OR
##doğ
##mer
sık
##eliğ
ok
Kost
fir
##lanma
kaynaklar
##gör
Güvenlik
bır
değerlendir
##edir
olduk
##isyon
Büy
Eski
kapsamında
etme
##dından
yönündeki
##yen
Sor
muhale
şeklinde
küç
##ded
##osyal
SC
##tern
ticaret
anay
##FOR
Yardım
bekle
sona
değişiklik
24
silah
Tiran
bağlı
milletvek
##elç
hey
dünya
şiddet
Çeşitli
22
##eti
girişim
Lah
kamp
01
mal
makam
kayb
fakat
##ümüzdeki
çoğun
##bar
Rad
bırak
##meleri
##dık
nüfus
çocuk
bilg
umut
Büyük
##pr
beledi
üyeli
güçlü
meydana
Lahey
ulusal
##isini
##ivers
##lana
etkil
ileri
##rans
başar
##ektrik
Mar
IM
##fa
##ınma
2004
cumhurbaşkan
düzenle
özg
eleştir
bile
EU
##sal
kredi
süre
ifade
bur
##diş
adlı
##kat
Batı
23
##best
Bankası
politika
##este
Boris
##nun
diyor
ma
başarı
kararı
fiyat
katıldı
##okras
elde
##gin
28
ele
altı
##ver
##tanbul
standart
kaydetti
edecek
kısa
Ah
IC
İstanbul
##oran
##bilecek
sözlerine
IMF
##ğunu
##escu
alı
Sloven
##elerin
kötü
İtal
gazetec
##leşme
vurgu
Ulusal
##kara
##ob
Kür
##cılık
yaşam
günkü
bölgesel
koali
##elendir
Ge
##luğu
##laştır
Ankara
soruştur
tan
##malı
dönüş
Bakanlığı
##og
##doğan
Ber
##mir
deste
mo
##reş
uzman
zorunda
tehdi
Sofya
##ıp
Ne
kendis
As
mes
Sch
Öz
Bük
##aştırma
zanlı
##trol
dikkat
##hn
Mladiç
Bükreş
Güneydoğu
li
##esiyle
anlam
strat
gerçek
bunu
##esinden
##iyi
##ana
ardından
uyar
Erdoğan
eyle
##asyonu
başb
düşük
##oj
iktidar
##mıştı
Mü
yaşanan
genç
Almanya
##eceğ
ki
yaban
kadın
##alk
##erç
##elerini
##ivil
artış
##eyen
çağrı
Bö
##ciç
olmaya
dava
Dev
toplam
parti
26
dok
huk
prot
memnun
Irak
bölge
çalışan
nok
gerekli
doğal
Festiv
as
##ros
büyüm
şüp
hale
ağ
his
kontrol
tür
yabancı
kan
öde
ödül
üzerine
rek
##lak
##utan
##ırı
yılın
##gün
Söz
kuru
gid
tav
##ilecek
öngör
##makla
##dem
muhalefet
Ekonom
##erli
önümüzdeki
açtı
finans
saldırı
Yet
temel
Yardımcısı
ihti
görün
teki
med
idar
##orum
art
DP
##mı
istedi
yolunda
oluşan
Oli
##lığının
serbest
işbirliğ
ülkeleri
belg
2007
diplo
Her
yarış
##bileceğini
yaşındaki
azın
##elerinin
suçları
Dair
kazandı
parlamento
kayded
uygun
ni
taki
##ladılar
gelir
küçük
ayı
##laf
halinde
##ğünü
Parti
ceza
##unca
üyeliğ
yolu
İç
nde
tep
##üncü
geliştir
lideri
Kültür
ülkede
Sek
işaret
##amp
##itr
endiş
olmadığını
alma
değiştir
##ayet
##aber
fik
100
Ada
In
Parlamen
##larındaki
2008
teslim
günlük
saat
çoğu
##üde
##inci
yardımcı
##usu
##lif
##laşma
ülkesinin
çağırdı
Poli
takdir
koş
##do
##bi
##yanın
grub
##alist
isim
29
Son
##ternet
##tak
savunma
yen
##ika
ilan
Yugoslavya
temsilc
ordu
zamanda
sı
##anış
şüph
##kovski
##eyle
seviy
ettiği
ICT
Pap
İki
Yüks
##nolo
konuşmada
Zagreb
ICTY
##cılar
satın
olumlu
##asıl
koy
siyaset
sek
şimdi
ekonomi
eylem
meclis
##laması
##kaç
##esto
çıkan
##dürü
katkı
Bas
Ko
fır
Geor
Bölg
hava
Yüksek
##lemek
##mpiyat
##islav
##ğına
##yalı
toplantıs
boyunca
##ıt
sivil
50
Kr
nitelendir
##erçev
turizm
Romen
Avust
##evski
artık
##müş
2006
kolay
gi
hâ
stratej
eya
düzenlen
biz
##liğe
kesim
kut
banka
##ılıyor
##mişti
operasyon
getirdi
organize
zirv
gerçekleşti
hiss
##ekli
olur
edilm
##lıkla
edildi
Devlet
it
açıkladı
##layı
elektrik
##lığına
sonunda
mevki
##hangi
yaşa
##ent
2005
Ortak
Mir
eur
##leriyle
etk
##tifak
##uvvet
##şıyor
uygulama
anlaşmaz
düşünüyor
Slovenya
##ğında
Ör
##lâ
Olimpiyat
##madı
Gör
##IK
Mu
emek
spor
merkezli
##ıntı
##etim
##lerce
ail
ülkedeki
##mekte
tehdit
Ak
##muş
talep
##bol
ülkelerin
##sik
##bo
na
Bar
Ön
yüzünden
##mesinin
##mat
koalisyon
olacağını
başbakan
yandan
Frans
uğ
başta
sağlık
baskı
UNM
kalk
Lib
Ser
##düğü
##daşı
Milos
birkaç
##mede
üyeliği
Mac
##kün
##sat
azınlık
##tis
ihtilaf
tanın
bağımsızlık
UNMIK
Fransa
Har
nda
##din
2009
gösteriyor
yapan
komş
arada
##enüz
oyun
ihra
##ğe
Cum
##ash
yaka
takım
kalan
##ümkün
herhangi
bekliyor
edece
##taj
öne
ana
protesto
##tığını
##ült
kullanı
takdirde
hâlâ
zar
##sti
Fran
##landa
konulu
Karad
##otan
yaşayan
mümkün
böl
Kat
özellikle
Merkezi
Ün
##etrol
men
Cumartesi
kanı
sahibi
yanlı
festiv
##tih
hükümetinin
öldür
##otansiy
politik
##ovanoviç
##üle
inanıyor
Kürt
hukuk
alacak
##ğin
ülkelerinin
özelleştir
Mi
tekrar
##liğin
Haber
lik
##lanacak
sanat
tat
henüz
##eme
##irken
euro
konfer
kentinde
Temsil
Amer
##ni
Mahkemesi
##cüsü
##leyen
ölç
##yas
##atış
sok
yılı
##ileştir
##lin
demokrat
##ram
##ani
bölüm
duyurdu
##okrasi
nasıl
##teki
yüksel
kür
Pet
çalışıyor
tarihi
yayınlanan
Dairesi
##mal
##lıca
potansiy
##unica
görülüyor
Kostunica
##eviz
kararlı
2010
veren
devr
em
Gaz
##uldu
tör
##ılmasını
Yor
Komisyon
açıdan
iler
mad
tab
başlarında
eğ
kala
karşıya
The
##eran
##dışı
dil
türlü
geliyor
Rehn
##daş
##luyor
##atör
##abilir
Anlaşması
maaş
din
güçlendir
sonuna
Savunma
eyalet
çerçev
olduğuna
##ziç
çağr
##abet
parç
diyal
##gen
##iyon
izin
AG
##tosu
etkinlik
##acağını
##lıklı
haline
Savaş
benzer
bölün
##vur
Barış
yıldır
##tegr
sağlayacak
milletvekil
Sekret
##yesi
tehlik
Seç
##fes
##laya
anlaşması
teklif
altına
pay
##isine
suçu
##sul
süren
##92
edilmesi
kır
bilgi
##eder
bölgede
Macar
ner
##İT
##elerine
sorunun
pat
##erandu
Bur
rej
yetkilileri
##tu
##ucu
verilen
mevkidaşı
##gın
El
iti
Do
##ite
toprak
##lanmış
##elere
Ünivers
Müs
Orta
ifad
İtalya
iyileştir
Hol
süreci
B92
Avustur
anket
##malar
##türü
BB
İnternet
Rapor
çeşitli
ıs
ülkeden
ettiğini
İttifak
##ati
burada
hap
##manı
sorunu
öncelik
Kor
koşul
Su
Af
tasar
Müslüm
##isk
milli
dağı
KFOR
##yse
##nek
##sizlik
31
Tur
üyeleri
sonuc
uç
AGİT
ila
Birliği
doğrudan
ötürü
##tiş
gerçekleşen
eki
güney
ilişkileri
hızlandır
40
dönemde
Rece
güm
kas
##cel
kapas
pu
##yası
seçmen
koruma
##tere
se
Geçen
Sorumlu
bl
Recep
Hak
##cağına
Lu
borç
Ad
##met
##endi
demokratik
##las
Roman
dolar
1995
piyas
tutum
küresel
vergi
parçası
etmesi
##yap
Adalet
yapma
ediliyor
başvur
İslam
petrol
##gaz
##lığa
Ortaklık
Der
partisi
İngiltere
medya
Müslüman
beri
komşu
rakam
sürdü
azalt
list
dayan
konuştu
istem
memnuniyet
##iter
böyle
ortam
oranında
##acağı
##NA
##ısını
##su
##KK
verme
Büyükelç
##EX
kaybet
Ho
##list
kab
bütç
İnsan
##arında
##ington
bölgedeki
partiler
Nikola
##tisa
##ber
ala
##urt
potansiyel
Et
kez
##ost
olmasına
Tel
##onya
##duğunu
##çiler
##mekle
Diğer
etmeye
2003
aşırı
uygulan
net
##and
suçlama
sözcüsü
##ron
yapıyor
giriş
GS
Wash
başlıca
Washington
Bunun
##for
önceki
ür
##larımız
referandu
##tisaari
##isinde
ert
dışişleri
hakkındaki
ihtiyaç
Ahtisaari
##ska
##eci
bağlantı
AKP
PKK
##güne
Zoran
##bileceği
ait
##je
Sırplar
##lığın
yasal
durumu
fon
cumhurbaşkanı
mik
##jansı
nerede
Ste
##lis
başına
başarılı
##may
##matik
Ordu
hala
toplantısında
kanıt
şar
##sıt
kişinin
çevr
New
##itab
istif
kapat
Bun
##LEX
sağlamak
cin
##of
alındı
Kurulu
oldukça
EULEX
##cat
çatış
sosyal
statüsü
Dah
Müz
##ladığını
dışında
zarar
##miyor
##mesinden
olmayan
bütçe
##adal
BBC
##anu
##ırken
üzerindeki
Avrupalı
ederek
bilim
Ch
tören
entegr
##tör
Dra
şirketi
altyap
Dim
Sekreteri
De
##elerde
anayasa
##ebilir
aralarında
memur
##tedir
##kek
##çılı
araştırma
##asıyla
telef
##evizyon
yılından
katılan
geçiş
okul
Meclis
sözlerinde
anlamına
##can
##İH
##ilmesini
On
##vg
##ısının
yanıt
çağrısında
yedi
tahmin
buna
per
sol
##cret
oyna
merkezi
gerektiği
statü
yolsuzlukla
önünde
##ale
ac
##hai
yarar
üçüncü
erken
bunların
Tek
##hal
sahipliği
Vuk
misyon
sağlama
sekiz
##tiği
ülkeye
##ader
Bilim
Mali
konusundaki
##ükle
yapacak
almak
##erkes
uzak
vurguladı
Oy
##mıyor
##dılar
göç
temsilciler
sayısı
adet
yeterli
çiz
##nan
##çisi
kuvvet
sonraki
Festivali
Georgi
500
sözü
İstikrar
##ly
##osyalist
madal
vize
Ayrı
rekabet
Film
##fi
uzlaşma
satış
##rük
##larca
heyet
muh
la
verildi
teknolo
##stit
gec
yılki
##lüğü
ikili
##ılma
önde
hakları
ücret
Seçim
Üniversitesi
konum
##aya
##ıyla
##eceğine
başken
karşılaş
uyarı
##esindeki
yüzden
bakanlığı
Rumen
yorum
##lit
işlet
liderleri
##dikleri
yine
geçmiş
Nov
##şık
1999
biç
öğret
otur
kamuoy
pers
Basescu
defa
kork
rejim
dizi
umu
##jik
soruşturma
Özel
Ben
inan
halkı
diye
##landığı
##işa
##erken
##medi
ölüm
##ulan
##umuz
İngiliz
Tra
olanak
kuruluşu
sak
Sanader
karış
seçimleri
serg
##üb
sürüyor
çıktı
##vik
belli
tamamen
GSY
Bazı
Gül
Uz
lar
##ülüyor
puan
civ
##ğinde
bulunduğu
bakış
Berişa
dir
##acı
##aman
verg
yardımcısı
komutan
Tay
işbirliğini
reformları
##ılmasına
Örgüt
GSYİH
Siyas
yoğun
day
dünyanın
Ayrıca
ülkeyi
cumhurbaşkanlığı
giderek
İçişleri
Stan
planlıyor
nden
##yal
##neği
yüküm
çif
çap
##istik
eksik
İsv
belediye
##mel
yapılması
Polis
##iliği
halkının
bar
bah
Anay
olsa
bilin
Vla
Gru
Yetkil
##sen
sürekli
kriter
Sosyal
yılına
##meden
söyley
anayas
çağrıda
atı
istih
##ehir
##ia
##ene
teknik
ihla
##kiler
##ela
teşvik
Ka
del
##tor
yetkililerin
##ükleer
harca
çoğunluk
Mos
Pon
yara
oranı
sağlaya
ağır
görüyor
ettiler
olmadığı
üretim
Sosyalist
Geniş
Parlamentosu
##dak
##wn
halkın
yoluyla
ilerlet
Jos
boru
DPA
avroya
Atlan
Miloseviç
sanda
##cisi
yaşan
Si
Tr
##DP
olabilir
müzakerelerin
##ou
turist
nokta
Karadziç
ülkesi
özgürlü
fırsat
Kuzey
##yip
ısrar
of
Yer
proje
ürün
konferans
Den
Doğu
Kalk
başında
##lardır
##ımız
nihai
birbir
Enstit
tük
güc
erkek
özgür
Yak
herkes
##sav
kav
##ülmesi
Pek
##TK
kayıt
öncesinde
korun
Ekonomi
man
##vo
Ash
##ian
aylık
süreç
müzakere
mecli
profes
adayı
televizyon
##idir
##ampiyon
kapasit
memnuniyetle
Fin
Grub
belirlen
büyüme
ihracat
övg
söylediler
davet
neredeyse
Atlantik
sistemi
analist
anlaşmanın
##tral
festival
tanım
mens
SA
pak
yapmak
yasadışı
Amerik
yılda
##oğraf
sırada
##enica
düşür
belediy
60
Ol
Sp
savun
mesaj
isteyen
35
Dav
##sun
##ök
##hat
Ab
giz
miktar
zaf
yetkili
ölçüde
Kalkınma
Cin
savcı
toplumun
hep
##layarak
referandum
madalya
Üyesi
##latı
açıkla
met
kampanya
risk
adalet
kaçakçılı
Hollanda
Gruevski
itir
tesis
içer
##lıklar
##düğünü
1990
Jovanoviç
##ayi
adı
##ke
##co
##abrik
sürecinin
hemen
düzenlediği
Genişleme
##kır
##uşturucu
fikir
saf
güvence
biçim
Os
ndan
##iri
##ünkü
##utbol
##şiv
Gel
##go
birleştir
##tılar
2002
don
bugüne
Enstitüsü
birinci
##teş
müda
ediyorlar
desteği
Tayyip
##ekten
Demokratik
##yo
Jo
hav
mak
##lilik
##oğlu
##eza
Kan
Rat
##yu
##ansı
##dern
##ij
##uh
##üny
Avusturya
Ponte
mağ
gelenek
koru
nükleer
##ard
##deniz
##esiç
##iyorlar
kendiler
##kiç
gösteren
yurt
##erin
##ilmesine
liderliğ
gümrük
şef
saygı
kaldı
sorunları
##rail
giden
emekli
Şu
##langı
kons
eşit
es
İvan
##ütün
kapı
görevi
İsrail
olumsuz
##sur
##ulması
verecek
##ekom
araç
##lığında
##tem
seçimler
tartışma
hapis
##ert
itibar
altın
zira
olup
İsp
Sre
danış
çünkü
bakanı
doğalgaz
##layacak
paylaş
kız
ortadan
milliyet
yükümlül
Tic
##iniz
2001
köy
##dikal
##maktadır
civarında
Srebr
fay
sab
İlk
inşaat
suçlu
Daha
Halk
ihtiyacı
##alt
##eydi
Sırpların
Boş
##otov
Ajansı
Yol
vad
açılı
nokt
santral
Pop
Voj
##lasyon
vermek
##mez
alanında
mahkeme
kendisini
müdürü
İran
aktar
Üç
##ılan
##him
##lıkları
##mediğini
bildirildi
##leti
Başkan
Se
##urg
unsur
Yap
yoksul
person
Yerel
##arılan
2011
mar
##ikat
indir
yasak
altyapı
Boşnak
Kes
Tom
##yız
bugün
sürecini
fayda
##ekan
düşüş
modern
Yetkililer
Ro
onun
dokuz
Öte
yav
gösterdi
Has
Ratko
Mo
bit
insanların
Maliye
Slo
fabrik
bağış
kasab
entegrasyon
##emen
raporda
yavaş
hızlı
##unları
gözlem
üyeliğine
Feder
##yahat
günlerde
ticari
firma
kural
Macaristan
mensup
##dis
sert
söyleyerek
ihlal
Bağ
dar
Suç
Araştırma
beklenen
yatırımcı
bildirdi
Görüş
Büyükelçisi
Ceza
Gotov
bom
##kova
##ınca
uyuşturucu
hattı
Pod
##eta
##tiğini
kısm
##jana
söylüyorlar
Ülke
Ali
##ula
##emez
Gotovina
000
##üst
Fon
##ilerinin
teşkil
Yıl
tepki
mut
ayak
Fat
Mitr
Pol
yapmaya
taşıyor
##ormu
##cağız
kalma
##forman
emin
soy
yaptıkları
bölgenin
onayladı
kültürel
milletvekili
##ydı
yanlısı
Ticaret
##ilerini
alınan
##ürlüğe
And
Anton
##dış
Sur
gez
mült
edilmiş
görevli
Libya
re
##ıldığı
##usunda
üstlen
teşki
##lev
verim
veriyor
##itap
anlaşmaya
##abilecek
Ma
yık
##dam
##isti
##oks
verdiler
##liğinin
vadeli
Lj
uyardı
solda
ateş
##lardaki
kaz
açıldı
üzerinden
yakında
ilgilen
sonucu
olasılıkla
performan
##deler
kurtar
sorunlar
kurulması
Vojislav
##emey
Mesiç
Tari
Beledi
##tikr
Solana
planı
tarım
kısıt
Arşiv
##down
##tal
komün
yürürlüğe
alış
liderliğindeki
Slobo
##isyonu
##masi
büyükelç
demokrasi
işbirliğinin
pop
çar
önlem
uygulanması
Rama
dek
Çin
##ich
1992
yazar
##ier
Ashdown
Ter
gr
Fransız
temas
görüşme
Dimitr
çift
Slobodan
futbol
##yi
birleş
artan
seyahat
sunu
müzakereleri
Day
##bay
##ersiz
istikr
başkent
Cinciç
odak
sar
##ğinin
##mektedir
reddetti
##veriş
Ver
il
mı
##ck
konuda
sundu
sonucunda
şarkı
maliyet
oyuncu
Gazet
Bay
Biz
##yıl
198
hes
##sını
bulunma
Yine
mi
som
##cusu
oluyor
dini
söylen
diyalog
can
şans
suçla
bizim
acil
Yön
##dra
##eg
etkili
arası
lim
olduklarını
Srebrenica
rö
gündem
##muştu
mahkemesi
yürütülen
Jan
Mol
Pa
inş
gergin
soru
tarihli
başlangı
##emin
yetk
elçisi
planlanan
sanatçı
300
##fik
durdur
alınması
edeceğini
##ildiği
kurban
##ayıf
arka
##unuz
##mayacak
binlerce
Hareket
##alan
enf
somut
sanı
incel
##ilip
##isay
##üldü
2000
tarihleri
silahlı
baz
##ele
kampan
Diplo
oluşturuyor
katılma
Papand
##diyor
bakanları
Aynı
Geçtiğimiz
diplomat
Şimdi
##liam
stratejik
çerçevesinde
zafer
zayıf
##taki
oyn
adam
##portaj
hasta
iade
##kov
##rist
karşılıklı
hakkı
##ern
##iydi
##umu
imzaladı
grubu
Bran
ses
öt
##âr
##evi
onu
mekan
##anam
katkıda
##ih
hakim
denetim
kararını
olmakla
komisyon
Podgor
Din
##sh
##ES
##ura
ayrıntı
yükümlülük
Oh
Çalı
##lanmasına
müdahale
anlaşmayı
##otoğraf
Etkin
##üler
##steri
sorumluluk
kilom
gazetecilere
telefon
gecik
yerini
polisi
reformu
yurtdış
Kam
önüne
günde
yarı
bundan
Papandre
##yonel
ünivers
Ordusu
SAA
röportaj
yin
##ileş
##esiz
##lenmesi
geçici
programı
açılış
DS
##ulos
haberlerinde
General
statüs
kurma
seçimlerin
tedbirler
yerli
gücü
Kad
Mic
STK
##landığını
olmadı
Ülkenin
hayata
İtalyan
övgüde
70
Haf
işsizlik
##bilmek
partinin
Derneği
ayın
açıkça
Enerji
Anayasa
cep
##atistik
alması
##oliç
istifa
##DS
işlem
kurulan
gizli
liderler
boz
çab
##son
yüzyıl
temiz
Zagrep
kilit
kaydedilen
Dur
bay
nak
ettik
kendisine
viz
##imser
##edür
yönetimi
sonuçlar
komutanı
Kesimi
Ödül
##gemen
##mediği
başkanlık
nitelendirdi
Çalış
denet
##neğin
Grubu
Tar
gelecekte
Car
##ider
lis
çoğ
Luka
şehir
##dön
oranda
partisinin
Müdürü
##rken
##ullah
olmasını
##elerinde
görülen
alanda
koor
Olli
Tan
Çek
tarihte
örnek
York
Sto
##rven
##inc
##sıyla
buluna
insanlar
Man
##ıldığını
##lusu
müzakerelerinin
raporunda
başarısız
pros
##ısına
tatil
Medi
##io
##eledi
##elerinden
Dodik
Podgorica
##ayın
uygulamaya
üstün
Program
Siyasi
sef
taz
İz
yönde
durumun
sanayi
gözden
bilgisay
Dayton
aley
nor
not
##olog
edilecek
iktidardaki
##dönüm
prosedür
ces
kol
##faf
##ovica
##aliz
Proj
kesinlikle
özelleştirme
cinayet
No
yılındaki
sürecinde
başlattı
mez
terk
##lete
##lanmasını
##üzel
yayınladığı
##luğun
genişlet
Bütün
olmadan
ortalama
aleyh
Mari
Ref
Festival
##fan
belirtiyor
olacaktır
Bo
yıldan
kenti
sey
Şirket
##tının
birim
raki
##klarını
kalacak
verilecek
##ovac
Analist
devletin
bölünmüş
Raporda
Vu
atan
##eden
söyleyen
##emek
bağımsızlığını
Radovan
Sim
##DA
sektörü
profesyonel
Papandreu
Annan
duruş
Seydi
##doks
yıldönüm
geleceği
belirtildi
Orto
reformların
##rvenkovski
Seydiu
Ivan
##iu
##ıyorlar
durumunda
imzalanan
Ortodoks
##res
artı
##ruf
sit
##sin
gere
olacağı
konuşmasında
adımlar
hastan
diplomatik
temsilcileri
Mecli
şik
##ukan
kayn
konser
Banja
makamları
Belediye
La
yat
##ğın
##lacağını
##lum
##laştırma
Arnavutlar
gitti
Mark
kir
##cının
toplantıda
Genişlemeden
##dek
##ons
mülk
##luğunu
Afgan
Federasyonu
dö
hoş
kend
iste
belirten
##lığından
Anlaşma
Sali
egemen
##ediler
sözleri
seçimlerde
derin
Plan
karma
##mayacağını
Dragan
içindeki
endişe
kuş
yani
İspanya
##dy
##effer
deney
sisteminin
piyasa
rah
##asından
çabalarını
kaçakçılığı
cumhuriyet
Scheffer
temsilcisi
##uda
##tım
##cılığı
yaygın
başkanlığını
çevre
##lında
##ğının
##ham
##atif
##masıyla
##cih
getirmek
Hoop
Amerikan
ihale
oyla
##ıda
deniz
Stefan
Dn
eser
##eliç
##iyede
gerçekten
Karar
itiraz
##dük
##pe
##ora
örgütü
##memiş
görünüyor
idari
Abd
Tomislav
vak
geleceğ
iyileş
zamandır
imzaladılar
reddet
arz
uyarınca
80
##jiç
ziyareti
kurumları
Dnev
##ort
oylama
kısmı
hayatını
itha
umuyor
Uzman
##kırım
##ıya
sayesinde
hitab
##omo
oldukları
gösteri
başlayan
tercih
çalışmaları
eğil
Kup
##ktan
ilişkilerin
getiren
çabaları
kapsamlı
öngörülüyor
hitaben
Lider
ima
mekt
ruh
##miştir
sorum
ilgi
##oloji
üretic
istediğini
personel
bilgisayar
##SD
##onal
tanık
dağ
##ilerine
alına
katılmak
tutuklama
Moskova
Yatırım
##tur
##ga
yapım
##iyatro
mesl
Abdullah
gem
yük
şah
biraz
başsav
aldığını
kaygı
yolsuz
sürecine
##bilmesi
##ecektir
Birliğe
toplumsal
Dan
Sağ
Yas
binden
##engin
birisi
almaya
göreve
dışı
reformlar
imzalandı
Sanat
tüket
Suriye
45
traf
##ala
Birlik
kalkınma
Mold
Petr
##enek
savunuyor
olasılığı
ata
##burg
artırma
yıllarda
uğr
sokak
görüştü
vardı
partileri
korum
CE
Jer
##syonu
etmeyi
Bugün
paket
Med
bec
niyet
sin
##OA
zamanı
ziyarette
150
Yetkili
##ovska
kaydet
taraflı
partilerin
taleb
bür
götür
Komitesi
Milan
dolarlık
Kal
Sür
şirketin
Diplomasi
Oper
##kın
##gara
##dimir
##rali
##ukat
##mesiyle
##diklerini
dolaş
Ekonomik
Osman
400
Uy
##meni
##madan
##emesi
##kadem
bölgesinde
kazanan
Banka
Afganistan
mücadelede
müzakerelerini
##ektörü
Kil
mer
suik
başlayacak
yönetmen
projenin
##meyeceğini
biçimde
yapacağı
##sta
##zerk
kullanım
yükselt
Te
##fett
sağda
##afa
belirtiliyor
mahkemesiyle
Nikoliç
ekip
sefer
karmaşık
##ılmasının
geldiler
ayır
enflasyon
ip
##arken
etki
geldiğini
bölgesi
değişim
dolu
##ebek
##uar
##biliyor
sahn
##mıştır
vatandaşların
##meyen
##atörü
mir
güçlük
projesi
değişiklikler
çarp
İgor
##meli
yanında
parça
Genç
Moldova
Res
ders
sem
##kul
##riyat
##vi
katliam
yasanın
Alek
Fatmir
VOA
maç
pas
##TA
kararın
adil
bazıları
Bat
Gir
zengin
##ste
sağlam
Belg
Demokrasi
hayal
Adriyat
kabin
##lerimiz
getiriyor
Adriyatik
Aç
İk
##ray
##inda
##ayolu
##lüğ
sayısının
gerçekleşecek
##abileceğini
##çok
buldu
onları
arab
görüşmek
öldürül
Hakları
geleneksel
Eğitim
meş
verdiğini
toplantısı
çatışma
90
Zrvenkovski
içişleri
iyimser
##ahkum
hazırlık
Alt
katılımcı
benim
öğrenc
teşkilat
hesap
Goran
kalı
Karadağlı
##çılık
şartları
Rob
gar
dayalı
##tiç
doktor
Hafta
Sr
sını
##eva
gazetesinin
yıla
Vladimir
Mitrovica
Ci
Kö
Sam
##siç
##ud
##maması
##elt
uygulanan
haberlere
sıkı
Telekom
röportajda
##iry
üyelerinin
kıyas
eyaletin
Örgütü
soykırım
Hrist
##SA
##FE
##antaj
##aku
##elj
ayrım
heyeti
uğra
hukukun
alışveriş
Haş
##ğan
##ovo
sürecin
hedefi
##olojik
bank
çoğunluğu
ifadesi
Bi
Pan
hüküm
ülkelere
kişiler
liman
gay
ulus
##labilir
verilmesi
başlatı
özerk
##iyana
geçerli
ülkelerine
dünyası
##barat
madd
Meclisi
Hay
Mat
##pek
kalit
sergi
iddianam
##memesi
kolaylaştır
olursa
milliyetçi
Viyana
han
ra
durumdaki
gazetesine
sonuçları
Karaman
Ohri
Pat
Tas
mah
şeyi
sağladı
gelişmeler
hatta
terörist
krizin
##berg
danışman
Karamanlis
Çok
##eciler
kişilerin
2012
Mahkeme
Jerem
becer
55
Tüm
##DK
olsun
##üllü
hafif
tasarruf
##ısındaki
uzlaş
takımı
düzeyde
uyarıda
komünist
istikrarı
döv
Haşim
##sine
ederken
yansı
Konsey
göçmen
kara
mahkum
yetersiz
1991
İşbir
##ukanoviç
Nat
Po
sen
##ğinden
##ult
görüşün
haberlerde
rolü
İsviç
Polonya
Cumhurbaşkan
kış
##bet
##pit
süredir
sergil
bunları
düşünüyorum
ertelen
şikayet
Şampiyon
Temsilci
mekaniz
Jeremiç
Du
ham
##ocu
haberine
taşıma
##tişim
kurtarma
Az
Bak
Yasa
gide
##tin
dey
sağlayan
yakınlarındaki
kilis
RFE
müt
##ish
##ilmesinin
düştü
görevdeki
güvenli
etmekle
Bek
Del
RL
##gesi
##orad
##ediyor
politikası
popüler
erişim
dolayı
çevir
Oyun
Dnevnik
Sh
eğit
vaz
##nuv
##bah
geril
duyduğu
ikna
##aciç
##rk
##madığı
yıllardır
yolcu
derecede
firması
HD
Spor
Val
görmek
##lamaları
yaşıyor
Konfer
##roso
Muhale
Barroso
Bunlar
Em
Lon
Sti
Uk
dak
hatır
mas
sine
çök
##raj
edin
##leyecek
görüşmelerde
PA
SFOR
aile
veril
gerekse
altını
demokras
uygula
Katılım
başlangıç
##madığını
komut
dağıt
Kamu
##bon
##RO
verici
sürece
##liğine
1998
döneminde
ünlü
fikr
Ukray
Laj
##dıkları
başa
kurumsal
sigara
etkilen
FT
Li
metr
##geç
##izasyon
##rag
yapmayı
seçimlerinde
artırmak
itibaren
Noel
rahat
korumak
ber
##lanmasının
edile
sözleş
adına
taşıyan
##eceğiz
Teknolo
sandaly
korunması
##RD
vermeye
yaklaşım
redde
dönüştür
##ülebilir
öğretim
noktası
Kupası
Kilis
Dr
önlemek
##eşil
güvenliği
istikrarlı
Ahmet
özgürlük
Gö
##isel
görevden
girdi
askıya
Bakanlar
çekti
bildiriliyor
##ehri
ulaştı
##luğa
Ljub
performans
normal
deneyim
Cor
EB
Gor
##CO
##isinden
##maktan
sürecek
başlaması
tespit
nüfusun
##layıcı
Yolsuzluk
##fetteki
görüşündeler
Mon
bize
km
##lye
##larken
##ess
konuşma
##melerini
Milorad
yanlış
##üstü
##alık
##tefik
bloğun
özgürlüğü
##lardı
altındaki
bina
Jav
Pak
bunlar
boyko
Toplantı
Rady
tec
##ekk
##emiz
elinde
tedbirleri
Turizm
Traian
İsveç
Jap
Sa
##sas
##ner
siyasiler
##oyu
##uc
yaptır
yapıldı
ülkelerde
zorlu
düzenlendi
Yorgo
eğlen
milletvekilleri
##mar
arke
sonlarında
hazırlanan
resmen
kimlik
teknoloj
Paul
##egor
karşıladı
##mesinde
önceden
yetkililerle
uzmanlar
Görev
tanınmış
teknoloji
sorumlusu
##bra
##zı
etmiş
katılıyor
düzenledi
öğrenci
Özg
fak
kitap
##aten
##acan
köpr
##abileceği
Bayram
Buna
##ıcı
##ebilecek
##ena
başlama
kategor
George
vazgeç
cam
öden
##kur
##les
##leniyor
##ceanu
asla
anlaşmazlık
tehlikeye
oturum
kamuoyu
arkadaş
HI
dost
çocu
Anket
geçti
Birliğin
bakanlık
bekleyen
kaydedildi
Hava
Kab
vaat
çet
vermesi
Bush
gerektir
müzik
ikisi
Bağımsız
fotoğraf
##lili
kayıp
sağlanması
sonrası
mahkemenin
açılan
seviyede
##dıklarını
girişimi
açtığı
görüşmede
aldılar
doğruladı
gerçekleştirilen
şunları
##haf
kurdu
##kanda
kişilik
Örneğin
gıda
İst
##jans
general
yetkilisi
terörle
filmi
şeffaf
##ilir
yapması
ülkelerden
sorunların
muam
Parvan
Gür
##NE
birçok
##urken
##utin
olağan
anlaşmasının
Branko
koordin
ithalat
##PA
sağlıyor
bulundular
derhal
öğrenciler
işbirliğine
Afrik
HDZ
birinin
yöntem
hükümete
onlara
##melerine
gazetesi
Strat
laik
bahs
Lajcak
ira
tip
##hi
kullanma
gözalt
dörd
harekete
yaşadığı
kalkın
uçak
sakin
Parvanov
Co
rest
##gü
##liç
##aştır
##ayla
değin
uzat
sandık
gelecekteki
Hükümetin
gazeteci
koalisyonu
Tariceanu
zaten
Öğ
##sak
##arda
##dığına
sorgu
mahkemeye
istiyoruz
tavs
Antonio
Meh
boş
İliş
##ema
##iyan
doğr
davran
köken
Aleksan
Sonu
##sızlık
katılacak
Radiç
harcama
Mev
iletişim
suçlanan
Belç
yayınladı
sektöründe
Akdeniz
kıyasla
##uki
##ğa
##va
##lacağı
İçin
Kuvvet
Linda
ister
mük
olanağı
##cular
yardımı
merkezinde
##server
Amerika
EBRD
32
üz
güzel
##erj
geldiği
gelişim
işada
alanlarda
kişisel
derec
akt
düzenlenecek
Liberal
sınıf
Doğ
alarak
büny
num
##şe
##niyet
##ceviç
##ğından
kalıyor
çalışmaya
istek
görevini
öncesi
İsviçre
Bab
Ras
##ckovski
##ince
##diya
##lılar
işsiz
kaçır
##distan
basında
nı
##anoviç
çıkma
kaçın
bildiride
dikkate
Josip
Nor
adan
lık
şansı
##SO
süresi
##ersen
seçildi
getirilmesi
avukat
##leştirme
müzakerelerine
grubun
eğilim
75
Vas
oto
##süz
##led
müdür
kök
##mızı
tasarı
Karadaku
boykot
##IC
##etiyle
krizi
teşekk
otomo
açıklamasında
kendilerini
bomba
garan
36
caz
ters
##sunuz
##AD
##NN
yılının
belirsiz
başlaya
ortaklık
standartlarına
Burada
istihdam
arabulu
İvo
##engen
##oyol
seçimlere
edip
sunduğu
bölümü
##ational
radikal
Londra
pah
ton
##vans
##etre
##iyorum
##observer
Açık
Ukrayna
Sonuç
Blo
Beta
konuyla
tarafı
kıyı
çaplı
##elaket
kaynağı
65
Boz
##sının
##kel
##cilik
##one
##lic
yılları
##lenmiş
bulma
bulmak
belirgin
raporu
genişleme
Slovak
Düny
Fu
şampiyon
##imar
olmalı
kimse
iptal
biy
İyi
##lamış
karşıtı
fazlası
toplumu
müzakerelere
başkanlığı
engelle
final
Schengen
üyeliğinin
kırık
mektup
##çilerin
##ws
##unlu
##deş
ayındaki
Karadeniz
Komutan
Robert
aşa
maden
Mücadel
kanal
Dünyasında
Ziyaret
##eji
birliği
##ılmaz
Euro
refah
haberlerine
otel
öngören
Yaklaş
pasapor
İşbirliği
Özgür
Ask
İdar
##satı
##bikat
197
Radikal
sandalye
Sağlık
lük
tali
altern
vatandaşları
gider
Georgiev
İktidar
Stipe
alternatif
YT
çeşit
##eceğimiz
##lerindeki
kendisi
faiz
şeklindeki
ertel
Değ
başsavcısı
Dj
sim
##ii
##elerek
sözlerini
onların
kaydettiği
##layıp
devral
Fa
felaket
ırk
##maye
##iyoruz
karşılığında
yasayı
üçte
##melerin
şartlar
artırılması
düny
##malıdır
kullanılacak
Uzmanlar
Javier
Forum
Svet
##üyle
işle
bulunu
getirme
sayım
nitelik
koydu
kilometre
cesaret
Mor
üs
##udi
##mayan
yapa
tarihinde
tepk
Osmanlı
SDS
ışık
##tos
##lıklarını
olduğundan
##mekten
Buckovski
##usiç
halka
kurumlarının
##meyecek
mesele
içeren
bazda
misyonu
nün
##tel
##lerken
kurmak
alanlarında
insanları
cezası
Toplum
beklediğini
finansman
eğlence
Ale
Bundan
Nehri
Zaman
ark
aranan
yıldı
erdi
##leyici
çabalarına
çözüme
nüfuz
başbakanı
##endika
Novi
Ramazan
gerginlik
34
Merk
araştır
uyum
##muyor
duyulan
Be
skanda
önünü
##okol
seçenek
suçladı
yüzlerce
sırasıyla
zorluk
atılmış
##uvar
Yargı
benz
seçmenlerin
Var
ora
##lanik
açan
##lamada
tarafın
görüşmesi
ortasında
nedeni
tamamlanması
tartışmalı
görüşmelerin
idare
Selanik
temaslarda
Etkinlik
Bla
Zir
##ice
ekonominin
kazandır
çözül
yasaları
Talat
başlatma
model
Ivo
yu
##ere
uyumlu
bölgeye
çalışması
ortada
bulunduğunu
Martti
muhab
grev
33
Jes
bat
ekliyor
Birleş
Paris
dönemi
polisin
##tonun
programına
uğraş
Ag
##müyor
##che
belge
çapında
Radyosu
##kurmay
Afrika
Konu
Kamp
Sal
keş
çal
##ğim
##lendi
gerekir
sağlamaya
genelinde
katıldığı
ödülü
kabine
telefonu
mensuplarına
sanık
Pas
##adaki
##aşa
##eyn
devleti
olabileceğini
destekleyen
edilemez
kims
Petersen
##general
metre
müttefik
Davut
Yaz
dol
##vica
##ınıyor
önündeki
katılması
çıkıyor
120
sıkıntı
Kostas
asıl
alındığında
bilinen
canlandır
Rug
Voy
yum
Çocuk
##itik
##lup
##azak
haklarını
düzenleme
ekonomisi
Organ
tutuklandı
Intern
Serg
istihbarat
doğrult
Di
yeşil
##ğiyle
##eyin
##eyecek
etmesine
##evre
almayı
##cağından
kritik
güçleri
değildir
tavır
yenil
otomobil
Le
ndeki
sp
tiyatro
##enler
aylarda
yerleştir
BHF
istatistik
demiry
maruz
rakip
Jessen
Sad
##ku
##eku
depr
##ilerek
etmesini
##araj
##evo
yerleş
##lamayı
##uzur
##ektaş
yönetic
nüfusunun
be
##ase
##lım
dalg
##işimi
ini
yolundaki
olmayı
redded
ayrıntılı
suikast
mün
##her
##IA
##yaz
##kanın
teda
destekliyor
otoyol
duyuruda
makamlarının
inanıyorum
blok
Silah
Ama
Ja
SP
##HP
##eleriyle
##edik
düzenli
çağdaş
kurumlar
Bölge
Finlan
Mer
Must
##demi
##lanarak
##str
##opulos
süreyle
olduğumuz
gerekç
##ediğini
avantaj
deng
farkında
Hasani
Analistler
Rugova
International
Pav
mayın
inanı
##opo
gösterdiği
kaldırılması
Avusturyalı
kısmını
Grup
##çileri
birini
sayısını
##imizin
sürdürüyor
Asya
çağrısı
rekor
Müzaker
alınacak
döviz
Davutoğlu
verilere
##ısal
sözde
isten
##eliği
planını
imkan
sürdürülebilir
olmayacak
yineledi
doğrultusunda
Trans
Çağ
##MRO
anlaşmasını
serv
duyuyor
sıcak
etkisi
Müzesi
Reform
Belçika
Alex
Merkel
600
Bunu
suna
tren
##iner
##ori
##dian
enerj
elekt
zorunlu
mahkemesinin
turnuv
şartı
öğretmen
safh
Stojan
aktarılan
Mücadele
Cukanoviç
Met
kâr
rad
##iki
##oğa
kayde
##apo
ülkelerinde
Parlamento
acı
ku
##kırı
gördü
etraf
Avro
çıkarı
bulunarak
görüşünde
planlarını
aktif
Hristof
Teknoloji
Am
Div
GDA
Tuna
huzur
müş
işe
işlenen
bulunması
katılmaya
dairesi
destekley
hasar
yenilen
şimdiye
mülteci
metrek
pasaport
PSD
VMRO
İkinci
##altı
etmişti
kurt
yapıcı
planlanıyor
harek
sant
açığı
250
faaliyetleri
News
Kanada
inşası
imaj
YTD
Blic
Şim
##ebileceğini
##balı
##gh
verilm
suçlanıyor
Yeniden
kaybetti
Hara
birara
##ruk
sahne
##ildiğini
##imizi
liderlerinin
adli
üyeliğini
edilmesini
karışık
anayasal
Resmi
Batılı
Belgede
##elerle
##tacak
##idro
araba
gösterdiğini
olmaları
hedefine
çıkardı
Borisov
şüpheli
Sen
Üy
antik
arama
güvenilir
davr
izle
çalışmalarını
kuruldu
Nikol
ekib
Josipoviç
##dunun
##elerden
sonbah
analiz
konular
##ülü
##lamaz
Berlin
fırsatı
ihraç
Drag
dördüncü
37
Luk
af
karşılamak
ediyoruz
katılımı
çekiyor
hizmetleri
Miroslav
analistler
kısıtlama
arabulucu
diz
gur
leh
##oyan
##TC
##zi
gördüğü
unut
Sofia
Temsilciler
neler
##zu
konut
hazırladığı
kentindeki
Bildir
hukuki
havaalan
Micha
Yaklaşık
800
bizi
İr
##lının
##red
##hu
##ano
gören
Ana
bakanlığının
izleme
bağımsızlığı
Hükümeti
edildiği
dokun
sekret
Air
Mad
SDP
şaş
##orsiy
görevl
dışındaki
tamamladı
desteklemek
bankacılık
Savaşı
sorununun
İslamcı
üniversit
bulunacak
Kap
sel
##ğınma
yetki
sermaye
gelişme
festivali
euroluk
sabit
Dimitris
##ısır
çalıştı
herş
açıklamaya
gruplar
Bölgesel
verimli
Yönetim
Mevcut
kov
##EF
##ağa
liderlerin
yetkililere
şeyin
strateji
sorununa
Turk
##ronun
gece
##ral
##barı
##vod
konuk
ekonomisinin
doğum
Arap
##luğunun
eleştirdi
uzmanları
tavsiy
finanse
darbe
ötesi
Dinkiç
İlişkiler
Oda
Sel
Sınır
kitab
İl
ışı
##ebil
##ikay
##ulmaz
kararının
şirketler
vatandaşlarının
görüldü
Mostar
CNN
Sol
Vak
ajans
ler
oğ
ro
##MNE
##ammer
yaparak
##edel
sayısında
##lığındaki
kıy
kurulacak
kullanılan
Tray
şahıs
yaptırım
Finlandiya
Pad
TV
vade
##pl
##zy
aykırı
##ımlı
işleri
yaşında
kurumların
Proje
DPMNE
şüphel
##entin
Muham
Muhalefet
Mal
geleceğini
olduğunda
kazandığı
olayları
##prom
standartları
direktörü
yoksulluk
Cumhurbaşkanlığı
Göz
bilm
sez
zan
##oiu
##ore
##oski
##omir
taraftar
belirli
duruma
olmaması
yargıç
oluşuyor
madde
Kadın
üreticisi
Slovakya
Van
gelerek
##elektrik
##onun
etmem
Kosor
uzmanı
alanındaki
zamanlar
izni
şirketleri
EUFOR
Gazprom
dondur
Laura
meslektaş
Gürc
Vel
ona
##mür
##yum
##pet
##illeri
meselesi
anlamda
##ronik
yükümlülüklerini
Şampiyonası
43
Ceku
Dör
bayan
balık
pr
tıp
zul
olmasının
##ayol
açacak
açılması
gerçe
sorunlara
izlen
kısmen
kentin
Hakk
Bunların
Carla
tavsiye
Gürcistan
Cen
Dras
Fi
Fil
Ha
##isyen
##arap
planladığını
kişiyi
derg
umutları
kötüye
safha
çarptır
Mehmet
Ev
KD
Ziv
usul
##düm
##ücü
başlıklı
olduğunun
dünyada
geliştirme
ihtilafı
dağıtım
muhtem
47
##aları
##risti
##any
##işev
toplandı
subay
yaptığını
onur
getirmesi
belirttiler
baskın
bütünleşme
şartlarını
gidiyor
tatbikat
çoğunlukla
kendilerine
Draskoviç
kam
##alel
##omberg
karak
sürede
yolda
##ilendir
bulunmak
sınırları
Komiseri
vatandaşlar
hassas
Olimpiyatları
Koruma
Markoviç
adanın
pahalı
İbra
şa
sınırlı
adını
sigor
Karşı
değişiklikleri
DSS
Zirv
Dani
uc
yapmış
gelmesi
olayı
##usunu
kaynakları
bununla
arttı
Jose
Split
yıldönümü
Stratej
Filip
Siz
şebek
##yl
##emiş
içine
##elikle
istis
kaps
üçlü
davası
Kıbrıslı
örgütün
Kurul
muhalefetteki
zirvesinde
itibarı
numara
Paddy
Bler
Yarış
masa
##no
##arik
##örü
##aban
almış
toplan
belirle
Karaciç
##log
olasılığını
üretimi
kadınların
Barb
Temsilcisi
##yasından
emniyet
Stanişev
Mediapo
Altın
##eljko
Mediapool
Beş
baraj
##bat
##ell
##emeye
olmuş
Milo
onaylanması
Profes
tanınan
bekliyoruz
dayanarak
PASO
KDV
38
Kay
kına
##ill
yapımı
yapılmış
##olos
##üşvet
mahkemesine
amaçlayan
##siyon
tehlikeli
sunulan
meşru
Bloomberg
PASOK
Bog
bal
algı
karşılık
yasası
davanın
genelde
##eceğinden
konumunda
kayıtlı
yurtdışında
Birleşik
deprem
Vo
sur
siz
##mini
##üğü
birimi
bulu
Anad
geride
yakınlarında
oranla
önerdi
alırken
Politika
şefi
vizesiz
Jaap
42
Gerek
Nab
Tah
##ılacak
##cra
##RS
dep
##ime
##amak
gerekçe
##ision
bağımlı
varlık
müzakerelerde
oranının
şimdiden
anlaşmazlığı
John
gündeme
üniversite
Haradin
biraraya
44
Lazar
Tat
yemek
##ysa
##ende
inin
vereceğini
veriliyor
avronun
görevine
paralel
##melere
hedefliyor
bakım
gerçekleştirdi
Yönet
Hareketi
kampanyası
tazmin
istediği
gözaltına
Anadolu
Mit
du
hikay
iad
Üst
##PI
##SK
##elle
yapısal
vererek
parlamentosu
eşi
##lanacağını
fiyatları
Japonya
Voyvod
Nast
ajansı
##sanı
##cil
##cıların
olmaz
kullanımı
##dikten
şirketlerin
vatandaşı
borc
tenis
parlamentos
##odor
istedik
cezalandır
hoşgör
46
Hat
SN
gali
hidro
idi
##lamanın
konuları
açıyor
getirdiği
kazanç
Taçi
düzeyinde
iddiaları
standartlarını
Müdür
saatlerde
ilaç
dayanan
entegrasyonu
Anayas
Bakoyan
olağanüstü
Nastase
48
Con
Lef
Str
Yüz
##sini
##siniz
##biyat
##ansta
##iyiz
işten
işlev
Başsav
önemini
hazırlanıyor
yapılandır
##layış
umduğunu
zanlısı
artması
sığınma
bağlantılı
rejiminin
kasabasında
Temas
Can
Mısır
##fı
işken
Ante
doğu
harit
çocuklar
Görüşmede
bünyesinde
Michael
giy
nes
ndaki
##tileri
##ho
##oni
##alin
kardeş
##idor
ziyaretinde
gerektiğine
sınırı
sektörünün
umutlarını
Büyükelçiliği
konsorsiy
artıyor
##ucco
am
nis
vet
##şek
##uli
##ph
##ındır
##lerdeki
önleme
vermiş
sürerek
açıklanan
getirdiler
kred
insanın
duydu
dönemine
Günlüğü
çalışmalarının
çocukların
seviyesinde
sebe
Cioc
dakika
CHP
Sadece
reh
tır
##siyet
birey
##all
##azi
##anım
##ürken
Arnavutların
görüşmeleri
izley
Demokratlar
ilişkilerini
memuru
gücünün
##vansiyon
Nabucco
Haradinay
Akadem
Kul
rüşvet
##alar
##cin
##çilik
##ekonom
##yanoviç
halen
cezasına
grupları
ankete
herkesin
dokunulmaz
Ciocoiu
Go
##aydı
yapıl
internet
ayda
orman
izliyor
yoksa
yürüten
dünyasından
değerlendirme
Marina
mecliste
rezer
Kilisesi
Dus
Kim
Kras
Port
##sch
##uf
##iyse
açma
çıkış
##ektir
ülkelerinden
azından
planları
olmaktan
##yebilir
nedenle
sürdürdü
telekom
Roma
statüsünü
700
Manu
test
##tarı
##dın
##iyer
yağ
yerde
işler
bölgeler
düzenlem
kondu
çıkarıldı
iddiasıyla
UNES
kampany
Uygu
başlatılan
kapsayan
UNESCO
Hin
Lja
Ulaştırma
sunuyor
##büs
##emi
süreli
kayak
çalışacak
uygulamak
##lave
temsilci
sistemini
resim
vatandaşlarına
önerilen
aşağı
maddi
Kaide
##onsor
tüketic
sinyal
##hafazak
santrali
Ger
bes
##ID
birinde
anlat
gerekecek
yangın
aracı
avrodan
çıkarma
boyut
paketi
mezar
##cılığıyla
muamele
Mustafa
Yaş
##ER
göstererek
merkeziyet
gönüllü
hizmete
##ilmişti
idaresi
Avustral
ithal
sporcu
Çalışma
Komutanı
Sergey
şaşır
Ljajiç
Es
sın
##ulacak
##ctiv
##UI
##ever
işi
oluşturan
gelişmiş
bıraktı
cumhurbaşkanının
desteğini
görünüm
ortamı
İstatistik
##opoulos
Daciç
Hav
##qu
##ator
##lanmıştı
karara
Hırvatlar
büyüy
getirecek
kapsa
tarihinin
geçirilmesi
dönüşüm
protokol
olurken
seyir
faktör
İbrahim
Sivil
Yah
luk
##zam
olacağına
çoktan
güçlerinin
sorununu
kilometr
çoğunun
üstünlüğü
aleyhinde
Babacan
doldur
Blerta
Huk
Kendi
List
fi
füz
##dafi
öneri
yollarını
EurA
projeler
yasaların
Milletvek
üstesinden
##cho
Taci
yazarı
önerisini
UNDP
kuzeydeki
kutlama
patlama
gümüş
Recepi
Adri
Popescu
ettikleri
Operasyon
Clin
Dok
le
##melik
##ğer
##lamasına
##isiyle
##laşa
isyan
neh
seçimlerden
ortağı
adalete
ediyorum
##uluyor
Milli
Ermeni
çalışmalarına
tutuklanması
olaylar
ödülünü
Önümüzdeki
ların
Kaddafi
bankası
tecr
sponsor
demiryolu
EurActiv
51
Dün
Kıs
ah
ilave
İlerle
##lanmasından
ettir
işçi
##lüğünü
belirterek
planının
yazı
hattının
Mladen
kadınlar
sıf
mağdur
edilebilir
Yolsuzlukla
Tut
plat
##liler
##tiyat
##rim
##abakat
getirildi
insani
çözmek
daveti
halkına
karşısında
askerleri
çağırıyor
##fax
gazeteciler
geliştirilmesi
eksikliği
özgürlüğ
sabah
kalıcı
Nikolovski
ucuz
Manuel
Diy
DUI
Gerç
Lüks
Slav
Taki
sendika
##ıb
##yken
##emmel
ayına
##mayacağı
bildirg
destekleme
takip
Dahası
sergilen
Medya
kovuştur
zulüm
41
Ki
vide
##sman
##veç
##ary
##imet
##anık
##izik
##üzgar
sözleşme
aracılığıyla
alanı
##melerde
rapora
tutumunu
miktarda
mültec
Vet
##yiz
olmas
##oğuk
gölg
sayfa
yasalar
tanıt
2013
çizdi
kriterleri
hangi
itibarıyla
Guar
oda
çey
##OS
##erg
##iya
##eyerek
verdikleri
##ital
Makfax
haklarının
ülkelerle
tutuyor
ilerlemeyi
tartışmalar
Amerikalı
havayolu
görevlisi
özerklik
Düz
LDK
Ve
bg
##sim
##rin
##iyonu
##işi
Hırist
##cağımız
##ibe
siyasilerin
avroyu
kullanan
projeleri
borcu
kuruluşları
genişle
hareketi
barışçı
zirvede
##ülecek
İttifakın
barikat
ilerletme
rezerv
Lab
USA
##mos
##rosu
##labilecek
##astır
##olj
geçmesi
çıkmaz
196
görevlendir
çözme
haberleşme
toplumunun
kurumlarına
desteklediğini
istiyorlar
ticareti
heykel
güçlendirme
birbirine
kavuş
Vuyanoviç
komuta
kökenli
bulunuluyor
müşter
Dört
##ylelikle
Lüksem
Bro
alk
ide
##sinin
##ris
yapılmasını
ordunun
##muştur
takv
yazılım
çözümü
faaliyete
şüphelen
ayrımcılık
Voyvodina
Guardian
Cur
Gj
Ker
Ram
Tes
poz
##yarak
##end
##aşi
##cıları
belirleme
çalıştığı
getirmeye
Belgradlı
ortaklaşa
parlamentonun
##ılmıştı
parlamentoda
ekibi
Dimit
sinema
muhabiri
Hakkındaki
tazminat
##ekonomik
Hıristiyan
Lüksemburg
Bin
Dir
Tak
Teş
alama
yatır
##liliği
##zko
##laj
##itsa
endek
Artık
Sırplara
hükümetini
zamanında
zamanlarda
gerçekleşmesi
şeyler
tedarik
ödeme
Kofi
sonucuna
köprü
Lefko
##sis
##ebileceği
sağladığı
bağlam
plana
ihtiyat
mevzu
şirketinin
Bakanlık
toplantıya
azınlıkların
edeceği
##melidir
Yakın
irade
##peten
Daniel
53
Hey
Plus
zemin
##okoviç
çıkması
bölgelerde
çalışmak
komit
akıl
yürüttü
bilgiler
danışmanlık
Aleksandar
Norveç
garanti
hidroelektrik
Clinton
com
İddi
şim
##lj
##med
##mit
##vanya
##hendi
##ekiz
##işle
yoldan
yansıt
göstermek
döndü
giren
Schw
gerçekçi
başkenti
Davor
aktardığına
eminim
Tarım
vadede
Pf
##rid
##elçi
##elidir
##ovar
##oka
tarafsız
seçimlerinin
1993
hayati
oynadığı
kısmının
Terör
Neb
To
akadem
Şef
##iği
##üc
##malarını
##lanıp
##ılmak
##ovision
##tıcı
başlıyor
yıllar
kapalı
edici
bastır
##kozy
yönetmelik
bakanlarının
yatırımcılar
ilerlemenin
düşünc
ulaştırma
şiddetli
kurucu
ittifak
Sergi
emlak
koşulları
Oyunları
mutlu
mülkiyet
mükemmel
Ex
Hal
Putin
paz
satı
##esa
##lanmak
##tıyor
konularda
sürmekte
##erse
göstergesi
tutar
Sarkozy
attı
kuzeyindeki
talebi
pazarlık
Koali
Önc
Milososki
nispeten
Portekiz
Böyle
Igor
##ei
##ily
etmeleri
anlayış
Eurovision
##liğinde
güvenliğini
imha
basit
1996
çözülmesi
desteklen
Miloş
bana
operatörü
öğrenim
maliye
tasla
kilo
Toplam
##ologlar
işadam
skandal
85
Hel
cema
##ederal
anlatı
geçecek
güv
karşılandı
hükümetine
##istin
Yunanlı
##liğiyle
projeye
Ermen
istikrarın
mesaf
hapse
başvuru
Bizim
Bakoyanni
Kaz
bab
ez
##amir
Bugüne
halde
göstermesi
Milovanoviç
sistemine
etmekte
çabalarının
geçirdi
kurulmasını
geçmişte
korku
##emeyeceğini
söyleniyor
çabuk
işkence
tıb
##ıma
##lerdi
##eyeceğini
##ağın
##uts
kapan
kararına
tutul
Komün
çeken
hızla
Kredi
edilmesine
emeklilik
Stankoviç
itiraf
yinel
##lüğüne
servis
Hür
Oba
UAD
bey
canlı
sa
##ydi
##tına
gördük
##avr
##usundaki
sahte
seçimlerine
dolay
Küresel
yükseldi
milletvekillerinin
kamuoyuna
dayanıyor
Girişim
##süzlük
SDSM
gurur
##iir
##riyet
##uğ
##17
##IS
##une
##ahh
vermeyi
ant
varlığını
tartı
Brez
desteklemeye
Genelkurmay
görüşmelere
kaçakçı
kaçakçılık
Bölgesi
etkinliklere
bayr
Vakfı
Hukuk
hari
##gre
##ze
##LA
##ino
olanlar
beld
üyesinin
bilişim
çıkara
bölgesindeki
fazlasını
kalmayı
anlaşmalar
hakkına
bakanlar
çıkarılması
sisteminde
geçirme
faaliyetlerini
##larımızı
meclise
Durres
beraber
Miloşeviç
Mus
Nic
Rice
kem
pan
prat
zinc
##tası
##dine
##RA
##inal
yapacağını
işley
##ilitan
belki
korsan
harcan
oluşturma
Radi
kırsal
bloğa
bildirdiğine
önlemler
İrlanda
Fak
rüzgar
süb
tez
##iti
##tid
##roy
yetkiler
##balık
##brov
topluma
amaçlanıyor
ulaşmak
yönetiminin
kontrolü
Ortadoğu
sağlayacağını
birleştirme
aleyhindeki
trafik
##pektif
Askeri
62
Boy
Echo
Tih
kın
sunma
yed
birleşme
##ate
##iste
getirdiğini
ekonomist
sayılı
SEE
planına
##erald
hizmeti
Kriz
edildiğini
Kuruluş
ruhsat
Akademisi
Kısa
Neboj
Jean
Kol
fil
nez
rast
Çerçev
çö
##jug
##akende
##land
ayından
bulgu
kurmaya
yolunu
dans
diğerleri
kullanarak
##niki
##otor
hayvan
##vetkoviç
##izibil
##luğunda
meseleler
hissesini
umudu
Traj
Valentin
Kuvvetleri
Odası
Zivkoviç
Dusan
PfP
Hürriyet
Obama
Gra
Kir
Vatanda
ağı
##eka
yalan
kart
inc
gelmiş
devra
yönelt
krize
##ock
başkanlığındaki
sonuçlara
İşçi
##memiz
gönderdi
1000
Basın
##oft
ücretsiz
makro
oynanan
Ödülü
##utsche
39
Eu
Emek
Gu
Jac
Çevre
##tek
##dilik
##SP
##isiç
##medik
konularında
##idar
Ardından
##diren
anlaştılar
planın
kalmış
eren
ilerlemeye
değişikliği
##müştü
etkinlikte
##törü
erkekler
David
hepsi
USAID
tıbbi
Günü
Sah
Ven
kit
nef
to
va
şarap
##likleri
işleyen
açıklaması
sürdürme
çalışmalar
Geo
ödey
muhalefetin
diren
mağlup
Filistin
Krasniki
sınav
Nebojsa
Azer
Ke
Un
kans
##gal
##inç
##ecekler
Sırpları
sağlana
##gari
bulundur
durumunu
bakanlığından
aksine
oluşturulması
Topi
gençler
medy
Inzko
kesiminde
rejimi
##erince
HINA
Fer
Geri
KK
Para
RT
ademi
militan
varılan
##ire
##ity
süreçte
uyruk
##cağım
seçilen
savaşı
hedefleniyor
gazetesinde
sürdürmeye
##olas
artışla
##ültesi
kimsenin
Avustralya
Teşki
pratik
Euobserver
Gr
Mc
Sov
bron
İlg
##arkı
##dim
##lanmasında
başından
günleri
verilmiş
onlar
düşman
önemlidir
basına
muhafazak
##meyeceği
başardı
kriterlerini
Tanjug
deyişle
çocuğ
arkasında
davranış
balta
video
bronz
Nano
Olay
Rich
Sü
##SF
##aseb
##iski
##isiu
yeterince
bölgeyi
kaynaklanıyor
başladığı
hareketin
Ülkede
malz
gidiş
Petar
iyileştirme
##iskop
İspany
Moisiu
Suçları
##ristian
İspanyol
Fotoğraf
fizik
nedir
so
vereceği
ülkelerini
duygu
izledi
hedefleri
yetkililerinin
sistemin
Güç
başlatılması
grupların
Kürdistan
olmayacağını
##rosoft
reklam
alacağı
aşırılık
Deutsche
tüketim
aktardığı
Microsoft
elektronik
usulsüzlük
##hendis
Sovyet
Bür
Kovac
Lüb
Taraf
sitesi
tık
##sek
##form
##cilerin
##arko
yıllarında
##lenda
yeri
toplama
tuttu
##uyu
bask
Prlenda
ikiye
yatırımı
örgütleri
##tiyaz
taşıdığı
töreninde
Bazıları
ürünleri
gücünü
geleceğe
başlangıçta
KKTC
Calin
Yusu
bo
İh
##tz
##ineler
##dat
##lanırken
olmuştu
ard
##iyordu
işleme
istekli
sağlaması
Maroviç
uygulanmasını
kavram
açılışını
Programı
Bütünleşme
Dubrov
dolayısıyla
Güm
Ot
disi
kop
##bin
##are
birden
##imin
##ulmuş
##steş
söylediği
eder
durumdan
tanıyan
gerçekleştirdiği
buradaki
aslında
belgeleri
Serbest
savundu
gidecek
Konferans
teşekkür
orada
##ght
Küç
sinin
##etik
##liye
##ürüst
##sım
##akit
##ılıp
##liğinden
kişiye
çabalar
##çılar
otor
kimin
yaşandı
Liderler
yumuş
Silahlı
numaralı
İlerleme
Süley
Yusuf
Dej
Kır
Pac
Yaban
cev
##olik
##iniç
başara
##cebo
olabilecek
çıkacak
sahib
kalması
Prot
yönetimindeki
nih
Frank
Haberleşme
Bence
mutabakat
vaka
reddediyor
Muhamet
zanlının
##tidara
Vatandaş
Süleyman
Bit
Boc
Gre
G17
Kaç
MIA
PDK
##acağız
##arator
##üntü
yere
Angel
sağlanan
sağlanacak
seçti
belirlenen
##ibune
##başı
seçimlerini
elinden
liderlik
edebilir
imzalanması
yoksun
Gücü
asgari
##evizyonu
alacağını
danışmanı
Natasa
eğitimi
muhtemelen
nihayet
49
54
56
Com
Ele
Na
Tiyat
olmasından
düzenleyen
milyonlarca
kullanıyor
sorunlarla
iktidara
aldıkları
etmektedir
engellemek
rolünü
Radyo
##priz
##elendirme
desteğiyle
cezaev
ordus
kutladı
Akımı
Koridor
kasaba
noktada
istikrara
liste
Projenin
Öğren
Bogdan
Eyle
Hem
forum
##loviç
##sinde
##ve
##iyade
aray
##abilmesi
güneş
yerinde
##ilmesinde
karşılama
uygulaması
1997
haberler
yatırımlar
yürüy
katılmayı
sevk
tedbirlerin
farklılık
değişikliklerin
##mıyorum
Vlado
Gazetec
Fuarı
Facebo
Divanı
sonbaharda
sezon
##izibilite
Facebook
Celiç
Edi
Kız
Milen
Yan
şeh
##nj
##mamış
içi
düzelt
yakından
ülkelerindeki
davada
hedefini
dolara
iflas
sektöründeki
##tıklarını
tehdidi
fikri
hisset
suçlamaları
Vukovar
larda
Tribune
mağaz
teşkilatı
radyo
toplantının
büyüyen
##oljub
52
Ga
for
sini
##taş
##TP
##ovic
##amız
gördüğünü
##usunun
suçlar
hakaret
##ıldığında
##leyerek
izleyen
sektörüne
askerler
gönderdiği
bilgileri
düzenlediler
alım
konferansta
perakende
yetkisi
##hua
AI
Fo
Fonu
Mur
şok
##tini
##âh
##lanmaya
kaf
##olf
günler
ani
##ceğini
sırayı
##ütüp
göstermeye
tarihten
sorunlarını
insanlık
hata
Toplu
nüfusu
çocukları
bilgilere
zanlılarının
saldırıları
Haris
Peter
Deniz
kavuştur
dolaşım
Alexan
Tutuk
Tihiç
Geoana
##ütüphan
Jon
KP
Kra
Ves
raf
öf
##çilere
##44
##arz
##azzam
sürdüğü
böylelikle
önemi
ilişki
topluluk
insanlara
Anlaşmasının
operasyonu
mobil
çalışanları
Mirko
gereğini
Özgürlük
İktidardaki
ırklı
Turkish
Dubrovnik
Küçük
ANA
Dest
Eya
Zeljko
bedel
fas
##los
##fsan
##lamasını
##abiliyor
karayolu
ülkesinde
verilmesini
konuyu
##ilmeleri
haklı
yanından
düşen
kararlaştır
yardımıyla
oyların
kaldığı
hazırlanmış
dernek
hedeflerine
sorumluluğunu
katıldılar
Schill
büyümenin
hissed
Öner
taban
iyileştirilmesi
azaltmak
törenine
bitir
Lefkoşe
Schilling
66
Gi
Kent
Kitap
Ok
Zvetkoviç
cih
lib
##cileri
##TV
##eski
dalında
##emli
sürpriz
mühim
görevde
elden
zorla
muazzam
kaynaklanan
Konjik
oluşturduğu
sunuldu
kuruluşlarının
Soren
##malıyız
ankette
koşullar
uygulanmasına
Yapı
Yapılan
Andre
komünizm
##cker
Çerçeve
Alexander
Gro
Herald
Mis
Pula
Xin
fat
Çoğu
##dün
##car
##imir
etmenin
##masız
almasına
planladığı
ermesinden
muad
projesinin
çıkarlarını
sayıdaki
öngörüyor
uygulamada
güneydoğu
bayrak
otobüs
sigorta
Dünyanın
Boyko
makroekonomik
Eylem
Cer
Dağı
Fre
##ry
##üğ
##ılmasından
##ınız
##avi
and
süresinin
üyelerinden
çalıştığını
edebiyat
turu
ayrılık
sonuçlarını
yoktur
oranları
beşinci
meseleleri
şiddetle
işbirliğiyle
devred
topraklarında
perspektif
barındır
Pekin
artışı
iyileşme
Nataşa
yıldız
Stojanovska
Profesör
Uygulama
Xinhua
Ham
Ros
psik
uf
##fta
##ardı
üyelerine
sözcü
müfet
elçi
kulüb
girecek
girmesi
reformlara
projeyi
hemş
değerinde
dahilinde
sorumluluğu
kanalı
belgede
Katolik
azaltma
listesinde
bilimsel
yararlı
Siyaset
mantık
duruşma
gereği
münaseb
Hristofiyas
Konjikusiç
müfettiş
58
Est
payı
##OC
##erini
##ilerden
##opoli
Türkler
geçiyor
değildi
##dard
##bileceğine
tac
bölgesine
görüşlerini
güvenc
kalp
taşın
örgütünün
yaratmak
pazarına
zanlıları
Finan
başkentinde
yolsuzluğa
veto
platform
UPI
cen
yiy
##ğumuz
##AP
##ileceğini
yapılma
taraftan
karşıt
istiş
çıkart
##ketbol
alanları
imtiyaz
değişen
beklentiler
##ugen
kendisinin
gençlerin
eyalette
İngilizce
ofis
yolsuzluğun
taşımacılık
restoran
Agim
yürüttüğü
Richard
95
Mas
Meta
Wil
##acağına
##pen
##lamasının
##eth
birine
demek
##osta
##amik
başı
açabilir
sürüldü
ilet
bilet
seçene
##sızın
görevinden
İstih
kullandı
komisyonu
amaçlıyor
başkanları
daire
Sanayi
eşlik
Stam
operatör
kaldırma
Müsteş
davaları
çağırdılar
Papa
Papad
stratejisi
##ashi
dağıtı
çatışmalar
HIV
şair
Labus
Lübnan
Rah
Tuz
aya
gür
hekt
lay
##cül
##ağını
ülkesinden
aydır
##tikleri
sayımı
amacının
paranın
yatırımları
tutuklu
olayların
Kurum
barışı
etkinliğe
şüphe
kanun
##larımızın
Ordus
Teknik
yaralandı
şarkıcı
koordine
Bozidar
##plek
İlgili
münasebetiyle
Lit
ib
nci
##lor
##kal
##ğiz
##EK
##ilirken
##ater
##ulmasını
içeri
##utov
ülkesine
aydan
##iğe
yoluna
planlama
bütünleş
çekmek
AKI
Brammer
kısım
Stre
yarışma
yenilik
kuvvetleri
Silay
notunu
kışkır
kırıklığına
gerekçesiyle
Barbutov
buluş
incelen
layık
Brammertz
Aş
Ba
Bah
Liz
Nimet
beni
dük
rot
sunan
yola
##bev
##isa
kadem
buluyor
##alıyor
yaratı
##menler
amac
kararları
alanlar
sahipleri
kalıntı
dışarı
##beden
##ranka
##port
krizden
##pres
Marko
finansmanı
tepkiler
grubunun
toplantısına
ailesinin
emr
emri
güçlendirilmesi
çerçeve
iyileştirmek
İttifaka
Finans
Paktı
suretiyle
nezaret
uyruklu
Ili
hır
tutan
##don
açıklandı
savaşın
örneği
çekiş
##uyorlar
Bilgi
Bununla
heyetinin
sergisi
##ijital
ayaklanma
Tarih
lisans
kendini
mektupta
Adrian
Schwarz
liberal
Silayciç
Nimetz
57
For
Tiyatro
Va
İvica
##kar
##laki
##yacağını
##ami
##okul
devir
tarafların
yollardan
dönen
oyu
##imize
gelene
zamandan
##rif
programın
standartlara
##obel
geliştirmek
meclisin
uçuş
listesinin
uyarıyor
çifte
modernizasyon
kazı
Jankoviç
yarısı
Öğret
üzüntü
sübvansiyon
Dön
Rek
hali
şer
##cektir
##akis
##akıt
kah
##izasyonu
##ita
oldular
##halif
devlete
geçerek
karşılayan
yaşlı
Belene
bölgelerinde
195
yasasını
önemlisi
202
anlaşmaları
desteklenmesi
yazılı
ilişkilerde
turizmi
zirvesi
kararlılığını
tablo
Burgaz
öncelikli
Etnik
anayasaya
esnek
İvanoviç
maliyeti
Bojana
rakibi
mekanizma
beraat
dünyasında
metreküp
Üyelik
Sizce
kilometrelik
mevzuat
Brezil
Azerbay
But
Kop
Nüf
Yen
yla
##FTA
##ilme
##isiz
dam
##ito
anah
düzgün
savcılar
haklarına
harc
yasaya
oluşturdu
tutukladı
başlatıldı
zanlıların
dikkatli
etkileri
politikasını
öncelikleri
Lukiç
partilerinin
ayakta
Dimitrova
şansını
sanayii
fikrini
bayanlar
Hindistan
##beveyn
Zv
blog
emir
fasıl
lı
##AR
##gah
##jev
##EL
##matı
##ekte
ülkeyle
aydın
##cea
olabileceği
yaptılar
##ilebilir
haftalık
projesine
toplumlar
bağımsızlığının
Savcı
artıracak
taşıdığını
azalma
taslak
istiyorum
Inde
koalisyonunun
politikasının
benzeri
misyonunun
vergisi
meclist
Danimar
uzlaşmaya
sunacak
Fakültesi
Danimarka
Frat
Jad
Mey
Vis
haz
web
##nas
##var
##mamız
etken
##ith
yarısında
park
Priz
yapılanma
sağlayı
alınmış
kurumlara
alıyorlar
açığını
##luğuna
##lamakla
##ozar
desteğin
moon
İnsanlar
Tele
bulunmadığını
rota
sıfır
kademeli
batı
dos
kör
vat
##şi
##ener
##iller
##urn
kariyer
almasını
geleni
##ilmesinden
kaybeden
duruldu
bulunuldu
kaldığını
başlamasından
hakkını
##terler
sıradan
destekli
çıkarmak
alınmasını
Partisinin
bunlara
tahv
##gela
standartların
rakamın
Uzun
Denizi
personeli
yatırımcıların
birleşik
sunulacak
benims
Ljubl
Dimitri
Mes
Stand
Tüz
Tab
##goviç
##emedi
##ilerinden
araz
intih
işy
taraflar
ilgisi
##heugen
tutmak
vardır
oyunu
##melerinin
##gresi
zamanın
akşam
onaylanan
önerisi
Kurt
Daily
politikaları
##ampiyonu
çalışıyorlar
güneyindeki
bütçesi
atıfta
Verheugen
vizyon
hafiflet
tedavi
konsorsiyum
beyan
Radio
Gümrük
Kaçak
arayış
Azerbaycan
63
Gelen
Hiç
Hep
KLA
form
##lesi
##ond
birinc
##osunun
##likler
işgal
##ştır
düzel
getirerek
krediler
mahkemeyle
akra
tarz
artırdı
askerlerinin
gelişimi
Kostov
kurucusu
uğrat
İttifakı
belirlenmiş
Gelecek
Havaalan
Şeffaf
##inelerce
mühimmat
Financi
64
Pam
Sab
dürüst
hüc
##nis
##orat
##ılmaya
günümüz
tarafının
çıkarılan
suçların
gösterildi
düşünü
görevlerini
erecek
Press
aklama
çıkarlarına
polisinin
katılımını
kurumu
raporun
hayır
tartışmaya
görülmemiş
##lamakta
##lamayacağını
dünyadaki
saldırılar
medyanın
endişelerini
Aday
Novak
dayat
imkansız
Şimşek
Yabancı
Tuzla
Frattini
Prizren
67
Ph
Sec
Vl
Yalnızca
atık
İmp
biriydi
##dent
geçersiz
uyan
açıklanma
##ılırken
sahası
savunu
##ick
varan
haftalarda
akış
kurumlarını
Ayhan
Soruştur
##dıktan
##anışma
bölümünü
puanla
##himerini
fabrika
nakil
Gordan
tedav
füze
Kemal
Tiyatrosu
İmparator
Kut
Sistem
Vi
öyle
##mo
##iriç
##mam
işver
Angela
bölgesinin
onayı
alandaki
varlığı
imzaladığı
yazık
çözümün
vatandaşlara
oku
Büyükelçi
nitelendiren
inanıyorlar
atılan
meclisi
ilç
1989
CEFTA
talebinde
miras
rahatsız
Forumu
Organize
harici
hektar
Şeffaflık
72
EC
Ku
Kla
lüks
##gının
##RT
birliğinin
daimi
##tantin
##ilerle
arıyor
yetiş
sorunla
edebilecek
##etten
bildiri
bazılarının
raporunu
##latko
geçirmek
başladığını
çağıran
basınında
malların
fiyatı
tabi
##layacağını
hızlandırma
memurları
Özelleştirme
lardaki
##meliyiz
açıklamasına
donanım
Marija
Gözlem
##ayolları
olmasa
Komünist
Jadranka
Gab
GER
soğuk
vek
şub
şampiyonu
##meti
##kest
##ft
##ğuna
##imiyle
arasına
##tady
##yana
yaşanıyor
getirilen
istasyon
elveriş
tarihe
##leyi
sonuçlandı
sektörünü
gerçekleştirildi
##gunluk
etkileyen
alıp
davaların
belgesel
seviyesine
konferansı
kalabalık
Sekreter
direktör
yoğunlaş
konsey
Gazeteciler
cazip
arabuluculuk
kamyon
Koalisyon
sadık
Dejan
Eyalet
GERB
esk
stan
##mişt
##his
##jek
##aryo
##imini
##omet
sürmesi
işlenmiş
ını
##ilmesiyle
üyelerini
##manoviç
hükümetler
suçun
denk
Europe
ayrılan
çıkardılar
mücadelenin
gazete
Entegr
atma
adımları
ayrıldı
kurulmasına
niteliğ
bilgilendir
işareti
Üçüncü
gemi
Esad
Teşkilatı
Indepen
61
Dora
Misyon
Nobel
Raz
SDA
alev
elim
mimar
riski
vir
ümit
##ig
##ns
##fed
##aka
##atin
##tanın
konusunu
savunan
ekonomiyi
doğur
komitesi
dönemin
aksi
çıkarları
sürdürülen
Partinin
açılacak
olayın
artırmaya
Niko
siyasetçiler
katılanların
manz
Rohan
fabrikası
gündeminde
statüsünün
kendine
suikas
sekreter
ışığında
Başsavcı
bireysel
pazarı
Lizbon
Independent
Düş
Dava
bebek
gev
ikil
##sına
##net
##enk
##imler
##osje
ardı
gününe
almıştı
toplanan
soruna
hükümetle
##elikop
onar
Altı
davayı
duyduğunu
öncesine
raporuna
oluşturmak
sunmak
katıla
hayatta
çoğunluğunun
eleştirilere
Bölgede
ailesi
eyaletteki
eksiksiz
ihtiyacımız
Durum
Samar
koordinasyon
Değiş
yıldızı
Stratejik
cihaz
intihar
Cav
Seli
efsan
ebeveyn
gol
Şiddet
##rem
##nes
##gâh
##ülasyon
##hard
##ekon
ayar
kurmayı
ülkelerdeki
Alf
1244
komplek
turda
sektörün
şartların
programları
Kosteliç
değerlendiriyor
girişimin
hisse
saatlik
isimli
edeceğiz
kanıtı
İvanov
tartışmalara
gözlemci
bombalı
Srbi
Konferansı
işadamı
öfk
Mem
Rü
Vic
mus
##adan
##sef
##AK
##IB
##duk
etmiyor
##itor
yarım
##alisti
karşılıyor
hükümetinden
uygulanacak
haftaki
Pred
desteklenen
##elena
örneğin
öldü
başkanının
##chev
düşünce
etkinliği
gitmek
sıkış
azaltılması
adıyla
Görüşmelerde
1980
çıkmaza
oğlu
İddianam
fiziksel
yürüyüş
78
by
feder
süt
##medeki
##sü
##NS
##larsa
##lendiği
devi
topladı
yetiştir
suça
konması
tuttur
girmek
bakanlığına
merkezinin
imzalama
mücadeleyi
Ergen
##lükteki
##oloj
atmos
çabaların
tamamı
kapsamındaki
eşya
dikt
istikrarsız
makamların
EUobserver
zanlılarını
ordusu
milletvekillerine
Elektrik
profesörü
kapasitesini
gözlemciler
reak
##emeyecek
Dimitrov
##sınız
bahset
inanılan
kurtul
güveni
Leh
Nich
Zor
binin
##rsa
##cinin
##liy
birer
##umi
kurb
düzinelerce
çıktığı
kararlar
Birinci
##uluş
edecektir
müzakerelerinde
salon
programının
değerlendirmek
görüntü
DPS
parlamentoya
Sonr
eylemleri
Bölgedeki
takımının
inanıyoruz
bölümünde
İslami
harcamaları
adamları
kira
Beyaz
inanılıyor
etrafında
kıyısındaki
SNSD
alkol
Direktörü
Group
PIC
Yayın
dijital
fizibilite
helikop
##mik
##gos
kade
##lkeri
##ilerde
verirken
yıllarca
belirsizlik
mühendis
seçimlerinden
Alb
kazanma
izlemek
şirketlerinin
akın
dahi
programını
başlattığı
130
gerçekleştirilecek
##ebla
##ebilmesi
Sorun
Iraklı
açtığını
##madılar
kalacağını
Holkeri
yoğunluk
ihlali
konferansa
havali
korumaya
kasabası
Terziç
öğrencilerin
teşekküllü
hoşgörü
şimdilik
##iskopos
Estonya
Basında
BSP
Gal
KSF
Peki
afet
hac
mit
##sos
##FA
##ilot
##male
##sıyor
##izatör
açmayı
##üldüğü
belirlemek
savcılık
194
durumlarda
başladılar
organizasyon
kaydettiğini
gazetecilerin
yaşamak
##eceğim
büyümeyi
protestocu
kullanıcı
##bert
özgürlüğünü
darb
##lerimizi
koordinatörü
Rasim
sebep
fiili
istişar
Bri
Col
His
Haciç
Ivica
Tör
set
the
Şah
##tüş
##dr
##uri
##uman
##üman
##abı
vermişti
##lıktan
kullanmak
devletinin
İnşa
yasalara
kurumun
ihtimal
tanınması
öldürülmesi
Miha
Elekt
törende
Benim
anayasanın
Journ
oylamada
##lüğünün
kategorisinde
Traykovski
Papadopulos
Telegra
Pamuk
Alfred
Don
Hedef
Jam
Racan
SRS
Wis
coğraf
mebla
tütün
##so
##eon
##çinin
##RM
##ence
##lıdır
görme
sonun
Arke
yolları
suçlarla
suçlarıyla
bağlayan
sahipler
kalmaya
adamı
yaklaşan
hazırladı
değiller
evlat
gözardı
başkanlığına
2014
Sancak
tahsis
kaldırmak
belgenin
seviyesi
Muh
soktu
tabii
misyonun
Hollandalı
santralinin
bayram
seyr
sitesinde
Girişimi
Doğru
talimat
benzin
kapsayacak
Düzen
bağlamda
Ermenistan
Standart
59
900
Ege
Mah
Post
di
hedi
##ding
##mali
##lanabilir
yapılıyor
##içek
yerlerinden
org
yaptık
Eurone
doğan
anlaşmayla
hedeflerini
toplumların
##ubu
geçirdiği
yürütüyor
Ülkedeki
yaratma
kesintiler
artmasına
potansiyeli
töreni
diyaloğu
teklifi
puanı
tutumu
bağlantısı
istifasını
Foniki
Gençlik
harekat
tırman
nefret
fatura
Journal
Euronews
Nec
Yazar
ikin
##mus
##ianu
##ğunda
##hin
birik
anlama
aylarında
çıkmak
görüşü
polise
planladı
Birlikle
başlamasını
kullanmaya
güçlerin
tarihlerinde
yükselen
hedefinin
çıkarına
çekme
değerli
çabalarında
tamamlandı
##landırma
taşıyacak
yaratıyor
ihtiyac
okuma
kredisi
gelirleri
kesimindeki
kapasitesi
fonları
olmadığına
denetimi
Simeon
merak
Köpr
çöküş
tersine
depo
nehir
Litvanya
Predrag
73
Ac
Il
Müf
Welle
icra
rom
çiğ
##fe
##enkul
##ileceği
##lemeye
##ecan
##denin
gelin
gelip
karşılaya
Arnavutça
gösterecek
yasasının
kalmak
kullandığı
kazanması
merkezindeki
harika
projelerin
önceliği
mücadeleye
çekildi
sürdürmek
##lemeyi
ünü
başlatmak
iktidarda
ödemek
belgeyi
hissediyor
uzaklaştır
görüyoruz
Ashton
ateşk
kilise
Svetozar
beyaz
istismar
Ergenekon
Wisner
68
Füle
Mik
MSK
Sk
fuar
lab
mür
##ılabilir
##ror
##ebilmek
##ılmasında
##ecom
ann
açmak
##edev
bulunmuyor
uzanan
durumunun
alanlarındaki
binası
Aralarında
Anlaşmanın
meseleyi
yarattığı
cumhurbaşkanlığının
tavr
zirve
başbakanın
seçmenler
temsilcilerinin
gücüne
manastır
kapasitesine
belirlenmesi
övgü
savcıları
kapısı
Halkın
kuralları
Araştırmalar
görüştüler
gayr
Ramazanoviç
masaya
Yahudi
çeyre
Financial
elverişli
Bes
BDP
II
Ken
Vek
Wolf
dök
nu
yle
##şu
##tim
##larm
def
##evend
konudaki
değeri
siyasileri
devamı
görevleri
temin
başlamasına
liderin
zamanla
etmekten
duyuru
UNIC
öğrencisi
kesintileri
kaybed
bekliyorlar
güçlendirmek
Burns
oynaya
sağlamayı
işletme
##erinska
büyükelçisi
Simiç
Svetla
ajansının
nesil
Vetevend
cemaat
kanser
Bitola
Secur
Vlora
James
Braj
Cat
Jovan
Ner
bi
fu
##ıf
##bas
##ant
##ona
##imleri
##tıkları
##avüz
ülkemiz
büyü
saha
Yunanlılar
##ıyoruz
ekonomisini
görüşlü
tutarında
##üper
basketbol
tarihine
reformlarını
reformunun
kaynaklarını
döneme
beklendiği
ayrılmış
askerlerin
girişimleri
tanesi
üyeliğe
Sekerinska
kutluyor
##yasal
tasarım
cinsiyet
kuvvetlerinin
gecesi
Spiriç
350
mezun
Petrov
senaryo
Aziz
Muhalefetteki
reddeden
##liliğini
##aryakıt
tartışı
güreş
Nüfus
Ljubljana
akraba
Gabri
Rücker
UNICEF
MPA
meden
##idi
##ben
##çuk
##arb
##akır
##ette
kali
gerisinde
sonundan
açacağını
devret
##alit
kaydı
sağladığını
##adin
##eyici
konan
planlandığı
başlamak
kullanılıyor
Komsiç
haberde
muhalif
##rana
ilişkilere
katılımının
hemfik
bildiriyor
sürdürülmesi
tutuklanan
düzeyindeki
yönetimin
krizle
firmaları
makamlar
çocuklara
başarıyla
ödülünün
Oliver
protestolar
dilek
patlak
Elçi
Kore
uçur
ertesi
törenle
unsuru
sars
Planı
Azın
tecavüz
cami
şeffaflık
muamel
yöneticisi
duydukları
ihtiyatlı
dükkan
Brezilya
Meydan
69
Ed
Rup
Sev
duvar
maf
olamaz
İkili
şiir
##minin
##rum
##ularak
##çağ
##CE
##CR
##IT
##labileceğini
##eksiyon
##ordin
##esince
##alma
##ulduğu
gelmesini
bulmaya
gereksin
çalışırken
tarihini
1994
ikisinin
iklim
farkla
ulaşım
kurulmuş
fiyatlar
siyasete
yaşama
menf
tehlike
ölümcül
sürüyorlar
Mobil
Maria
ayrımcı
Japon
restor
derecelendirme
olmalıdır
nitelikte
Etkinlikte
imajını
Kaynak
mültecilerin
kalmayıp
zincir
Kovaceviç
Bogdanoviç
Tabii
Entegrasyon
diktatör
hemfikir
Eş
Jelena
Kas
Koz
Ts
Tam
US
lerin
sos
yur
çel
##sy
##kten
##irse
dal
##emem
##alli
##azen
##kender
gösterilen
ülkeleriyle
müzisyen
kullanılması
koruyor
kazanmak
katılımcılar
evlerine
öneriyi
tartışmak
boyu
gönderme
Biljana
nüfusa
etkileye
koyduğu
Krist
düzenlenmesi
Kathimerini
tatmin
bölümünün
çalışıyoruz
komşuluk
suçlamalar
Özellikle
ofisi
konferansında
belediyeler
makin
yatırımcılara
normale
Tasar
Pow
etkilenen
devraldı
Hristofyas
Yapılanma
Selimay
77
Mili
Sm
Sin
Wor
federal
je
sic
semin
##şet
##mb
##mabon
##ulmasına
##ech
yaparken
almakla
yerlerde
##lamalar
düzeni
sağlandı
##tikçe
parayı
seçimi
sahiptir
kulüp
erdir
##begoviç
kesimi
alındığı
alındığını
Endek
Erlis
##abilmek
onaylama
tümü
bulunuyorlar
##çısı
okula
Koordin
başbakanlık
ilerliyor
##ation
kapatma
konumda
inanç
turistler
turistlerin
modernize
kuşat
Kermabon
Müsteşarı
musunuz
menfaat
Eki
Hazır
Of
pilot
sene
ziyade
ölü
##ie
##tuk
##plin
##ğlu
##latan
##laka
##dıma
etmesinden
yapmaları
##itis
##asıt
analisti
işlerini
hükümetleri
yetecek
şeker
doğumlu
güvenini
uygulanma
anlaşmaların
muaf
##dilerde
yatırımların
aktör
tanıma
adayları
dünyaya
krediyi
##eceğinin
Kral
euroya
yararlan
konumunu
itibariyle
büyükelçilik
yıldönümünü
savunuyorlar
arkadaşları
işleyiş
çiğn
Ap
Fır
Fri
Hüs
Mun
Trak
tr
trans
yuk
##mur
##sın
##sever
##liz
##ünik
##emiyor
##osuna
##ilerinde
görmüş
karg
insanı
vermem
Kosumi
işini
söylem
ismi
##iber
suçlarından
öneme
110
sürecindeki
mahkemesinde
hedefleyen
alıyordu
halkını
attığı
hayran
engeller
olaylarının
adımı
kuzeyde
saldırgan
filmin
istikrarsızlık
ilişkilerinin
ilişkilerinde
şiddete
kontrolünü
kolayca
bankalar
olurdu
yaşadı
ihrac
edeceğine
kırmızı
hızlandırmak
Müslümanlar
Steiner
Benzer
Çinli
ötesinde
Etkinliğe
Katılımcılar
ekibinin
anlatıyor
Bürosu
muadili
Victor
miting
82
ND
Vec
cad
koka
Ür
Şüp
##ow
##nam
##pa
yapıldığı
inci
söylemek
yardıma
geçtiğini
yolun
savcısı
##ektedir
##acaktır
yatırımın
önceliğ
bağımsızlığına
yazdı
atö
tamamlama
pekiştir
programında
kuruluşunun
Geçmiş
yarattı
serbestleştir
nitelendirdiği
etkisini
özelleştirilmesi
atıyor
görüyorlar
esas
performansı
sanatçılar
diplomatlar
yurtdışına
statüsüne
hatırlat
gerektiren
Robertson
destekleyecek
yiyecek
Rupel
Alk
He
Kış
ap
İm
##çak
##ates
kağı
##rah
buçuk
almaları
tarafında
seçilmiş
kapsıyor
eline
sağlayarak
ilerlemesi
katılımıyla
Erkek
##ferit
İşlet
başlatmaya
sunum
180
ayrılma
cumhurbaşkanları
eleştiren
buraya
vurgulayan
##laku
taviz
finansal
yenerek
oyuncusu
maaşları
öncelikle
defalarca
inandığını
Sezer
İzmir
güçlükler
Asker
Çağdaş
tıpkı
karakter
ezici
Street
Değişik
##mussen
laborat
Vetevendosje
Şüph
84
Gar
Let
NIS
Oly
Pot
Prag
Vat
Zan
dosya
sam
Çet
##line
##yp
##day
##tion
##üri
##stil
gelmesine
işçiler
katına
tekel
milyondan
##iyeti
oybir
başlamış
güçlerini
Alp
sorunlu
sorunlardan
zamanının
##leşmesi
çekilmesi
Savcılar
geçirilen
alıcı
öngörülen
zirvesine
Mircea
koalisyonun
ölçekli
dinamik
hızlandırmaya
borçlu
Seçimler
festivalin
koruması
kurbanların
bazen
yatak
Rasmussen
parlamentosunun
Müdürlüğü
çöp
kitle
malzem
taciz
Olymp
76
AN
Ağı
Dola
Han
Kuk
yit
çelik
##ydu
##zat
##ato
##olli
vermesini
anı
konuya
##hag
katled
hükümetiyle
çıkarak
suçluyor
##istler
ekonomiye
liderlerle
genellikle
mahkemede
projelerine
##ayıp
sonuçların
açığının
oranını
artırmayı
örgütler
140
Stru
Ahmeti
yaşamını
Aslında
##ojeviç
##dole
Önemli
ifadesinin
kaybettiği
uygulanmasında
fonların
Christian
karıştır
yükümlü
savunmasız
savcıların
hepimiz
kapılarını
Federasyon
firmaların
Medv
ekipman
kaçınılmaz
Saldır
sekreteri
Condole
dolaylı
Kurtuluş
FI
Fena
Pen
Sanık
Tos
Tok
Tito
Zanlı
fonu
por
sının
yor
##ole
##yü
##th
##malarına
##elim
##eyeceği
##işe
inanan
##ahor
##rus
gelmek
enk
sürücü
kurş
Başta
##usuna
duruyor
##iciç
gösterg
müzakerec
yayım
kazanarak
kaynaklarının
akaryakıt
##cher
sonuçlanan
oranına
olasılığının
salt
eğitimli
tahmini
bölgeden
siyasetçi
düşünüyoruz
zarara
Romanlar
##larımıza
altıncı
sindir
##afax
semt
yansıtıyor
masraf
Djukanoviç
yenilenebilir
sayfalık
şüphelenilen
Destek
Kopen
reaktör
İnşaat
kalite
çeliş
Dolayı
Cema
Dağ
Ec
Ero
Gaşi
Nen
Sc
Tanın
aşı
idam
kum
##desi
##kleri
##EP
##anlık
##dip
düzine
hükümetlerin
taahh
anlaşmasına
bulunmuştu
tutma
##lamıyor
anlaşmada
Komşu
sermay
haberinde
katılımın
beklendiğini
iddialı
atlet
bunlardan
##yargı
Boskovski
faaliyetlerinin
Prodi
gelişmekte
Rauf
tanınıyor
anlamı
Inter
Katar
##emediği
kararlılık
Derv
fonlarının
temsilcileriyle
satışı
karşılaştığı
civar
bariz
Mediafax
mirası
Emil
görevlileri
##sanız
işlevsel
Gerçek
İmparatorluğu
yitir
Kopenhag
Bed
Büt
Futbol
Jas
Pir
iv
pen
pren
tetik
##ld
##saydı
##ood
##djan
##nez
##xe
##lamıştı
##ens
##enko
##eld
kaza
olmuştur
etmemesi
seçilmesi
Rompres
özür
İskender
ihal
köt
turistik
sürdürdüğü
##lemenin
hatt
görüşmelerinin
istiyorsa
beklemek
başarısı
dönüşü
anlaşmazlıklar
aileleri
ihtilafının
takımın
Üniversite
başvurusunu
referandumu
umud
bilinç
düşürdü
mesajı
##ijinal
çabayı
Tartış
yolsuzluğu
arkeoloji
Kampanya
Heyet
bayrağı
AIDS
rafiner
Stamb
atmosfer
Dolayısıyla
71
98
ES
Foc
INA
Sy
Todor
cari
ga
hev
sız
varı
İcra
##sinden
##by
##çesi
##ger
kavg
yapmakla
buz
##laşması
aylar
##ezza
katılı
geçmesine
##ukatı
çıktığını
suçlardan
bölgeleri
gösterileri
tutulan
uyguladığı
hazırlanması
merkezine
ziyaretini
sıraya
ilerlemesini
tamamlamak
vatandaşın
Anlaşmada
##landırı
adaylığı
askerlik
yürütül
kuzeyinde
Stev
kaybol
##lanacağı
Marin
çalışanların
Sözcü
isimler
cinsel
festivalde
##shori
notu
CEO
öldürüldüğü
hamle
İdari
Cenevre
Milliyet
Kızıl
tahvil
##ünikasyon
Condoleezza
81
AT
bık
Şarkı
##leket
##sında
##pat
##aspor
##imnas
##aze
veriler
verdik
geleceğine
üyeler
Başlangı
Makedonlar
##usal
sahil
çalıştır
bağlayacak
aza
genelkurmay
ziyaretçi
zamana
söylerken
sürdürmesi
Stat
Daianu
durumdalar
firmanın
malları
standartlarının
vurguladılar
##oburg
eylemi
değiştirmek
operasyonun
##linik
diyalo
ilerletmek
herkese
hapishan
kazanıyor
popü
sessiz
yurtdışındaki
İzleme
buldular
deyimiyle
İdaresi
erteleme
yerleşim
##lımlı
münferit
rady
muhafazakâr
Protesto
ayrılıkçı
İstihbarat
74
Lam
Nine
PD
ero
##km
##dap
##ırsa
##ağının
görmüyor
geriye
##artman
söyleyebilir
geçmek
gereksiz
##dare
sağlan
Belge
telaf
gösterisi
##ansür
üçü
devletler
kaynaklardan
mahkemeler
destekçiler
toplantıdan
yazısında
Brc
tahsi
ticaretin
düzenlemeler
politikalar
desteğine
belgeler
kazandılar
Parlamenterler
öldürüldü
dinar
##layacağı
topraklarının
listesine
bağlantıları
yaşandığı
gücün
makul
Andy
edilmişti
çoğunu
ulustan
Monitor
başlayacağını
enerjisi
kınadı
Diyarb
cevap
ihracatı
Diyarbakır
Cokoviç
Günde
Jur
Kaf
Mült
Petrol
Say
Sutan
lu
Çık
üne
##şey
##tük
##DY
##EC
##irmi
##asi
yapılmasına
arasından
anma
##tacağını
söylemişti
ekonomisine
sayede
tekn
sonuca
##lock
hedefler
ilerlemeler
yasalarını
sayısız
tanıtım
termin
inşaatı
Anlaşmasını
desteklediği
ayrılması
teröre
firmalar
tane
çalışanlarının
büyümesi
yarışı
temsilcilerin
sığın
patlayıcı
Müzik
yararına
Bağış
ateşli
inşasına
oynayan
koltu
katılımcıların
demokrasinin
çocuğu
Meto
disiplin
prens
Başlangıç
Bra
Bara
Bamir
Cam
EP
Hot
Hizmet
Nes
acel
sap
yeme
ölen
İle
##mut
##MS
##anlar
veri
##lena
##haleyi
işin
Ardi
suçlandı
yapılarına
aralarındaki
görüşünü
gösterme
döndür
müf
##ivan
nedenlerden
döneminden
Martin
oluşturduğunu
faaliyetlerin
kimyasal
yönetimini
gitmesi
kaybede
belediyesi
politikalarını
soruşturmanın
bankaların
mevkidaş
yakalanması
diyaloğun
##lasiç
##lastik
ortamda
ihtiyaçları
Christ
rejimini
dayanışma
kavu
söylentiler
Dink
meslek
dakik
uygulamasının
Toplantıda
arkeologlar
Lazarova
gölge
helikopter
Fried
Tanınmış
##imnastik
BTA
Emir
Ton
Wall
##bel
##bor
##lamasından
##maj
##duat
##amıyor
yapmakta
sürülüyor
bulunmasına
özet
kongr
varsa
##acaklar
partilere
duyg
değişiyor
##ria
aldık
##chi
onaylandı
çözümler
katılmasını
öneriler
##luğundaki
üretken
bankanın
pazarının
değerlendirdi
makamlarını
Radovanoviç
vurguluyor
ödemesi
endişeler
Politik
kalanı
Turnuv
istemiyor
vermedi
kapatılması
katılanlar
işletmeler
geçmişi
kapasiteye
noktasına
Yılmaz
oyuncular
komisyonun
ettiklerini
Havaalanı
coğrafi
Brajshori
##mbud
Eroğlu
Focus
Bey
Fe
Lavr
Okul
olama
saç
##teri
##ube
##çının
##jeviç
##eliler
etmeyeceğini
gününde
açılmasını
##iliğin
geçmişt
göm
##eff
açıkladılar
##iğeri
yapısı
milyonluk
planında
binasının
zorlaştır
Hersekli
##lendirme
yayınlandı
gözet
sonuçlarına
dörtte
gerekiyordu
katılarak
tahliye
küçült
düzenleniyor
edilmesinin
bekliyorum
bölünme
milletvekilinin
Bunlardan
Novos
daydı
metal
İsrailli
modernizasyonu
yatırımcıları
inceleme
denetleme
başarısızlıkla
kendileri
CoE
Çağrı
iadesi
izleyic
Diyal
umuduyla
vaad
havaliman
Lavrov
83
EIB
Is
Ir
Kraj
Ru
Sesel
Za
kimi
spek
çeki
##iljana
##ulma
görecek
##evska
##masındaki
orijinal
##letoviç
Budap
üyeleriyle
uydu
##use
##afer
##grama
durumla
liderlerini
##ilediği
davasında
ziyaretinin
ortakları
projesini
hedeflere
sanmıyorum
sistemleri
şeyleri
vatandaşlık
engelleri
adaylar
olayda
faaliyetlerine
görüldüğü
bakıldığında
gelişmeleri
gönderilen
hiçbiri
Stav
Daci
istikrarını
makamlarına
çoğunluğunu
bırakıldı
fiyatlarının
bizzat
Devletleri
Libyalı
böylece
Stein
ölümüne
deleg
yüzyıldan
Ivanov
talimatı
SPS
herşeyi
##dümlü
Kulüb
Milletvekilleri
yedek
çocuğun
ufak
Hiçbir
Philip
elimiz
Nikolay
Brcko
Seselj
Caz
Coburg
Tha
parası
plaj
rock
tor
şof
##ima
##rey
##AE
##qi
##lası
##unç
##att
##lanmaları
yağı
arşiv
Arjan
yakıt
biliyor
çıkmaya
hakem
düzenliyor
Romp
çalışanı
ellerinde
planda
fazlasının
ihmal
aktiv
yasama
atmaya
##bank
ressam
bulunuyordu
geçirildi
faaliyetler
hizmetler
yürütme
bekley
etkileyici
ağaç
eylemler
##bolik
##nier
Holding
Romanların
rakamlar
potansiyeline
suçlamada
statüsüyle
yapacakları
rekabetçi
konferansına
zaferi
fikirde
katliamı
gayrı
Saxe
herşey
kitabı
Öğretim
uyandır
World
Bayan
Eleştir
Herkes
Lim
MW
Mut
Ned
UD
eleme
nevi
utan
öy
##tisi
##keli
##rop
##ğünde
##etbegoviç
bula
inf
##laşmış
ülkesini
##tali
konuların
açması
yeraltı
Sırpça
Hırvatların
avukatı
gösteriler
yasasında
kapatı
kararlarını
param
bulundukları
merkezleri
kendim
Kongresi
evet
tesisi
2015
ulaşma
memleket
oluşum
kadının
beklediği
bilgiye
ICG
üyeliğin
yakalama
festivale
##lines
devreye
kalabalı
sorunuyla
başvuruda
miktarı
##meliyat
delil
referandumda
entegrasyonuna
Araştırmaları
Festivalde
tüketici
Petroviç
Süreci
Bekiri
çökert
1974
kaydeden
Airlines
tecrüb
Gabriel
Azınlık
oybirliğiyle
Struga
ARM
Coviç
Je
Misyonu
Onun
Tim
bini
diğeri
yel
##lon
##lini
##bro
##CP
##iklet
##ayeti
arayan
vermesine
veritab
alınıyor
sürtüş
##cağının
sağladılar
parlak
varlığının
yardımın
oyunun
kişileri
erişimi
##ıldız
partiye
yönetmeni
Tale
faal
ulaşması
programlar
##ody
iddialarını
kişiden
askerî
meselelerin
tehdid
cezalar
cezaları
değiştirmeye
seviyeye
Koha
ortamını
Kaletoviç
Fatos
Simitis
talebini
teşkilatının
kaliteli
uygulamasına
Göç
gerçeği
Takım
Sergide
babası
Emekli
kışkırt
2020
Gordana
Telegraph
yukarı
Sutanovac
Zem
size
Çöz
##tas
##redi
##nica
##fin
##bayı
##ğen
##çu
##lamasında
##tiki
kamer
##dum
##tegre
kurduğu
açıkladığı
##ment
seçmek
çıkmış
büyüklükteki
bağlayıcı
##ansa
özelliğini
sonrasındaki
binanın
ilerleyen
Anlaşmaya
edileceğini
##doğusundaki
şiddetin
kadınlara
davalar
koyuyor
Koci
nitelendirerek
etkilerini
taleplerini
##atih
koşulların
medyaya
bütçesinin
bütçesini
yapıyorlar
kamuoyunda
profesör
bitim
arkadaşı
Ohrid
yüzyılın
Yasası
bürosu
kullanımını
uğradığı
Matt
dostluk
gözaltında
yayınladıkları
simg
gerekirse
Ameri
sizin
istediklerini
Straz
devralacak
yumuşat
mantıklı
damg
meclisteki
Soruşturma
Arjantin
Ail
Aust
Danış
Kiş
Net
Niş
Ora
Saf
mim
ça
##ogra
##tay
##rası
##era
##ilmek
yapmasına
önlenmesi
vermekle
Türkleri
sözler
yapıları
onlarca
bulunmaya
bulunmuş
olmalarına
dönüm
tekstil
unu
müze
demir
girme
özellik
eriyor
açıklamalarda
çözmeye
edebileceğini
ilerlemesine
##sizliği
başkanlığında
sürdürül
Sava
fail
önerisinde
eşiğ
gönderildi
meselenin
edecekler
uzmanların
türban
Sekiz
##lamasıyla
başbakanları
Franco
kapasite
Adnan
rakamlara
ihtiyaçlarını
konumu
rejimin
Standard
birbirinden
kapasitesinin
içeriyor
esir
Popoviç
başlangıcı
Stefanoviç
eğilimi
sembolik
sergiledi
##eceğimizi
safhasında
ışığına
meslektaşı
balıkçılık
akademisyen
işadamları
Pulaj
Tüzüğü
roman
Powell
kağıt
Bedrana
Strazburg
DNA
Eğer
Güzel
Mob
RTK
Yedi
min
çatı
ılımlı
##say
##oda
##ihn
##nel
##nut
##gur
##OL
##erali
olmanın
##lenecek
##lenmesine
Türklerin
Avukat
çıkmasına
bulunurken
yasağı
##eanu
kalmasını
kaynaklı
##okratik
şirketlere
çıkarmaya
##mila
yasalarına
yazdığı
yoktu
atması
yakınında
engelleme
önerdiği
adayların
Mahkemenin
yaşamı
zorundayız
işbirliğinde
hissesi
itfa
Serge
devriye
##ulduğunu
hızlandırılması
çizg
çoğunlukta
sabır
Vergi
incelem
Operasyonu
komutası
Blair
muhabir
Bildiride
hemşir
ibaret
işyer
##ometrik
seminer
Fatih
JAT
KES
Mek
Sul
Sendika
Tud
plastik
##riç
##uka
##geli
##way
##elsef
##orge
##esti
##ete
##diğimiz
birliğin
kader
##üms
endü
söylemekle
yöndeki
Başka
##eftiş
açıklıyor
##yıp
##lığıyla
kişilere
yaklaşmakta
Albert
Orhan
partiyi
bakanlığın
haberleri
taks
adlandır
olacaklar
geldiğinde
yetkililerine
sonuçlarının
160
Boru
vurdu
kaldırmaya
Bölüm
işbirliğinden
saatler
öldürülen
Doları
başvurusunda
kamuoyunun
Trab
marka
indirim
Mitroviç
paketini
kabinesi
kabinenin
öğrencileri
uğradı
##COM
Pakistan
Kabashi
##utinoviç
otomatik
Madrid
galip
ambar
seyirci
Ramuş
##jevac
ateşkes
Medvedev
Derviş
umudunu
Beth
Ede
FE
Hali
Por
Tuğ
West
ab
ameliyat
lağ
motor
rüt
zihn
##HR
##inite
##tılı
##eçh
##avuş
etmesinin
güncel
verip
##masyon
##ceği
##ilmeli
##eşte
hükümetten
belirledi
bölgesinden
kadarki
göstermektedir
olmamakla
yasada
alanlardaki
hazırlama
mahkemelerin
##leyic
keskin
gerçekleşiyor
ilerley
çekmeye
gözle
Priştin
değerindeki
sürdürdüğünü
çabalara
kentine
tamamını
bakıyor
##meyle
Bilg
saldırının
terörizm
Miroljub
Muammer
noktaya
Denet
Hastan
Gazeteci
nakled
hoşnut
Sürec
kullanımına
Ankete
##güte
Anayasası
##ques
Gelenek
savunucu
Caviç
kurbanı
Sonrasında
Novosti
KESH
87
Dep
Fit
NB
Sil
Sasa
Ze
kup
renk
troy
Çev
ömür
##yım
##kas
##lasik
##ang
##illi
##anıt
##oke
verir
verildiği
##role
sürülen
kararda
konunun
ilki
kalmadı
hazırlayan
çözüle
##lob
##sight
sağlamanın
##otis
mevduat
##dikası
çıkaran
üste
raporunun
Sarayı
##inger
ünün
yargılan
kuruluşun
pazarlama
gittiğini
mallarının
yendi
seviyesini
eyalete
operasyonları
Komisyonun
##lasyonu
misyonuna
kuvvetler
sergilediği
birbirlerine
geleneklerini
Foni
ceph
egemenlik
kaygılarını
öğrencilere
Biden
Poor
Corceviç
Fiat
Binlerce
kemer
Galer
virüs
organı
Başlangıçta
Budapeşte
rütb
Agr
Bot
Ion
Kova
Min
PN
Rem
Rog
fuh
posta
süper
tra
tüf
##olk
##batı
##RN
##inoviç
##işti
bulama
gelmiştir
sürerken
işgü
Türklerinin
geçtiği
ettiğine
belirleyecek
ilgisini
yapılacağını
haklar
denli
savaştan
dışına
komite
eskiden
habere
sınırında
Miller
termik
atıldı
Hazar
televizyonu
eşgü
firmasının
Radmanoviç
##oje
gençlik
artışa
##demli
artarak
serbestleştirme
koşulu
talepleri
baskısı
sağlayacaktır
kırıl
GSM
Novinite
korkuyor
ölümü
Geleceği
önlemleri
sarf
sundular
nakli
lise
bulunacağını
geleceğinin
iddianame
Kabaşi
irad
üss
kaydede
Rahibe
düşünülen
Razvan
çeyreğinde
mafya
Priştineli
Foniqi
AAK
Cro
EX
Plav
bed
dom
ihaleyi
loj
mater
sil
##feld
##inalı
##lerse
birliğine
##atürk
##ememesi
sonsuz
konularını
yönlendir
toplayan
olayla
tarafta
subayı
belirleyici
##dığımız
haksız
193
getireceğini
olmamız
ilkelerine
güvenliğin
imkanı
##uyucu
ortaçağ
yönettiği
turn
yetkilileriyle
sürdüren
tered
##janin
kentte
teşhis
Kariç
Karolos
tedbirlerini
Mlacan
Stra
filmler
ileride
partiden
asay
ağının
arttığını
Insight
sivillere
##entbol
politikasına
Yorgos
piyasaya
Hoca
alabilir
referanduma
bahar
##ımıza
Ljiljana
ilgilendiren
##ierre
şansının
İzlanda
büro
Emniyet
verileceğini
Gölü
tavsiyede
dünyasının
reddederek
lehinde
İlir
ajansına
çeyr
kaçakçılıkla
Nicolas
harcanacak
yöneltilen
Jacques
Aşırı
körük
Gözlemciler
Meydanı
Zannier
Feith
Zemun
FENA
Ağ
Açılı
Had
Pi
Sine
TI
Troy
Yok
cer
kuz
kütüphan
van
yalnız
##pol
##cev
##zm
##N1
##BC
##err
##lanoviç
##ayarak
yapıldığını
vermeleri
anne
anısına
entegre
topr
Başp
suya
seçme
##hew
getirmeyi
görüşmenin
kararından
konak
doğusundaki
Birkaç
kolu
sorunsuz
komp
köşe
döneminin
hedefle
değişti
örgüte
Komiser
Demir
evde
sürdürecek
çalışmaların
şartlı
kıta
sunması
##memekle
eşsiz
yönetimine
azaldı
##dıkça
dönüştü
moda
arttığı
gelirken
değiştirilmesi
Parlamentonun
koyma
eyaleti
##madıkları
Mih
##layabilir
Holbro
sürdüler
listesi
satışa
işletmelerin
korkunç
atılım
fırsatlar
##ımızı
televizyonuna
araçları
Yılın
durdurmak
seyret
kaçakçılığıyla
##onald
sembol
Bitiki
kalitesini
Tasarı
tasarısı
metrekar
otorit
##njak
işveren
manzara
Nicholas
Ürdün
enklav
spekülasyon
Holbrooke
88
Ran
Sem
Svi
Vir
best
gazı
hük
kuy
piyan
zehir
##sov
##dt
##düt
##gini
##gılı
##OB
##enik
##orma
dediler
##ileriyle
##ümü
gelmesinden
##iliğe
sular
yolunun
##tikten
192
çalışacağını
dendi
gösterilmesi
düşmesi
olmamasına
uncu
Pres
derneği
kaynaklara
ilişkisi
toplumuna
bildirilen
değerleri
##janoviç
olaylarına
örgütlerinin
sunmaya
askerin
Mahkemesiyle
gruplarının
kimliği
kaldırdı
etkiliyor
etkileyecek
Mars
standartlar
olmayacağı
Daire
endişelen
Papuli
Önce
Kürtlerin
Rapora
Korgeneral
Char
##canin
Onay
teknolojik
adaletin
köyü
suçluların
Kesin
mülteciler
hastalık
temizleme
Projede
Referandu
umuyorum
imalat
Tassos
sandalyeli
Toplantıya
tasarıyı
biyolojik
yapacağız
harekâ
duyan
ideal
gidişat
William
##tadyum
federasyon
heves
Rompuy
Bon
Gec
Gön
Pahor
Roc
Zdra
nakit
yirmi
Çif
öv
Şehir
##mun
##tey
##cilere
##ğümüz
##ung
##asal
##uru
olgun
önder
açmaya
yönel
toplamak
tarafa
##bilen
hükümette
teor
aradaki
##ildiğine
ellerinden
yetkilinin
Alban
sorunlarının
sınırlarını
gözetim
atılması
çalışmalara
geçirmesi
hayatı
engelleyen
olasılık
şartlarının
şartlarından
##uvarı
170
eğitime
meselesinin
yönetiminde
okulu
maçı
saldırıya
cezaevi
katkılarıyla
zirveye
yaşaya
uygulamaları
aileler
duyurdular
kalacağı
etkinlikler
borçlarını
Dernek
##ılmaması
noktaları
makale
Moody
##emeyeceği
çiftçiler
oynuyor
ötesine
Manastır
prosedürleri
Projesi
Şirketin
geleceğiyle
Birlikte
##raliyet
PACE
##hafız
sorguya
harcamalarını
simgel
simgesi
Kampsch
dengesiz
Mitev
borcunu
beraberinde
Trajkov
yalanladı
Elec
Vesna
Önerilen
Rekabet
ECB
Srbija
Kulübü
infaz
bedeli
tereddüt
Papuliyas
Zdrav
Kampschror
96
91
99
Dom
Gök
Hil
Obra
Rod
boğ
bert
gül
kasıt
teftiş
Çavuş
##mon
##ebiliyor
##vest
##tibat
##duy
##ağına
etmey
yapmıştı
önyargı
bulan
##lenme
##ştun
güce
karşıladılar
açıktır
sözünü
siyaseti
Bulgarlar
getiril
görüşleri
amaca
##reda
kararla
belirtilen
belirtmiş
oylamaya
girmeye
girmiş
##brik
imzalayan
nedenleri
Bakanlığının
dolandırı
başkanlığının
sürdüreceğini
öğle
oluşturmaya
artırması
azaltı
küçül
çocuklarının
##press
eleştirilerine
uyarısında
diplomasi
Koştun
gidip
komşusu
yakalamak
Petkoviç
##andr
olanakları
Josep
tesisleri
paylaşıyor
kazanı
gribi
yüzyılda
temizlik
üstünlüğünü
Programda
cesur
Ivanoviç
yatan
oylamanın
çatışmaların
mahrum
sandalyelik
Drazen
vaatlerini
Yargıç
istenen
prop
Doktor
Milenkoviç
Necdet
kokain
kırılgan
bertaraf
86
Bac
Ni
Ses
alık
teçh
##otiç
##tesi
##fil
##AC
##anet
##unoviç
##ong
##disi
##dular
##teşem
karşılaşma
Başa
konusuna
düzenleyecek
gösterilecek
Komit
hazırlıyor
reformlarda
bütünlüğü
sınırın
tarzı
##hane
düşünülüyor
sektörde
ulaşan
destekledi
Bors
##odeli
niteliği
etkinliğin
kaybı
zanlılar
endişeyi
değiştirme
saatlerinde
ilanından
toplantısının
ailesine
dille
Raporu
medyada
alabilecek
korkusu
vergilendir
atılacak
Pekusiç
Grubun
referandumun
Srebren
Max
yıkıcı
Teresa
Şimdiye
Ödülünü
hastane
isteği
yükseltti
mahal
biyometrik
yenileme
Transil
kulak
etrafındaki
Lukoviç
kısıtlamalar
Yönetmen
tecrit
beldesi
yetkilerini
ardında
ordusunun
kahram
meblağ
diaspor
Olympic
kavuştu
Geleneksel
EXIT
Obrad
teçhiz
Gran
HS
Kütüphan
Ri
Sı
Vesel
gala
klasik
lok
süs
slo
yuv
##ama
##nost
##MB
##lal
##etiç
başk
başlandı
##tadır
konuma
gelebilir
ayının
işlemek
ının
Arif
göğ
milis
durgunluk
anlaştı
getirilecek
##astava
görevler
diğerlerinin
konuşlandır
girdiği
koc
ortalarında
haftada
sınırına
sınırının
toplumla
Atatürk
evi
eve
Enver
kentinin
düşünmüyor
artırarak
kuruluşlar
Proeski
vurularak
Kurban
Stoy
yaratacak
Radmila
muhalefeti
serbestçe
kaydederek
Polisi
ailenin
öncelikler
kanıtlar
Onlar
saklandı
belirlendi
kızdır
açılışı
yetkileri
eserleri
##dükleri
paketinin
gayret
kolaylaştırmak
yetersizliği
Bağımsızlık
bünyesindeki
dergisi
yağmur
düzenlemeyi
kınayan
emrini
anahtar
##kestrası
Samarciç
samimi
Thaci
Matthew
slogan
Alak
Dit
Fir
Federal
H5
Male
Nükleer
Sib
Yovanoviç
Zastava
alet
br
ir
meg
yör
zedel
##sor
##itif
##bur
##biyet
##ves
##lata
##tica
yazan
başındaki
yapmasını
##stro
sömür
söyleş
geçme
##bildi
yakının
sözlerinin
programa
zammı
tems
##ilebilecek
davasının
Gent
kaynaklandığını
öncülü
hedefe
katılımına
##ociç
sistemlerinin
##aganda
Savcılık
onaylaması
tamamlayan
Rumları
daireleri
sunul
Kararı
Ülkeler
Geçici
ciddiye
yaratan
bırakma
düzenlemek
Festivale
parlamentodaki
stratejisinin
stratejisini
Kürtçe
maaşlarını
Suudi
Televizyon
okullar
Georgievski
heyetine
çapındaki
fırsatları
ürünler
konsolos
Başkanlığı
Hasan
kurallar
trafiği
çetin
bahsed
sakinleri
isteksiz
kaçırma
çeşitlilik
yenilg
ahlaki
psikolojik
Tasarruf
Letonya
Scot
Svilanoviç
propaganda
Cla
Clu
Cap
Darko
DTP
Kru
akı
kıl
maz
niş
peş
vara
şiş
##amaz
##oil
##tes
##cy
##jli
##IP
##labileceği
##iloviç
##imli
##iminin
kale
içinden
karayol
yılını
açmış
##ilmeye
bölü
tarafları
büyüt
Arnavutlara
kenara
tebrik
getiriliyor
imz
sorunlarına
Reisi
insanlığa
değiliz
bakanlıkları
sürecinden
##gang
mevk
ayrılacak
sanay
yasalarının
Millet
evlerini
yetkililerden
##tıktan
borsa
olaylara
örgütlerin
başlattılar
##ümüzde
okur
silahlar
silahların
##ogle
Scho
artışın
anlaşmazlığına
Kürtler
bütçesinden
uygulanmasının
suçlamaların
uzaklık
rejimine
planlıyorlar
Yakup
unsurlar
bomb
bulunmayan
##sinki
cumhuriyetin
umuyoruz
Kalkan
dolaşımı
Gençler
kırıklığı
Passy
Leak
beğen
olduğumuzu
çıkarıyor
lehine
görevlilerinin
muhtemel
bakımından
özgürlüğüne
pozitif
endeks
Helsinki
seçeneği
hazin
gevşek
Hiseni
Hüseyin
Nenad
Stamboliç
tahsilat
Politikası
##mbudsman
fuhuş
kasıtlı
Alakbar
Ditore
97
Dede
DDY
Flor
Hala
Lip
Müt
Mavi
Sat
Wal
jimnastik
mis
piş
pres
##ses
##des
##ker
##ktaş
##incisi
##esku
##eter
##lisi
##ralı
##stak
##kanoviç
##erson
biliyoruz
##iğin
##ibeli
duran
haklarında
yanda
yandaş
halini
bulunmasını
durumuna
hazırlamak
basının
mevkiler
izola
mücadeledeki
polisle
üstünde
Atom
gözler
doların
sisteme
engellerin
önerileri
ünit
cezasını
duyuruldu
Kurti
niteledi
pazarında
##lanmadı
yaşadıkları
güneydeki
bütçesine
ürünü
temsilcilerle
vergiler
vergileri
Sosyalistler
ürünlerinin
Denktaş
##ımızın
adaletten
itibarını
Popovski
Boşnaklar
düşüşe
fabrikasının
Antonela
sarfet
yükümlülükleri
doktorlar
Köy
alışverişi
uzlaşmanın
Oyunlar
uygulamasını
Bayramı
bahsediyor
Doğal
dalgası
##herine
kulis
karakol
rehin
rehber
telekomünikasyon
bölgelerdeki
özgürlüğünün
genişlemesi
akademik
Kragu
açıklanmayan
Wolfgang
lojistik
Leakey
Baj
Gos
Gates
Lo
Lov
Mel
Sak
Sey
Tor
Tıp
Vul
oli
ray
Çiçek
Üret
##cer
##watt
##HCR
##iro
##onyalı
##eyip
##amış
kartı
gününden
verileri
##içi
süresini
kuracak
karşılaştır
sözc
Soy
ekonomileri
uzan
görüşler
seçime
##liğindeki
tutuluyor
ortasına
olmaksızın
hazırlıkları
güçler
ortalamasının
partili
partisinden
değilim
reformlarının
öncül
##diku
sınırlarının
adının
##rica
Miliç
Erhard
tanıyor
Günleri
şeyden
Konstantin
ulaştır
kıt
İşler
dairesinin
UNHCR
yürütülecek
ciddiyet
rolünün
azalması
sıklıkla
etmediğini
beklemiyor
silahsız
zanlıyı
yarışmasında
kutup
azınlıklar
tutumlarını
bütçenin
oynadı
verildiğini
bilinc
sağlayacağı
festivalinde
savunarak
donat
köyünde
kurallarına
Fonlar
Yıllık
önlemlerin
grib
1984
gerginliği
sorularını
Festivalin
Vuc
egemenliğini
reddetmesi
başsavcı
Petrescu
Görevdeki
araştırmaya
havaalanı
Malta
safhada
Google
pozisyon
Filistinli
RTS
Trakya
PNL
Transilvanya
79
92
Clar
IPA
Liv
Ladin
Rud
Sok
Sit
Tet
Tep
Yeşil
Zlatko
diş
gru
jüri
vakit
çat
##jo
##lerdir
##emekle
##emeyen
##dut
içinse
başlık
yapabilir
arsa
günün
verebilir
##itler
anti
açmıştı
gelmediğini
##cılara
yerleri
işlerin
olanların
kurak
olaya
##alis
kayda
hükümetlerinin
##tiklerini
deniyor
görüşmeye
görevinin
vardılar
kalın
yaklaştır
kullanıldı
hazırlandı
liderinin
Pros
ziyaretin
nedenlerinden
destekçileri
polisine
kaçmasına
alınmasına
bağımsızlığa
Engel
##tarken
yürür
geçirmeye
önerisine
olaylarını
gerçekleştirmek
gittikçe
bağlılığını
şiddeti
bilgilerin
politikalarının
soruşturmayı
davalarını
giderken
saldırıların
saldırısı
medyası
yarışacak
isimleri
ilanı
Krst
kesimlerinde
Down
seçmenleri
Telecom
zararlı
##lyeviç
karşılaşmasında
marj
üstlendi
Bizans
limanı
gecikme
Uyuşturucu
kalitesi
demokrasiye
generalin
tersan
madencilik
İdare
gerginlikler
skandalı
lerde
çarptırıldı
Yönetimi
Hatta
kampanyasının
sabahı
SEECP
muhafazakar
Gregor
Yenilik
hücr
teminat
sicil
Vecern
kurşun
dakikada
##ways
Açılış
Rocen
presti
gruba
Bize
Fou
Fuar
Jag
Kah
Raf
Sw
dra
herk
ob
ısıt
##bilm
##vay
##ân
##BM
birisinin
##izme
başlarına
görmez
##avat
##abildi
karanlık
vermenin
verilerine
almıyor
aylarca
aylardır
bulması
suyu
çalışı
yapılacağı
191
getirmede
ilkeleri
ilkokul
tutmaya
##melerinden
hazırlıklı
liderlere
liderleriyle
Orgeneral
kazandığını
genelindeki
reformcu
kaynakların
taksi
ortaklığı
toplumdan
değişimi
çektiği
sonuçlandır
farkına
önerisinin
sevilen
Saraybos
hizmetlerini
katılacağı
Mahkemesine
hatları
kesinti
kaldırılmasını
cumhurbaşkanını
uyardılar
davalarının
tavrı
görünen
diplomas
Dairesinin
geliştirmeye
Kriv
bankaları
tehditleri
Serv
azınlıklara
##ederken
ifadesine
sonucun
piyasası
komşuları
çevresel
belediyenin
esin
paylaşımı
şansına
soruya
550
fikrine
Gösteri
bombalama
engellemeye
zorluklar
Konuş
keşif
keşfet
sıkıntısı
demiryol
konsorsiyumu
Gjorge
Önceki
yumuşak
nezaretinde
Lehne
Catherine
medeniyet
laboratuvar
Barack
endüstr
materyal
Mihay
teçhizat
H5N1
A1
Bing
Cad
Dar
Evet
IOC
Mekan
NMS
Ti
Vize
Yurt
bine
modeli
omuz
sosyalist
sansür
traj
usta
##tın
##ET
##esh
##lıyız
##isiyat
dez
kafa
görmeye
etmeli
ine
ülkesindeki
##tag
geldik
##ülmüş
işine
Bud
güdümlü
suisti
edilip
yeteri
suçundan
sahtek
yapıp
dönüyor
kararların
kararında
belirtmekle
kalmasına
giriyor
koyan
ediyordu
açıklamalar
##leşmenin
imzalamak
haftalar
Bankanın
projede
sınırlar
hedeflenen
##lendirdi
çıkardığı
##rija
evine
evinde
##lükte
Partiler
kıdemli
İşleri
banliy
kurulunun
nitel
askerlerini
kültürü
Daimi
Bildt
krizinin
kesint
girişimini
alır
kendisiyle
türünün
kanat
kanton
ödemeye
kaydedil
ilanının
yaşadığını
sporcular
sağlıklı
maddeler
koşullarının
Müslümanların
ortamında
kaybetmiş
House
memurunun
koruya
eseri
kızgın
firmalarının
ilgilendiğini
maliyetleri
atandı
ruhu
niyetinde
uluslu
arkeolog
##lescu
aşamasında
arananlar
trend
şaibeli
Zirvesi
McC
mağaza
Alka
Çağrısı
American
göğüs
Fouere
Saraybosnalı
##isiyatif
94
Cem
Eide
Fark
Rij
Soğuk
Yıldız
bis
fav
folk
uluslar
##yr
##düyor
##ea
##çev
##zim
##und
##tic
etse
aren
gelmiyor
Kosanoviç
Avras
yarısından
geçin
olacağız
olabilmesi
soruyor
karşılayacak
sağlığı
bileş
çıkıp
yetenek
yaşın
bölgelere
çalışmasını
getireceği
getirilmesini
sayf
dönmek
planlar
güvenliğe
##giu
sahiplerinin
başlayıp
yaklaşırken
tarihin
##loduy
bakanın
bakanının
nedeninin
##oto
projelerini
sınırındaki
dönemden
örne
toplantılar
şeylerin
çözümüne
tamamında
vatandaşlarını
engellem
tutuklanmasının
dairenin
adaylık
adımdır
iddialar
##tığımız
hareketle
organizatör
gittiği
girişiminin
mallar
bırakıp
eleştiri
Borislav
fiyatlarını
##laştırmak
soruşturması
motiv
azınlığın
grubuna
seviyesinin
bizler
kutlamak
operasyonlar
uygulamayı
Önde
tasarısını
uçağı
istemediğini
oynayacak
çiziyor
muhteşem
korunmasını
koruyacak
Hasta
Suriy
hakimler
hakimlerin
atanması
ayırdı
göçmenlerin
İsveçli
şartıyla
Traykov
Tatlı
olmazsa
tutarlı
dolayında
ardındaki
disipl
Gazetecilere
KPC
Free
standar
setlerle
gereksinim
Kozloduy
Ofisi
taahhüt
Edebiyat
rütbeli
Charles
Obradoviç
yakınındaki
banliyö
Avrasya
Bl
Bre
Dabil
Iliç
Jak
Mag
Vah
You
ba
bası
baba
dili
key
kok
mon
mec
tap
İliç
Şiir
##lunun
##mın
##jen
##mad
##maların
bira
##eyt
##eyse
##ağaç
vermey
gelme
gelince
##ilmemesi
kuran
kurtu
##ezi
sağlanmasına
sözlerle
yapılar
bağlıyor
çalışmayı
getirmesini
gösterdiler
belirtirken
parasal
alana
sahipti
yaklaşımı
hazırız
edebileceği
toplumları
kentsel
onayladığı
tamamlanacak
katılmasına
başlatılmasına
yürütecek
##lamayacağı
meselesini
yarattığını
##doğusunda
##lanmadan
uzmanlık
çalışanlar
büyümeye
rekab
istediğimiz
olursak
anlaşmazlığını
tehditler
Baran
Ünlü
güneyinde
alabilmek
istifaya
törene
memurlarının
Online
sağlayabilir
üretiminin
ilerletilmesi
korunmasına
riske
donanı
müdahal
Polt
bulunmadığı
Şimdiyse
seslenen
müdahalesi
Simon
Dnevni
personelinin
ekipleri
Srp
Kilise
Göster
Gordon
isterken
sanıkların
Pavkoviç
Madde
yapılandırma
şaşırtıcı
tartışıyor
zinciri
ödeyecek
medyasına
Şahin
Ilir
eroin
vaadinde
##redit
Dedeağaç
Dabilis
Atan
Baba
Duy
Gri
Gana
Latin
Maj
Sret
bol
farkı
##ney
##neli
##cın
##ğüne
##ved
##RF
##anma
##illa
veda
##emediğini
##osav
##oster
##amet
görmesi
##üme
veriyorlar
##itz
##oper
almanın
sonlarına
engeli
Türkçe
Anag
karşılanacak
Başarı
ettiğimiz
çıkmasını
çoklu
yapıların
ondan
önemdeki
karargâh
işbirlik
uyguluyor
tarif
takas
sınırdışı
şirketine
attılar
##tris
çalışmalarında
düşünen
düşündüğünü
Rumlarının
vatandaşının
adaylığını
üreten
değişikliğin
barışın
etmede
bağlılık
heyecan
kararıyla
edeceklerini
yaşamış
gençleri
belgelerin
Sonunda
Miras
maaşlar
anketler
tasarlanmış
borçları
sürdüğünü
##canica
yanıtlayan
acent
yorumları
geçmişe
riskli
tartışmaların
noktasında
hesaba
kampanyanın
taze
Festivalinde
arzu
Milanoviç
Kalfin
##kullaku
mahall
boşluk
müttefiki
Airways
bilmiyorum
Tahiri
Havali
Milletvekili
sergileniyor
Gracanica
Sovyetler
İhra
listede
Ordusunun
Iliescu
hektarlık
suikastı
Saldırı
müzakerecisi
Nesovski
Trablus
Sibenik
bölücü
Hu
Kazak
Ly
Mağ
Tre
Teh
Web
Zenica
klinik
norm
yatış
##lek
##ija
##ğum
##inski
##lary
##ese
##ata
##ikatı
olun
olsaydı
içme
##elerdeki
bulacak
işçilerin
Avaz
Ant
yargının
##manlık
karşılanması
Başlıca
biliyorum
##adet
siyasilere
bulunmakla
Başbuğ
seçimlerle
İsma
kaldılar
güçlerine
devletten
davasını
Herse
haftadan
##leybol
##elenen
alınarak
ifşa
atarak
ulaşı
oranlarını
adayın
kuruluşların
gerçekleştirdiler
hareketinin
görüşmelerine
kadro
##mazsa
standby
bırakan
240
düzenlemesi
gazetecinin
##laştırılması
dikkatle
yarışmada
endişeleri
kolaylaştırma
baskılar
sanatçının
ifadesinde
yapıyoruz
araştırmacı
okullarda
kuvvetlerin
ölümünden
festivaline
düşürül
düşürülmesi
Kanunu
marat
Fonun
denetimli
geciktir
birimleri
yatıyor
mesleki
atama
maçında
bankasının
çevirdi
edinme
650
ertelem
Paskal
destekleyeceğini
kitabın
istisna
istedikleri
SNS
şaşırt
Havayolları
Gerçekten
Böylece
komünizmin
güvencesi
vatan
Eyaletin
yoğunlukta
duyuruya
Tose
ESM
Fitch
tüfek
eşgüdüm
Plavsiç
dolandırıcılık
Müttefik
Kragujevac
Rijeka
Anagnost
Crvenkovski
Cristian
Far
Jel
Kip
Nez
Ona
Ulah
Vlah
We
Zo
alay
elit
fer
güz
hibe
pir
slog
tara
##oan
##diniz
##kân
##not
##AS
##GR
##labilmesi
##osa
##omen
##kia
arg
açlık
açacağı
##lenmesini
##hac
sürü
##iliğini
göl
ekmek
suçsuz
suçlayan
ilginç
düzene
düzenleyerek
çalışarak
dönmeye
müj
azalıyor
kullanıldığı
partisine
##kodra
yönetilen
edemey
##leyeceğini
mevsim
Bana
ört
çekerek
çekilen
beklenmedik
atmış
##janovski
##mızın
üncü
olaydan
adımın
hizmetlerinin
Bankasının
oluşacak
kurulmasının
edilirken
Bill
girişime
girişimler
çoğunluğun
etkiledi
cumhurbaşkanlığına
yaşamlarını
Bern
türü
kanaliz
seviyelerde
kesiminin
operasyonda
kararlılığı
memnuniyeti
fonlar
inancı
sergiliyor
tüken
mensubu
koruyan
##inizi
fabrikanın
##abilecekleri
Maden
sunuluyor
oyuncuları
gündemde
sanığın
Branislav
Çalışmaları
dağlık
kullanımının
##lerimizin
sergide
taşımacılığı
Shkullaku
gerileme
gerektiriyor
Kuvvetler
köklü
tepkilere
nüfuzlu
dengeli
afiş
gurbet
lehte
Barbu
bağımlılığını
Dokuz
Doğrudan
katılıma
Kafkas
Diyalog
utanç
zihniyet
konaklama
Referandum
Hillary
prestijli
sloganı
Amir
Fiyat
Op
PR
Pej
Pierre
SI
Zeri
beyin
clock
no
rok
seb
yemin
Şala
##olan
##ews
##lacağına
##ilemez
##eller
##elos
##org
##atoviç
sön
##edom
açarak
##lenic
##lendiğini
Ann
olabil
karşılayarak
sağa
##usur
belirleyen
durdu
durağ
gösterirken
unvan
varlıklarını
ermesi
Balkanlarda
Alina
savaşta
komis
kazanmıştı
edebil
muc
kaynaklarına
kömür
projelere
Milutinoviç
Demiry
edenler
bildirge
Marty
##age
açığa
önerilerini
statük
şartlarda
başlatılmasını
adımların
desteklemeyi
sunmayı
değişikliğe
tartıştılar
tedbirlere
görüşmelerden
pazarındaki
sıkma
gazetecilik
değiştirilmiş
ihtilafından
Theodor
istemiyoruz
vermeden
##off
Meclisin
Vukceviç
heyetin
çıktılar
eksiklik
yaşandığını
ofisinden
manev
belediyelerin
Johan
İvana
faydalı
kasabasındaki
entegrasyonunun
kurallarını
verimlilik
##emeyiz
başkentin
kurbanları
gecikmeler
üstünlüğünün
Yasanın
trafiğe
enflasyonun
soykırımla
##SAF
iddianamede
Sadiku
boşalt
işlediği
Organizasyon
Kanadalı
yaptırımlar
Kadınlar
galibi
bölgelerindeki
Venedik
uyarıyorlar
anahtarı
hediye
Tsvet
Değişiklik
Bütçe
geçmişteki
domuz
##stakbel
görmezden
Blan
Dyu
Gas
ISAF
Kuz
Lor
Olum
Sta
Star
Tri
UEF
Yür
Yves
etik
hile
Öca
çı
##rom
##rol
##cro
##hazır
##News
##ınan
##ilo
##daj
##uncu
##ünc
aran
verilmesine
##itate
Artan
topar
üyelerin
karşılamaya
görebilir
yaptıklarını
##ske
denge
şekli
müte
parmak
konv
elç
alanların
temyiz
kalmıştı
kalmayacak
##imizde
eriş
hazırlanmasına
kazanmaya
kazanmış
bakanların
ziyaretçiler
ikram
yatırımlarının
projelerinin
izn
izleyecek
yayınlanacak
kurumlarında
çekimser
bildirisinde
haya
##mıza
Güler
artırıyor
##meme
gerçekleştirilmesi
askere
filminin
değerlendirmesi
girişimde
eleştiriyor
buradan
kötüleş
hukuka
saldırıyı
Herman
endişeli
almadan
anlaşmazlığa
ailelerine
ihtilafın
yakalandı
Mila
Haberlerde
kalabilir
diyaloğa
##manız
Televizyonu
uzlaşmacı
geçmişin
istihda
Spas
tesisin
tesislerin
milliyetç
##letizm
kurallara
mutf
kısıtlı
büyükelçileri
yetkisine
sorumluluklarını
biriminin
kalacaklar
egemenliği
ithalatı
kaygılar
talebiyle
maddesi
##bette
Oyunların
Teknoloj
kurdular
Aleksander
Müzakerelerin
Veles
borcunun
anlattı
antren
yedinci
direniş
Jones
hissedar
Freedom
hırsız
yetişkin
onarım
İddianamede
ikincisi
müreff
Securitate
Econom
Raufoğlu
UDF
##teseb
Dyukanoviç
UEFA
Öcalan
müreffeh
Aile
Cyp
Gros
Gıda
IP
Kuş
Lar
Men
Ul
Vlatko
Zup
Zafer
brif
felsef
gor
iken
lak
malı
nü
ödüyor
##alet
##sfeld
##reli
##bot
##paz
##gını
##hbet
##KA
##anta
##arlo
##enn
##değer
##ise
##ınıp
##oment
##itar
alb
anki
anlıyor
açılmasına
gelebilecek
Antal
Art
kayd
ederse
##lüğe
yetkin
durak
onlarla
gösteriliyor
olmadıklarını
karardan
kararsız
kod
davayla
##ılmasıyla
sıralamasında
köş
köpek
taktik
##atılan
##elendi
toplumda
mücadelesi
müzakerelerindeki
1500
evinin
raportörü
beklentileri
uzunluğundaki
Bray
Rumsfeld
engelli
artıracağını
##odrag
bence
##siyonu
katılacağını
gelişmesi
Topiç
##lanmadığı
eyleme
saldırıda
görünür
Herhangi
gelirlerinin
koymak
havaya
ıslah
koşullarını
##mayız
araştırmalar
anayasayı
Kai
yaşanacak
konferansın
Geliş
paylaşım
gezi
gezisi
Tarihi
büyükelçiliği
Jankul
durdurma
Diplomat
##ESS
ettikten
Mandiç
genişletme
yapımına
Konseyinin
Konferansta
arkeolojik
başlamadan
isterim
batısındaki
huzurunda
kamusal
Tatbikat
dokunulmazlık
alkış
şimdilerde
Okulu
Vadisi
niteliğinde
gayrım
fuarı
restorasyon
Koordinasyon
FIFA
şoför
sonsuza
Budva
Tatlıses
##hazırda
93
Acil
BNN
Cuk
Jansa
Lut
Mez
MESS
Shan
Th
Vit
gayet
siste
##ılarak
##mediler
##sır
##ude
##wan
##HO
##RI
##Carlo
##BA
birliğini
kaya
##emesine
##izelos
##utsas
önle
artacak
ayn
##likte
##iliğinin
##ideki
geçmeye
gerekmektedir
karşıladığını
##ılırsa
hükümetinde
suçlara
suçladılar
bağları
Romani
getirilmesine
ekonomilerinin
göstermeleri
gösterdikleri
İsa
planlarına
unun
tutulacak
demeç
Birçok
kalb
topluyor
anlaşmadan
Komite
partisini
yöneten
bulunduğumuz
yanıtı
##achim
tura
aktris
toplumlarının
çıkarmayı
gerçekleşmesini
##lemez
çekmeyi
gözlerini
onayına
düşünül
üretilen
tartışmaları
tahsil
farklılıkları
başarısını
düzenledikleri
Borissov
yaşamın
anlamıyla
şüphesiz
kesimler
gerçekleştiği
etkiler
Olimpiyatlar
bölünmesi
Buradaki
Raporunda
listeye
mikro
Steel
cinayeti
Onlara
acik
yoğunlaştır
ürünlerin
yapmaktan
belediyede
riskini
Joachim
araçlar
Görüşmeler
reel
kısıtlamaları
futbolcu
reddettiği
Gazete
gündeminin
başlangıc
ayrıntıları
yurtdışından
konserler
geleceğin
reddettiler
alışverişinde
maddeleri
gelişmelerin
Limaj
dönüştürme
keşfed
DiCarlo
duyuyorum
huzuruna
Lukoil
Bildirildiğine
Muhammed
kredinin
çağırıyorum
kovuşturma
Express
çıkaracak
Jack
Venizelos
boşa
Gazetecilik
##opolis
birincilik
vekil
Fırtına
yayımlanan
terminal
Taleski
lağved
Çift
söyleşide
Farklı
Antalya
Alan
Dick
Fabrik
Giz
Hız
Kuman
OS
Pli
Snez
Taş
Vran
Vlasiç
ağını
abon
eli
hil
kılıyor
mek
moment
rız
stadyum
zem
zıt
Çoğun
##ljanin
##ai
##mara
##kor
##kabı
##fat
##pi
##endir
##ilda
##elli
##onik
##liu
kalem
##osunu
##utop
inisiyatif
ülkesiyle
günden
vermekte
almakta
yarısını
Arası
olacağından
##edecek
##ılıç
suçlarının
yüzleş
yanındaki
görevinde
##üsünün
Birliğinin
girmesini
adaya
Albay
haftanın
kazanacak
çıkarken
üstü
Arabistan
başkanlarının
attığını
geçiriyor
Demokratların
önerg
tutuklanıp
örgütlere
gelişinden
tedbiri
tedbirlerine
farklılıklar
filmleri
pazarın
pazarlarına
Topalli
etmedi
değişikliklere
çoğunluğa
##lanacağına
Sözcüsü
değiştirdi
Kou
toplantısını
gerçekleştiğini
Aksi
yakaladı
yükseliş
Elçisi
tasarının
Romano
##ostat
işletmeleri
##umuzu
Kadare
oranıyla
Kuzeydeki
tanımlanan
riskler
kızı
bildirildiğine
ilinde
sanatçıların
Tanrı
genişletilmesi
gereğinin
hastanede
ihalesini
kaygıları
güçlüklerle
maddelik
Patten
gelişmelere
teröristlerin
becerilerini
Tümgeneral
Anketler
Kabine
tipi
uzatma
1970
prov
tenisçi
bildirgeyi
tanıtmak
takviye
Fotoğraflar
sahibiz
fasl
Misko
seyrediyor
İmza
Gündem
Irish
çekici
damgasını
izolasyon
Clark
Tetovo
Cyprus
Brat
Besa
Cent
City
Dro
Dob
Eser
Jandr
Jociç
Meg
PTK
Sibi
Tz
Zuk
Zarko
alarm
hr
hus
hitap
kana
pap
vo
öm
##lyesi
##sar
##oara
##riv
##po
##pon
##panoviç
##TO
##OM
##int
##ira
##etti
##iyah
##immet
##ikan
##elerindeki
başlamaya
yapmanın
Antik
üyesini
Sırplarla
açıklayan
sözleriyle
çalışmanın
halter
halkları
bulunmadı
görüşmesinde
göstermiş
planlayan
editörü
##ademos
yaklaşıyor
açıklamaları
devletlerin
##leştirmek
kazanırken
merkezin
haberdar
reformun
zamanlı
gerektiğinin
imzalaması
sıraladı
##leyip
dönemdeki
ilişkili
##riği
sayıları
evlilik
tanımaya
beklent
beklenirken
yazıyor
tümünü
tamamının
tamamlaması
geçirilmesini
katılmış
katılmaları
engelledi
başladığında
olaylarda
örgütlü
hızı
##üyü
görülmesi
yürütülüyor
edileceği
kimliğini
yaratmaya
etmediği
umutlu
##isiniz
ödülüne
açtılar
artmasını
şüphesiyle
Papademos
zirvesinin
namaz
Miodrag
maaşlarına
vermediğini
kablo
Diğerleri
kapattı
kapatmak
sağlamaları
ücreti
biçimi
Örgütün
kayıtdışı
miktarlarda
savcılığın
mutlak
realit
performansını
çare
sorular
derinleş
vakıf
göstericiler
mektub
kabinesinin
kalırken
Corpor
kalkınmayı
Doğan
pahasına
Fuele
Değer
dalga
Amaç
sonbahar
dergisinin
belirlediği
barajını
haritası
takvim
Yunanlıların
##medikçe
medyasında
Jonilda
kalıntıları
prensip
Denetleme
herkesi
İhracat
##croft
brifing
sistematik
Jandrokoviç
Bale
DE
Dost
EV
IS
Kav
Kentin
KOB
Mom
MOL
Osi
Pic
Sektör
Sing
Tük
Velik
Vide
ec
kef
nö
oru
yuvar
ödün
##riy
##rich
##çıl
##DI
##US
##ladi
##irok
##aktif
##ilmeden
##ilmez
##etler
##ettiş
##isindeki
##lani
##lanmayı
##ulovski
##ovei
görüle
etmelerine
yapar
##oll
budur
anıt
anlatan
gelmeye
gelmektedir
aylığı
##ilmelidir
bulduğunu
düzeyi
edilerek
çıkıyorlar
yaşar
Belki
190
##sko
görüşlere
##elif
karargah
ilkelerini
alanına
tutuldu
varış
##üsünü
kullanması
kullanmayı
Orkestrası
##lavuz
insanlarla
hakkının
ikamet
imzalanacak
imzalanmış
imzalayarak
sınırların
şirkete
amaçlar
sanal
kurumlarıyla
##chner
halkla
satan
kentlerinde
resm
Konser
tamamlanmış
sektöre
sektörlerinde
engelliyor
sevin
##tıkça
tartışmanın
meyve
Radu
tedbirlerinin
opera
yaratılması
gitmeye
silahları
mallarını
özgü
eleştiriler
fiyatların
fiyatlarına
dönüşleri
üyeliğinden
isimlerinden
Sonra
zirvenin
##bogar
koalisyona
uğram
protestolara
##stitü
Mihai
Komisyonunun
maaşlarının
patron
dayak
Geliştir
birleştirilmesi
Mitreva
üstlendiği
alışkan
enflasyonu
Etkinliği
Nokia
##onstantin
Opera
semp
Hayat
uzlaşmayı
uygulamanın
Limay
binaların
anlaşmazlıkların
restore
Varna
canlandırmak
Çocuklar
taraftarlar
taraftarları
Yüzlerce
düzenlemeleri
kampanyasını
sponsorluğunda
Tesis
düşüncelerini
güvenin
Kazanan
Kiril
çocuğunun
Vatandaşlar
dernekleri
üzüntüyü
Dönüş
Colin
Köprü
Nerede
Erkekler
Zadar
Başpiskopos
Çavuşesku
Schook
suistimal
mecbur
rekabeti
Pliva
Corporation
KOBİ
##irokast
Alı
AİH
DOS
Fik
Mile
NS
RS
Slj
Vik
Zbogar
lek
may
rev
sizi
tüz
tuz
Üzer
şantaj
##lilerin
##acağından
##şova
##yat
##fini
##par
##öy
##ülem
##RE
##arş
birşey
##ath
##tane
##uloviç
##örf
##dani
##eca
aramak
bulaş
##lıkların
alınır
açabileceği
ender
işçilere
olanları
kurması
##yıla
büyükelçi
yüzücü
##grafi
çalışmakla
getirmiş
sırt
istediler
##rea
dönme
politi
iyiye
müziği
Birimi
başlamasının
savaşa
koridor
edebilmek
imzalanmasının
mahkemelerde
turunda
ilerlemesinin
söylenen
doları
tanıdı
##abilit
Günter
atmak
oluşturulan
vatandaşlığı
Anlaşmasına
301
dairesinden
ayrılmaz
Mahkemesinin
hareketini
hiçbirinin
görüşmelerini
filmiyle
kaldırıldı
bırakıyor
Marka
başarıya
iktidarı
gençlere
çağrılarına
ödüllü
yarışında
orduya
eylemlerinin
Bölgenin
edilmemesi
anlaşmazlığın
emsal
ileriye
geliyorlar
hızlandırması
istemeyen
oynamaya
oynadığını
Seçimleri
Siyasiler
kriterler
Sosyalistlerin
ilerletmeye
kaçakçılığının
köylü
yavaşlat
Andrija
ilgilenen
yarıya
koleksiyon
Marian
Şirketi
##düklerini
yapımcı
sokaklara
parçaları
Yasaya
geriledi
##rajlı
oturumunda
mükteseb
adanmış
Varşova
Müzakereler
zorunluluğu
kıyısında
Velchev
Yarışması
Başsavcısı
tüketiciler
##cağımızı
Terörle
Koalisyonu
taslağını
sohbet
sağlayıcı
akşamı
Sabah
##lamaktadır
standard
Kristina
Geçmişte
Bayanlar
Çözüm
metrekarelik
##soru
Scotsman
Havalimanı
##sıra
Sibiu
Bec
Beh
Bizi
Donald
Evan
Glob
Kast
Lil
Lul
Naz
Sir
Seb
Sayın
Uzan
Veli
WHO
Yerli
far
hentbol
kül
kanlı
mor
mark
tün
ww
##toyu
##kay
##cas
##ciliği
##hol
##wood
##OD
##unlar
##orliç
##etya
##isoara
##ikalı
##ulcu
etmiştir
##evk
önleyici
önlemeye
##abilen
##için
yerlere
dediği
Başken
ismini
siyasetten
çalışacağız
getirmeleri
ekonomiler
istendi
kapanış
tutulması
kullanacak
liderlerinden
edemez
reformunu
kaynaklarından
yanısıra
Parav
sınırını
kaçan
kaçağın
çekmesi
yetkililerinden
atlama
kentinden
kentteki
çözümünde
duyurduğu
faaliyetlerde
Ayr
meyv
görüşmelerinde
kadını
yönetimiyle
pazarda
hasara
##lanmamış
değerlendiriliyor
Eskiden
eleştirenler
başarılar
fiyatlarında
soruşturmaya
desteğe
gerçekleri
çağrıları
görünmüyor
belgesi
Adam
siyasetin
eylemlerine
etkisiz
anlaşmazlığının
bağımsızlıktan
Petkov
Gazze
toprakları
listenin
dayandığını
bütçeye
##larımızla
ihtiyaçlarına
Christi
Onların
misyonunu
Bilimler
Benedik
sergiler
Osetya
Kandiç
konseri
vermekten
yasaklayan
entegrasyonunu
üstlenecek
Mail
gerginliğin
oynamak
açılışında
işlemleri
çoğunda
Tanja
koltuk
atanan
yıldönümünde
##siness
mirasının
gayrim
Hayır
Patrik
mekanizması
masum
demokrasiyi
Kamuoyu
##market
Ankette
vaatleri
##liliğin
Blog
##stronom
kaydediyor
sezonu
Voda
kardeşi
düzenlemenin
Yaşam
Mladenov
##ljeviç
taslağı
cemaati
mesafe
gördükleri
malzeme
baskının
şehit
barındıran
Ekip
##ivancanin
saçma
##tasonu
çadır
asayiş
kuyruk
##lalom
olimpiyat
Yurtdış
bisiklet
Sreten
Mirasları
Vlahoviç
istihdamı
Shantek
Kumanovo
Kouchner
Zukorliç
uğramış
politikanın
www
Benedikt
00
AC
Ademi
BEL
Damir
Dalma
Ghe
Hacı
Kel
Nazi
Pal
Planda
Red
Umar
Wi
ili
mini
plaka
soğ
sutop
zimmet
öte
İy
##PM
##hler
##hum
##MO
##FI
##NG
##KO
##lamıştır
##ariç
##akoviç
##ektif
##eton
##yabilir
##ikoviç
##danın
##rav
##omon
##avantaj
arazi
artarken
##abi
güne
kurmuş
##eceklerini
geçer
geçmesini
tarafındaki
tarafça
ekolojik
karşılamada
##apiç
yollar
sözlü
kenar
yüzme
##ics
çalışmasının
getirip
hallet
Eurostat
dönmesi
doğdu
sahiplerine
uyguladı
kullanmakla
##uydu
##sama
Prok
##inale
kazanmasına
imzalamış
sıradaki
Başbakanın
Temel
aldıklarını
gözüyle
tanıtı
başkanını
yetkililerini
##ugay
Mayın
oluşturacak
ulaşmasını
olasılıkları
Anlaşmaları
Güc
Kurumu
gönderdiğini
Geçiş
aşan
Sorum
eleştiriliyor
##bilecekleri
zanlısının
ödemeyi
Ekonomist
uygunsuz
grubunda
meclisinin
katkılarından
kesimin
kutladılar
Devletin
politikasında
etkinlikleri
İnsani
İnsanların
istifası
altyapının
altyapısını
Teklif
##hall
Oysa
işletmelere
dayanı
biliniyor
Yetkililerin
kriterlerine
ürünlerini
birbirlerini
festivalinin
riskine
##kırımı
eşitlik
suçluları
unsurların
altyapısı
Araştırmacı
Yıllardır
ayakkabı
kazanım
##mayacaktır
isteğiyle
sorumsuz
tanıklık
tutuklamalar
450
merci
seferber
mirasını
Matiç
kolaylaştıracak
düştüğünü
hatırlıyor
kaydedildiğini
gelişimine
reddedildi
izlediği
şüphelilerin
faktörler
tutarındaki
Univers
Pack
şeref
dostu
vekili
değerlendiriyorsunuz
sonuncusu
Düzenleme
planladıklarını
Müfettiş
kargaşa
atöly
Tony
yağış
mimari
çatısı
##roleum
Galerisi
işgücü
Sinema
Zdravko
Joseph
Borsası
nişan
Rudoviç
Mekaniz
Atanas
##GRAD
argüman
müjdel
Jankulovska
Viktor
BELGRAD
Ata
AMB
Boğ
CD
CNA
EF
Even
Eliz
Isch
Jov
Kust
Kale
MHP
Nas
Ov
Yani
Zam
ajan
cay
graf
kusur
pusu
rit
sent
tiyat
İli
##yolog
##uel
##uhan
##bilmeleri
##ces
##çya
##jman
birinden
##atosu
##isen
##isha
##ünüz
gelmedi
sürenin
süreceğini
süresince
oranın
Anna
Business
katil
katma
Arhin
##bilim
millet
##ciğer
durgun
bölgelerine
kente
gencin
çalıştıklarını
düşüyor
destekten
milyona
adada
##bac
kabulü
sorunlarıyla
yönetiliyor
gerektiğinde
imzalanmasından
sıralanıyor
##ach
##rant
##atıyla
izlenmesi
evin
Energ
yürü
oluşturul
oranlarının
tutuklandığını
olasılığına
gelişen
barışçıl
organları
gönderilecek
yönetime
hayatlarını
sıkça
küçüms
makamlara
Özk
dikkatini
endişelendir
Internet
sıç
eylemlerin
Öneri
alacaklar
Petroleum
Seçmen
teklifini
demokratikleşme
yapıyordu
çizgi
eksikliğinin
baharda
Denis
Oslo
kapıları
suçlular
Anders
kurtarmak
Janez
telefonla
bozul
Stoj
tazel
sitesine
oylamayı
uğrayan
ayıran
sahneye
güçlükleri
göçmenler
ertelendi
ertelenmesi
şikayette
Bekir
Oyuncu
Vasil
refahı
sayımının
seçenekler
Blag
Organizatör
toplandılar
sebeb
Dimitar
Kazan
bayrağını
Comp
hazırlanmıştır
Düşük
##larmoni
kargaş
öyk
Electr
kahraman
mega
Downer
dezavantaj
Kipriy
manevra
Osijek
AİHM
Elizabet
Ischinger
Kipriyanu
BN
Bart
Cez
Dor
Dam
Dub
Fis
Gy
Gez
Hen
Hrant
Kun
Kuv
NA
Sun
Tren
Ur
felç
nam
prag
İf
##şori
##nji
##egrad
##ukiç
##eker
##asu
##üncüsü
##ılmalı
##umun
##ute
başlı
görmeyi
##edinin
vermeyeceğini
##ınacak
##tacağı
konuyor
konulardaki
açarken
Kosovo
işçileri
##cepanoviç
Busek
olabiliyor
seçmenin
seçilecek
çıkabilecek
gensoru
haklara
düzenleyici
onlardan
saygın
belirtmişti
##kett
Europol
imkân
topluluğun
Balkanların
liderlerine
125
reformunda
imzalayacak
sağlamasını
##ettir
sınırlama
dönemini
bağımsızlığın
kurumlarından
evler
kısmi
##ayıt
halktan
bulunuyoruz
sektördeki
##çıların
başlatmayı
görülmeye
boyun
ayrılı
göndermeyi
ilişkilerine
mallara
bırakarak
bırakılması
umutlarının
umutlarına
kendisinden
davaya
protest
ihtimali
cezalarını
saatten
hisselerinin
güçlendirmeye
nereye
Buraya
seçmenlere
##miyorum
altyapısının
sağlamada
##ılmadan
olanaklarını
harcamalar
turistlere
Daviniç
metrajlı
tesisler
santralin
unsurları
verimsiz
incelemeye
olmadığının
Planlama
piyasaları
##omotif
kaydettiler
bürokratik
Altyap
katılımcılara
rolüyle
İsviçreli
fikrinin
köprünün
yöntemleri
kalkınması
mükelle
gelişimini
750
kökünü
uğraşan
istatistiklere
olmayacaktır
çıkarılacak
Kurulunun
Tahran
kredileri
protokolü
pazara
Topluluğu
##losuz
ayaklanmalar
Visegrad
Arkeologlar
işleyişini
galer
söyleyebilirim
Yoksul
Suriyeli
donanımı
Grigor
Kazakistan
Bernard
roket
voleybol
EVN
dayanılarak
Özkök
Dil
Gali
Hiz
Joz
Kotor
Kayıt
Lid
Mim
Nev
Nova
ODI
RE
Rot
SO
Scepanoviç
Ten
hu
sip
Öl
şem
şehri
##yüz
##ts
##terek
##kg
##eği
##fuz
##har
##ind
##ane
##ilmedi
##diu
biridir
##lanır
##iment
yayı
##ome
##avis
##ahür
##itza
gelmişti
##masa
##roi
sürük
yerler
##lamadı
Türkmen
##ilmeyi
bulduğu
Anast
##eribot
katk
uymak
##ukta
##iğinin
yüzyıla
bağladı
devamında
oluştu
çalışmasına
ekonomisinde
kapısında
yaptığımız
azami
varsay
##düler
kota
devletleri
##leştirilmesi
harcı
imzalanmasını
sıralama
süreciyle
Bancroft
projeyle
sınırsız
dönemindeki
dönemlerde
Temyiz
##derken
üstlenen
tanıması
sistemindeki
değerler
##rensel
##lemeleri
Sariç
##çıları
geçirmeyi
haysiyet
ulaştığını
tutuklanmasını
düzeydeki
otuz
sunarak
##luğundan
cezbet
##memeleri
duyurusunda
faaliyetlere
ayrıl
askerinin
edilmek
taşımak
yaratacağı
gitme
##lanmaması
##lanmadığını
umutlar
memnunum
kandır
ödemeler
idaresinin
azınlığı
yenildi
sivillerin
Romenler
stratejinin
bizlere
kesimleri
kutsal
düşünüyorlar
Muhafız
ailelerin
Akşam
Serbi
tanınma
yakalana
##stiç
devrim
Haklar
ortamın
satışları
korkuyorlar
ilerletmenin
tanımlayan
açıklamasını
Oscar
eşitliği
paylaştı
bugünkü
onunla
mensupları
Bağdat
ateşe
Verdi
maliyetinin
gündemine
yetkisini
sorumlulukları
Duruş
tazeledi
eserlerinin
Kararda
alınacağını
korumanın
kaydetmek
dersler
katliamının
Samir
BiH
danışmanlarından
düştüğü
yolculuk
sözleşmenin
kitapları
Belçikalı
Vassil
##vansiyonu
Toplumsal
uğraşıyor
Leon
otoyolun
Mustaf
Selimi
şahısların
Filarmoni
Stratejisi
kazançlı
sinyallerini
ahlak
ideoloj
tezahür
şehr
Toplumu
kararlaştırılan
cenaze
demektir
ibadet
Hepimiz
suikasta
ayrımcılığa
transfer
yelpaz
Kovaç
Srebrenitsa
lokomotif
Milletler
Alkalay
Olumlu
konvoy
lakap
provok
Momcil
##irokastra
Lulzim
Umarım
Kuveyt
Adı
Biy
Ce
Hâ
Hari
Kus
Kayıp
Mesel
OM
Ola
Qu
Sven
Satış
Vin
Yılı
bTV
laz
pom
##lilere
##ısı
##furt
##ğday
##TE
##AF
##üd
##RC
##UR
##erya
##erans
##andar
##dal
##lediği
##lediler
##eysel
##eytin
yapi
##unus
almasının
konulardan
açabilecek
##ilmemiş
kurs
##idin
##luslu
tarafını
karşılaması
açıklık
seçkin
yoldaki
yaşıyorlar
##garakis
yüze
getirmesine
getirmenin
dengel
aradığı
olmalarını
##redat
müstakbel
tutacak
güvensizlik
temerr
Prij
##ilei
imzalamayı
Park
hedefimiz
##elenk
##dere
adındaki
yayınlanması
evleri
evlerinden
satma
çabalarından
kentlerde
##agiç
tamamlaya
katıldığını
engellerle
tutuklayıp
olaylardan
sunulması
parlamentoyu
görüldüğünü
##lamaktan
gruplara
Mladjan
Stavr
krizini
gittiler
beklediklerini
bağlılığı
heykeli
malî
makamlarıyla
düzenlemeye
Ahmed
ICC
vurgulayarak
soruşturmalar
uzmanlarının
Asıl
gerçekte
ödülün
öngörüldüğü
endişelere
koyduğunu
Krstiç
hissesinin
edilmesinden
Temsilcilik
emisyon
dilinde
Üniversit
Holly
komşularıyla
kaybettiğini
##berto
girişi
##formu
rekabete
ücretler
oturma
karışan
Uzlaşma
bahç
anayasası
yaralandığı
Sigor
birbiriyle
manip
tanımlanıyor
tanımlanmış
fikirler
Gelir
liderliğinde
Üçlü
başkentinin
hesab
çoğulcu
ceset
kuşku
vakası
yükünü
sahnesinde
öldürülmesinin
iyimserlik
Konseyin
Cumhurbaşkanının
sözleşmesi
teknolojisi
##liliğe
##hija
harcamalarının
bulunup
servisi
kucak
Şimdilik
Luksiç
çalıştıkları
Selim
onurlandır
hassasiyet
sigortası
Tahmin
galibiyet
Hint
Listesi
Curoviç
iradeye
Hellenic
kemik
usulsüzlükler
##üğün
meclisten
formül
##tadyumu
hediy
depolama
hatırlattı
civarındaki
diyalogu
Metohija
Zelanda
Remikoviç
trajik
Croati
Veselin
konsolosluk
Prosper
nöbet
yuvarlak
Bala
Ca
Ced
Hoc
Henüz
Kac
Les
Lag
Müş
MAP
Pu
Piyas
Tanık
Velj
Wh
Yarı
Zh
sına
şeye
##siyle
##iH
##fir
##jel
##CK
##anov
##enekli
##dav
##ordu
##athan
##iyim
##lanç
##lanlar
##urda
kalarak
baştan
yapının
yapısını
##okapiç
iniş
vermiştir
işte
##iliğinden
kurarak
Bug
toplanacak
##alim
soruyu
##usuz
yeter
##oliti
Belir
çalışmış
sırasındaki
bulunul
görüştük
##bullah
zamları
varlığına
sahipken
temeli
girmeyi
kullandığını
hazırdır
hazırlayacak
destekçisi
ilerlediğini
toplantıları
bazılarını
Erken
sonuçlanması
##lülük
uzunluğunda
Brit
onayını
tamamlanan
tamamlanmasını
düşünmeye
düşündü
önerinin
öneriyor
olmasıdır
faaliyetlerinde
hizmetlerin
Ülkemiz
grupta
gönderiyor
aşkın
rolüne
kaldırılmasına
etmeden
politikaların
##ogh
kanunu
ödemeleri
yarışan
işaretler
siyasetçilerin
stratejiyi
Miranda
zararı
tabur
tabanlı
maaşı
benzersiz
tehlikesi
piyasasında
kanıtlamak
Chris
tahminlerine
##umuzun
anayasada
erkeklerin
savcılarının
mağara
verecektir
santralleri
mensuplarının
daral
Maaş
birleşmiş
Baykal
inşasının
zaferini
olmadıkları
bozuk
Carl
Manch
Media
prosedürü
Bojan
duruşmada
hastaneye
cumhuriyetinin
eserler
Uzmanlara
yükü
atacak
talebin
çatışmalarda
becerileri
Ukraynalı
yöntemi
sorguluyor
Değişim
çalkan
asıllı
##edikleri
Sendikası
Cannes
sendikalar
1960
Brod
Tesla
Komünizm
Kuruluşu
kopar
Frankfurt
Öğrenci
aniden
Destekle
##opolitik
yaratıcı
amacını
Ford
halihazırda
Dimitrij
##jektif
ülkemizin
sosyo
Milliyetçi
diyalogun
Tudjman
cerrah
Ranko
Vulgarakis
öncülük
Krivokapiç
Herseğin
Hizbullah
ODIHR
Momcilo
CN
Camp
Dik
Eg
Elena
Fr
Fogh
Gli
Hilm
Jun
Kok
Las
Mekt
Ray
Tec
Tzan
Umut
Vr
ep
mavi
poş
port
Çaba
Çatış
İla
##amadı
##ny
##fone
##udo
##cinde
##ciya
##gart
##gelen
##ÜK
##esmi
##emesini
##ove
olmuyor
başrol
yapay
##ışı
##old
##ahit
verdiklerini
verebilecek
ayları
Anne
##larınız
güt
büyüyor
yaktı
suçlarında
sahada
bölgelerinin
bulunmayı
istasyonu
göstermesine
kapısının
##ansever
kalmıyor
ilişkil
konuşmasını
başlatacak
girmesine
kullanırken
birlikleri
basını
tarihinden
ortaokul
yükselerek
bakanlıklar
ikisini
bütünlüğünü
destekleniyor
çıkardığını
çıkarılmasını
kurumlardan
çekiliyor
dolardan
başkanlığından
sistemde
verdim
iftir
sonuçsuz
##ehr
çözümlen
engellen
ulaşacak
olayının
örgütüne
kuruluşundan
umdu
##olak
kuzeydoğusundaki
eşliğinde
Raj
##ozone
##mazken
okum
olduklarına
bekleme
ICO
##ogos
Berisha
kadınları
toplamda
yabancılar
kanundan
saldırılara
yardımcıları
turizmin
kutlandı
operasyonlarına
likidi
sokmak
dilde
teklifinde
iyileştirmeye
anketine
selam
Hakim
yapmaması
böylesi
kablosuz
suçlamalarla
suçlamalarıyla
##formasyon
geçişi
ücretleri
Seçimlerin
bilinmiyor
birbirleriyle
hepimizin
korudu
vermektedir
bağışta
##levski
yıkım
Belediy
##eger
sanılıyor
gündemi
İzetbegoviç
Yasada
Teodor
öldürülmesiyle
teşkilatlarının
Duliç
Bekay
dağıtmak
Bayrami
360
oteller
Soldan
role
şahıslar
kredilerin
Yahya
anlatılıyor
Ceriç
dağıtımı
işyeri
Samaras
efsanesi
hacmi
Mihaj
Elektronik
Security
telaffuz
veritaban
Tuğgeneral
silin
Troyka
objektif
##vaylo
İsmail
güzerg
durağan
çığ
Brayşori
Tüket
Evangel
Vodafone
Sorumlusu
89
Alev
Ajans
Beg
Cik
Chan
Gian
KAD
Kılıç
Körf
Mrk
Sv
Sla
Zar
feci
jener
salı
Öyle
İK
şeri
##şap
##ılacağını
##yasını
##klerini
##Tube
##FC
##arlık
##arım
##malarının
##eliyiz
##lede
##lemesi
##lantının
içecek
etmelerini
önley
bulabilir
inkar
anım
yerlerini
iştir
kurut
topu
toplanması
Başk
uydur
##eft
suçlamasıyla
büyüklüğü
bölgelerinden
##ariei
teması
yankı
öneminin
sayısındaki
görüşül
müs
görevlerinden
belirtiyorlar
seçimin
ilke
alanının
alanlara
doğa
109
##üsünde
kral
ihanet
##düle
uygulandı
uygulanıyor
özelliği
topluluğu
hariç
amaçları
ilerlemek
##mpik
tanımak
halklarının
yakınlardaki
onaylanmış
gelecekler
geçirilmiş
salonu
şartına
olaylarla
kuruluşlarına
kuruluşlarından
üretecek
Borut
hizmetlerine
hattına
hayatına
yaratması
kesinleş
kaldırarak
değerlendirilmesi
beklemeye
220
kampında
soruşturmada
tank
eylemin
Devam
öngörül
belgelerini
kaydedilmesi
almadığını
seviyedeki
bizden
edilmesinde
anlaşmazlıkları
kalkış
Harri
gümr
azaltmaya
fonlarından
kapatmaya
kapatıldı
Chir
temsilcilerinden
adeta
konumuna
karşılaştı
yorumcu
ölümünün
Kala
üretiminde
ofisinin
kayıtsız
miktarın
içerisinde
Kanal
##eriner
düşüşle
Polonyalı
Surroi
verimliliği
söylenebilir
adamın
cumhuriyeti
mektubu
tüketimi
Girit
meşhur
kalıp
verilirken
Javno
çocuğa
kaçınmaya
çeşitlendir
##meyeceklerini
zorluklarla
Birleşmiş
sanıklar
müttefikleri
Reformlar
elektr
Amariei
harekatı
Şimdilerde
izlemeye
analizi
karşılamakla
oğlan
şüphelinin
izlenim
Voice
Lazareviç
tüketicilerin
bildirgede
yatırıma
tezgah
Güçler
Packett
Koridoru
Kralı
hemşire
rotası
Butler
okuyan
ardılı
Elektrop
Vatikan
Interpol
PDL
acele
İletişim
memleketi
Bölümü
piyanist
Marshall
harekât
öğleden
Koştunitsa
saklandığına
Cluj
ısıtma
YouTube
Srpske
Zupljanin
Centre
oruç
Eveniment
lakaplı
Hollywood
Tzanis
Evenimentul
Cr
Cel
CAR
Das
Ef
FB
Ig
JNA
Kitab
Pale
Sos
Sitesi
Tho
Zilei
bale
feribot
kel
kast
siber
slalom
çiçek
İkin
##kileri
##bine
##bikatı
##ğundan
##giz
##zo
##öder
##jeljko
##MR
##BiH
##eniz
##ille
##ildiler
##mamaları
##etin
##liyet
##imark
##ürse
##ılmadı
olgunluk
yapabilecek
önlen
günd
##itre
sondaj
yerden
##alım
##lamadan
devasa
##ides
yarısının
yönlü
toplaya
sordu
sağlanmış
##edia
##afak
##iciler
aramaya
kapısını
görevin
parma
parasını
oynan
girdiğini
yaklaştı
##ilebileceğini
Orman
bütünlüğüne
##ranyum
öncesindeki
gerçekleşeceğini
tanımayı
değerinin
Perisiç
satmak
atlat
Savcılığı
Brun
tamamlamış
sektörleri
##news
teşh
sevinç
programda
İşada
daireler
Üsküplü
Balkanlardaki
aldığımız
Borç
iddialarıyla
basınına
taşımaktadır
azaltacak
yaratacağını
ilerlemeden
Büyükanıt
etkilendi
Mariç
Marmara
eleştirerek
eleştirdiler
Neden
kontrolündeki
kanunun
geliri
gelirler
işaretleri
almalarını
havacılık
kutlamaları
ihtilaflar
ihtilafları
özelleştirmenin
emret
maddenin
BBB
koşullarda
başvurusu
dayandır
istemiyorum
vermez
kaybetme
Müze
tahminlere
Vukoviç
misyonlarına
uzaklaş
Filmin
yorumlarında
ürünlerine
özgürce
davetlisi
Spah
mesajlar
##latıyor
metin
fikirleri
havuz
araçların
yükümlülüğü
##altma
##mezse
Suçlu
kısmında
##ulacağını
Belediyesi
yazarlarından
başkentine
oyuncuların
Haftası
çabalıyor
prosedürler
bölünmüşlüğüne
eserlerin
##dükten
arzı
Danimark
görüştüğü
teşkilatları
Karadağlılar
Kötü
Sami
Hays
radar
yansıyan
gerileyerek
binalar
fakült
nitelikteki
Moratin
Konuyla
isteniyor
safhası
kârlı
imajı
Selman
yapılmadı
genişlemesinin
bulgular
tolere
kanseri
##iskoposu
Konferansa
KPT
dağıtılacak
Butmir
istişareler
tavrını
apartman
İşletmeleri
Potoc
Alpha
müfredat
hakemlik
Nedjeljko
Çevr
çeyrek
hükm
Bonn
Claude
kuraklık
Bingazi
söndür
Neredeyse
Sljivancanin
revize
Markac
Christie
OMV
British
Hilmi
Danimarkalı
Moratinos
Bis
Dini
Ful
Gay
Gece
Hor
INS
Lis
Lüt
MS
OEC
Rist
WTO
fah
küm
mum
siv
siyah
tet
zeytin
##au
##ılacağı
##sem
##our
##dınız
##röder
##uç
##uluslu
##cunun
##vanı
##üsk
##üğünü
##jevo
##inn
##diğim
##iyeri
##imde
dalı
##emizi
##alo
##eyecektir
##amit
vermiyor
alf
ayki
yönü
##dırıcı
olabilmek
suy
##biliyorlar
##ester
##usundan
seçtiler
çıkacağını
durma
sahasında
##kilinin
bölgesini
##mışlardı
##ico
görüşecek
müh
durumlar
kongre
varken
varıldı
güvenliğine
altından
yardımda
yardımları
bütünü
imh
kullanılma
anlaşmalarının
hazırlıklar
insana
kazanmayı
sağlamakla
mahkemesince
##leyeceği
turunun
çıkarması
çıkarlarının
ilerleye
Bakanlığından
evlerin
sistemli
##abileceğine
sattı
yokluğu
yakınlaş
karşısına
şartını
İşver
İşsizlik
milyarlarca
kültürünün
meselelerde
##lanmalı
değerlendirmeye
değerlendirmede
olduktan
kaybına
nüfuslu
çocuklarına
cumhurbaşkanına
eleştirel
süregelen
ifadede
burs
eleman
elebaşı
##bileceklerini
vurgulandı
Schröder
Mühendis
##lakis
saldırılarına
saldırılarda
fikre
seviyeleri
hisselerini
yakalanan
menkul
Mitiç
çerçevesi
Seçmenler
topraklarındaki
ısınma
borçlarının
piyasasına
bütçesinde
okulların
işletim
düşürme
hepsinin
havada
konsoli
kapılarının
paylaşan
inşaatın
yoksulluğu
söylendi
Janica
incelemek
zayıflat
Reformu
Festivalinin
##onschi
yüklü
sokaklarda
niyeti
niyetli
##lerimize
iyimserliğini
limanına
iddianameyi
teröristler
mütev
Delta
Toplantıdan
kimliklerini
ödenmemiş
Strateji
laiklik
değindi
belirsizliğini
kıyısı
aşama
Ziyaretinde
Ziyaretçiler
talih
canlandırma
farkındayız
sunacağı
Senato
davranı
ekibine
Sınırsız
gerçeğini
gerçeğe
##batısındaki
Johnson
hikayesi
borcun
seyirc
Milletvekil
mevzuatı
yinelediler
ekonomistler
Güçlü
Pacolli
Murat
Özgürlükler
yıldızlı
kulübü
geleneği
vatansever
günümüzde
Sistemi
şubesi
kurtulmak
Arkeoloji
Smil
Kukes
telafi
Safet
yargılanmakta
komplo
hevesli
Baconschi
mazer
trajedi
keyfini
aynısını
Snezana
Energy
sıçra
mükellef
Stavrevski
Veljoviç
Gligor
CARDS
OECD
ATP
BI
Dum
Lak
Maç
Rade
Stadyumu
Vali
bunda
gri
sop
vah
ödüle
İhale
##sından
##sika
##dney
##kart
##eor
##feri
##flasyon
##bek
##pce
##ğindeki
##zin
##zel
##üel
##FF
##labiliyor
##anin
##dit
##atik
##iyel
##tilaf
##ağında
başlarken
##avlyeviç
##evac
aramız
vermesinden
yılların
açılım
gelmeleri
##oğunun
işlen
gereklilik
kaydır
taraflara
eklen
##uss
suçlarını
durağı
ilgil
yapıya
##iceviç
getirirken
getirebilir
ekonomide
sayısına
görüşmeyi
görüşmesinin
göstermiştir
görevlerine
azalan
tutması
adasının
adasında
##brek
##melerinde
hazırlandığı
güçleriyle
koruyucu
duyar
reformuna
Genc
sıralamada
adlarını
yayınlayarak
alınma
kurumlarla
##ğimizi
iddiası
satmayı
Saranda
yazın
##latoviç
dördü
karşısındaki
onayladılar
açısı
ulaştığı
salgın
programlarına
bant
bakılıyor
gerçekleştirme
organlarının
göndermeye
öğrenmek
pazarlara
kaldırılmasının
değerlendirmesini
değişikliklerini
bırakmak
başarmış
eleştirildi
bura
politikalarına
fiyata
ağları
tavuk
artmaya
yarışması
şüpheler
seviyelere
eylemlerini
nitelendiriyor
operasyonunda
operasyonlarda
edilmesiyle
nadiren
baskıya
Macovei
##abilirler
güçlendirecek
ifadesini
piyasasının
çevrim
sekizinci
uzakta
oturan
##mediğine
Trav
vergisini
Polisin
Tranda
övgüyle
belediyesinin
belediyesinde
kampanyaları
birleştiren
Ticari
Suçu
Antonescu
yıkılan
ilgilendir
inşasında
sanatçıları
##mayacaklarını
##ihin
komisyonunun
gecikmeden
işlemler
Mediu
genişletmek
Vujanoviç
maçta
Samuel
kalitesinin
Şampiyonasında
verilmedi
sandalyeye
binaları
Göreve
##liliğinin
Afrikalı
cesaretlendir
arkasındaki
nüfuzunu
seçenekleri
duyuyoruz
Divac
yargıçlar
onuruna
sığınmacı
Mısırlı
##zamanlı
ahşap
barikatların
barikatları
yansıttığını
yineleyen
sunmaları
Kolordu
devralan
Ungur
Andreas
Cermak
kışkırtıcı
bahsetti
yoğunluklu
Mahmu
ihtiyacının
kaydıyla
Eşit
etkileyebilir
Şüphel
Cemaati
hattını
Sydney
kavga
Statü
kendimizi
bitiminden
itfaiye
kaderini
Bilgisay
hoşnutsuz
zehirli
Manastırı
irtibat
Soykırım
Sokak
marjinal
folklor
Paskalya
##orghe
Grossman
yaşartıcı
Geliştirme
Gheorghe
Fischer
Cedomir
Evangelos
Ungureanu
Eli
Elen
Fener
Joli
Kle
Los
Me
Mün
Meden
Nem
Naf
Plev
Sesi
Som
Tanı
Tru
Ya
coş
eti
fesh
reç
sarı
ân
##mları
##seler
##sındaki
##iğini
##rer
##nhac
##culovski
##ğüm
##ğimi
##AN
##gul
##zetbegoviç
##öl
##lari
##assi
##ırım
##örler
##ecani
inden
verilerin
##ruz
##lukla
Analiz
Antiç
##letin
yarg
geçeceğini
Arena
gerekeceğini
##mann
çıkabilir
savuna
savcının
devamını
düzenini
denildi
isteyecek
saygılı
kont
ilkesi
konuşmak
sonradan
erdiği
Alli
Allah
Altern
##ilebileceği
tarihsel
servet
yayılmasını
mahkemelere
Parkı
öldüğü
aldıktan
evrensel
Enerj
Hazine
katılmasından
katılmıyor
ulaşarak
tutuklanarak
Anlaşmayı
kılan
yargılanması
Santral
##lanıyorlar
beşte
Mahkemesinde
hareketleri
göndererek
gönderilmesi
Raif
tedbirin
Bilişim
Toprak
girişiminde
etkilediğini
Marc
Marnhac
ödüllendir
azınlığa
gelirin
Invest
temsilcinin
koymaya
Koç
sivilin
nitelendirilen
operasyona
itham
ailelerinin
Önleme
politikayı
##nia
çağrısını
hızlandıracak
potansiyelinin
Steph
##mayarak
çevresinde
bilimler
tahminler
acilen
Vukotiç
kuvvetlerine
rekabetin
oturup
korkut
karıştığı
bahis
süreçleri
Davis
tesislerinin
##ikatür
bugünlerde
dokuzuncu
verimliliğini
Maur
Ljube
temasa
birleşmesi
odaklanması
kurbanlarının
Etkinliğin
Papandreou
işlemlerini
denetlemek
Salih
ihalesi
tercihli
personelin
tanıkların
gemisi
sinir
bürokras
yükseltmek
çatışmalara
kalır
doktora
Köst
ulusun
mekanizmaları
eğitmen
Ligi
çete
gerektirdiği
ithalatına
kalkınmanın
Sonuçta
Forumda
finansmanına
oradaki
kimseye
yerleşti
yöneticileri
müşteri
karışıklık
dizgin
Zirve
Yarışma
parlamentosunda
yapılandırılması
Kimse
Heyeti
pankart
İhtilaf
##binlerce
foruma
imtiyazlı
beklentilerini
şerid
Zvon
sağlayıcısı
##feisen
annesi
bilanç
dilekç
serbestleştirilmesi
popülist
Protestocular
itfaiy
savunucuları
Silv
renkli
gözetiminde
bombası
sözcük
Mihayloviç
maraton
müteahh
Romania
Gizli
Global
gayrimenkul
megawatt
Altyapı
RECOM
sipar
Hâlâ
##olitix
ilişkilendir
KADEK
Thomas
tetk
alfab
çevrimiçi
Trandafir
Jolie
Stephen
Buz
Bech
Cos
Caf
Evi
Faj
Gan
Gora
Hr
Hab
Hong
Ioan
Jor
Lou
Nit
OTE
Ruh
RIA
Tunus
Usam
cm
dilen
jandar
ker
litre
niçin
peyn
sinden
sakat
uranyum
İyon
##linin
##seni
##ning
##uşa
##pler
##hen
##jola
##akos
##larus
##elin
##lebilir
##esiydi
vefat
##leriyse
##urica
##imen
##ultu
##ılmalıdır
##ecilik
##ümin
yapısının
##evleri
önko
almaktadır
alınıp
##likten
süreleri
##ilia
##iliğine
Bulatoviç
geçmeden
üyesinden
gök
##kademi
Makedonca
sağlanıyor
##ılır
sahasına
sahasını
##mese
##oyolu
parayla
konvansiyon
uygulaya
kullanılmasını
kullanıldığını
kullanılmak
anlaşmalara
Pren
çözmesi
davasıyla
yönetici
merkezini
ziyarete
reformlarla
Generali
Kongre
sağlamaktadır
mahkemeleri
##otek
hedefin
Temiz
adları
Bakanın
##sizin
kurumunun
alıyoruz
Eng
gözaltı
sistemlerini
yürüm
değerlerini
sonuçlardan
yazma
doğrulandı
kentini
oluşturulmasını
onaylanmasını
geçirmesini
açığın
şartlara
programlarının
kılavuz
artırmanın
yargılanan
olmasıyla
189
genişlemenin
duyuran
eğitimin
bakmak
Hükümetten
Merkezinin
gerçekleştiren
kurulduğu
Ülkesi
meselelere
yaratabilir
##mert
değerlendirecek
girişimiyle
Raduloviç
bilgisi
##laştırılmış
desteğinin
Asso
Devrim
kanaat
muhalefetle
saldırılarının
arttır
değiştirecek
siyasette
düzenlenmiş
bankalarının
etkisinin
Görün
taleplerine
taleplerinin
tanınmasına
zarf
sokma
ifadeleri
sonucunu
korumayı
bloğu
tutumunun
azaltması
ortamına
ortamının
Etti
çatışmada
okulun
yapacaklar
lardan
puanını
vergilerini
görüyorum
üretimin
kapasiteli
savcılığı
birleştirmek
Tomiç
bitki
Andriç
Verg
sanatçısı
bazında
yükümlülüklerin
Anayasaya
Tarculovski
gereğine
Markos
CEZ
uğradığını
Yasadışı
gideceğini
deydi
gerilim
sandalyenin
dönüştürül
##enault
ödenecek
oturumda
arabulucusu
yapacağına
Belarus
Konus
destekliyoruz
##ediklerini
Meron
safhasına
pasaportlar
havaalanının
etmemiz
safhaya
Profesyonel
harita
rehabilit
dokunulmazlığı
sinyaller
besleyen
aracılığında
Yaşar
platformu
Norveçli
yineleyerek
kartları
şehrin
mobilya
dostane
işverenler
Klaus
Albtel
Britan
çöküşünden
Vekili
Mobile
jeopolitik
cadd
Tokyo
elimizden
veritabanı
Sendikalar
Hadziç
besteci
##mont
yürürlükte
##avatan
##neliev
Nezavis
edemeyiz
kanalizasyon
gayrımenkul
Fikir
müktesebat
sutopu
Kusturica
hudut
Türkmenistan
harcıyor
tezahürat
lazım
Sigorta
BIRN
Köstence
Usame
önkoş
Associ
3G
Dm
Dre
Hac
IFC
JSO
Koc
Lej
PDP
Rakam
TÜ
Ted
bro
cas
cür
ge
imal
mot
op
olamayacağını
ombudsman
zalim
##mond
##yev
##ion
##biç
##blem
##cor
##cahit
##HOC
##ınması
##ursa
##imb
##osunda
##aloviç
##amin
##uta
etmesiyle
ettim
yapmadı
arda
##italiz
konularla
açılmış
açabileceğini
##rot
##ımın
katlı
Arben
##kaya
Başar
##apur
sağlandığını
##usa
##mendi
konusunun
çıkmıştı
yetim
yaşları
yaşından
bölgelerin
yanına
çalışmakta
halindeki
halled
isteyeceğini
elindeki
planlarının
referans
güvende
konuşuyor
başlatan
yetkilisinin
binasına
kullanmaktan
erdiren
hazırlaması
Alogos
şekillendir
korunma
muay
imzalamaya
haftadır
projesinde
hedeflerin
Bakanlığın
belirttiği
Demokras
çekilme
göze
raporlar
beklenmiyor
başkanına
sistemiyle
Peres
tümünün
tamamlan
geçiren
ulaşmış
oranından
##ings
ünif
artıran
adımlara
bekleniyordu
##odina
Merkezinde
yolsuzluktan
Nikos
##eber
yürütmekte
eşzamanlı
gruplardan
göndermek
aştı
taşıdı
gitmeyi
değerlendiren
mallarına
bırakması
başarıları
fiyatlarındaki
alımı
gidilmesi
idaresinde
yarışıyor
Instit
saatte
kesimde
operasyonel
etkilerinin
Olimpiyatlarının
baskılara
takımları
kullanılarak
kullanıcıları
France
tabl
çerçevenin
payını
kırdı
iyileştirmeler
anketin
anketinde
tutumuna
bütçeyi
partilerle
erteledi
kanıtları
çatışması
Avrupalılar
okulda
soldan
yararlanma
heyetleri
yorumcusu
oturumu
puanları
bilinmeyen
kriterlerin
anayasasına
turistleri
aylıkları
ihracatını
ihracatının
savunmak
Davanın
zaferin
kaçakçılığına
Gelu
Gelişim
Gelişimi
konseyi
faydalar
kurbanlar
zaferle
gündemin
Manjola
başarısızlığa
Planlanan
oylaması
Karargâh
Sanatçı
CERN
Srdjan
haml
taşımacı
yaşıyoruz
Stip
verileceği
Corce
kimlikleri
Cooper
sınıflandır
avukatları
biyo
##eceğimize
işlemi
sayımına
Alexand
öğretmenler
üniversiteler
herşeyin
gecede
pahalıya
iadesini
Cankov
kampanyasında
##que
kilometrek
Veton
Toplamda
Musliu
işleyişi
Vatandaşların
devredilmesi
sözcülerinden
cenaz
İstihdam
yenilikçi
buluşma
kalıntılarını
Dönem
etkenler
##olojisi
eşyalar
planladıkları
tartışılan
Mungiu
ATHOC
Mülteci
Mülteciler
Krajina
elimizde
Meksika
Mitroviça
Cemil
tarama
ikramiy
izniyle
momentum
Dalmaçya
Company
pragmatik
imkânsız
provokasyon
Chirac
##erinerlik
Plevneliev
Alternatif
Raiffeisen
Bou
Ces
Cirokastra
Fas
Glav
Ist
Kov
LA
Liste
MEP
NTV
Oğ
Og
Plat
Pire
Rak
Sub
Sokol
Tw
Tus
Ulemek
alar
finale
hip
icin
kest
klas
kraliyet
püsk
rafa
tey
una
zed
Ömer
şov
##ıçak
##sey
##rick
##ğünden
##gatif
##übe
##EA
##EM
##xport
##eron
##arch
##enli
##iliter
##ony
##etıp
##ikli
##ükran
başlığı
etmeyen
##edor
arıyorlar
intik
anladı
antika
konulara
Kostiç
##artz
##hala
##lamayacak
##ceğine
olanlara
belgel
yararı
##apis
düzeye
##efina
yetene
yetenekli
sahasının
anlaşmasında
arasındaydı
düşmanı
dönüp
müvek
kararlarının
ilkesini
azı
doğusunda
varlıkları
yardımlar
South
oyları
##üsüne
adadaki
112
anlaşmalarını
devletini
korkan
iyice
Kontrol
aksat
toplumunu
alınmasının
Miletiç
evlerinde
evsiz
raporlarını
tanış
ifa
doğruluyor
çalışmada
çalışmalarından
kentleri
oluşturuldu
tescil
engelin
ulaşılması
tutuklamaya
İşlerinden
olaylarından
sunduğunu
##memek
tartışması
başkalarının
Kural
kurulmasından
iddiaların
UNI
askerlere
çağırarak
yürütülmesi
göndermesi
tahminin
azalmaya
gitar
bekleyebilir
bağlıdır
bırakacak
çocuklarını
Böylelikle
davalarında
büyümesinin
ödüller
temelini
yarıştı
parlamentodan
gelirlerin
koyması
koyarak
fırtına
##yalılar
euronun
uygulamalar
Muhafazak
başbakanının
takımını
##üleceğini
tatbikatı
kararlılıkla
tabir
tabana
tehlikede
anlaşmasıyla
ifadeler
anketlerde
güneydoğusundaki
borçlanma
##lass
tutumları
rakamı
Müzesinde
bütçeden
memurların
Onur
temsilcilerini
Filmleri
yorumlar
oturdu
diret
##seniz
televizyondan
tanımlanması
hepsinden
açıklamıştı
suçlularının
düşüşün
Modern
ihlalleri
bombar
yazarlar
şarkısı
bizimle
soruları
oynamış
hastaların
çabası
Çalışmalar
Stoyan
Marie
kirlilik
rahip
alınacağı
yükseltme
Batının
meşgul
Hristos
banknot
hükümdar
becerisini
kilisenin
çevirmen
Mont
generaller
tipik
değinen
Babiç
Vasile
cazib
Sonuçlar
finalde
kırıklığını
giderleri
işlemiş
benziyor
Pavle
davranıyor
ekibin
unutma
Solomon
Velimir
Anayasal
kampanyasına
çağırıyoruz
Brown
tedarikçisi
bağlamında
duyguları
nihayetinde
Tutuklanan
ufukta
Foruma
harcanan
arayışında
Gelecekte
akışı
Memur
Törene
ihtiyacını
Köprüsü
oynayacağı
atölye
Steven
Steinberg
eşiğinde
Sultan
ambarg
Rogge
toprağa
Capital
Gregorian
Vecernje
Göstericiler
tapın
Duyuru
albüm
Lutovska
Kusari
konsolida
Bilgisayar
BK
Cv
Dali
Dans
Ep
Elim
IT
Kraliyet
Laz
Lep
LDP
Motor
MRF
Pukan
Trif
Usta
Wood
Zub
boğu
eh
poster
telif
İon
şö
şunlar
##lün
##tra
##kâr
##rip
##fis
##feder
##bu
##bilmiş
##pas
##politix
##cını
##TI
##Tİ
##zda
##ward
##OP
##WE
##esk
##ılgın
##ükun
görür
göreceğiz
##ümser
yapılmasının
##sten
arif
bug
verebileceği
gelmeden
işliyor
kurmanın
Buk
geçmeyi
toplayarak
kayır
taraflardan
sağlanmasını
bilinci
suçlayarak
yüzüne
Bulletin
önemine
aradan
görüşüne
göstereceğini
tekeli
konmasını
ilkesinin
azılı
varmak
güvenliğinin
müzesi
105
girip
koz
##yebileceğini
hazırlanırken
Oran
Reh
kazanmasından
bakanlığını
Kong
sağlamış
turuna
hedeflerinin
ilerlemeleri
mücadelesinde
müzakerelerdeki
alınmıştı
geldiğine
edenlerin
çekinc
bazılarına
##layın
##abilme
yakınlaştır
düşünmek
düşündüğü
sektörlerde
katılmasının
katılmakla
tutuklamak
kılacak
adaylığına
parlamenter
##memesini
duyurulan
145
bakacak
gerçekleştirecek
gelişmede
edilme
Ülkelerin
organizasyonu
gönderecek
üyeden
yönetiminden
rolünden
kaldırmayı
etmez
girişimine
makamının
Market
EUpolitix
krediyle
fiyatlara
##ırılan
şüpheyle
seviyesinden
siyasetinde
katkısı
katkıları
sivilleri
nitelendirdiler
kesimine
Mirjana
etkiye
talepte
ihtilafında
çalışıyordu
kararlılıklarını
##ulduğunda
Yordan
eğer
patlaması
güneydoğusunda
piyasasını
parçasıdır
bağlantılar
kanıtladığını
çatışmaya
çatışmaları
Chen
okulları
temsilcilerine
karşılaşmada
inanmıyorum
eksiklikleri
olsalar
kavş
televizyonda
tanımladı
kendilerinin
İvaniç
milliyetçiler
İranlı
aktaran
indirdi
faydalan
yavaşlama
çiftlik
Janjiç
adamlarının
bulunacağı
kalacaktır
Analistlere
şike
ihaleye
ruhsatı
üreticileri
dağılmış
tutuklamaların
şahsın
atacağı
dersleri
öğrencinin
kişilerden
maddelerin
iddianamenin
Polan
dağıtmaya
teknolojileri
Havacılık
doğrultu
başlayacağı
kanalları
Ziyarette
Morina
üssü
sıkıntılar
yumdu
yenilgi
##kufis
suikastın
sunacağını
enerjinin
verilmemesi
yargıçları
izlenecek
Filipoviç
varlıklarına
440
duya
doğudaki
yağma
kutlamalar
müşteriler
Broz
akıllıca
Schwartz
mutluluk
satılan
basitleştir
İrlandalı
rastlanan
Sahip
Teşkilat
Taraflar
tıkan
otoriter
Öğrenciler
restoranlar
Ordusuna
damga
hazine
düzelme
tedavisi
niteliğindeki
Gallup
Törende
ihtimalle
yurtiç
Koordinatörü
kumar
ihalenin
Todoroviç
popülar
##born
ödemesiz
tehdidinde
Straw
Presevo
korkusuyla
Kütüphanesi
galası
pişir
rehberlik
dramatik
yatıştır
Anagnostopoulos
Amiral
Kelmendi
sebebiyle
yapilan
Yahyaga
Fullani
Mahmud
Bechtel
Fajon
broş
Alogoskufis
Pukaniç
doğrultuda
Agen
Balık
Cas
Gashi
Hy
HR
Koş
Koyu
Knez
MI
Nej
Olası
Sara
VRS
Yazı
Zi
astronom
fan
fos
mac
ruhan
zihin
Ölüm
Şkodra
##adı
##yeni
##ida
##kun
##ğlak
##çeva
##öst
##wor
##YB
##İŞ
##ando
##undu
##lımı
##lanmakta
##ure
##imle
##tiçi
##ulou
##ecilerin
##amı
##larım
##aylon
##akiç
##evic
##stu
indi
almasından
enstit
orkest
##ilmiyor
sorulan
taraftarı
sularında
##meniz
bilir
Arnavutları
generali
haklarıyla
tema
çalıştık
getirmişti
denem
deneme
Eurob
düşerek
dönük
alanlarının
avroyla
İsim
fazlasına
güveniyor
oylarını
ihbar
başlayarak
girmesinden
kullanıl
ermesinin
birliklerinin
açıklamayı
devletine
##salar
haftasonu
Prens
sorunlarından
bakanlığında
Konvansiyonu
##ranç
hedefinde
akını
değişken
adr
adres
Atletizm
bildirdiler
raporları
Erwan
tanıdığı
sistemlerine
Tamam
değerlere
yoklamaları
##band
gelecektir
teşeb
İşte
olayını
desteklemesi
oturt
187
paraya
Kurtar
gelişi
edildiler
barışa
##meyecektir
tahs
azaldığını
yaratarak
##ılmıştır
girişimlerine
girişimlere
makamı
kaybediyor
EUPM
fiyatının
uzmanlardan
zanlısını
ödedi
Sözü
temellerini
belgelere
Herşey
Parlamentos
şüpheleri
edildikten
Olimpiyatlara
baskıyı
kalkan
komşusunun
yakalaya
protestocular
kullanıma
ölçekte
##linka
eyaletinin
Macarlar
ısın
hapist
Adli
Romanları
yapmadığını
Derec
Derne
medyayı
listesini
fonlarını
çevreler
Meclisinin
##alesef
saklandığı
Örgütünün
kriterlerinin
sandalyesi
ihracata
ihracatın
Cinayet
metro
riskleri
kapılarında
Yolları
Popov
indirimi
yasaklama
kuralların
çiftçi
yetkilerin
sanılan
yarıdan
DSB
Ivana
##ıyaben
atadı
Srcan
Cior
Pantiç
Hayred
hane
kategoride
##lesinin
üzücü
gelişiminin
aktarı
işsizliğin
Vasiç
aşamada
koydular
çözülmemiş
Müzakere
gördüğümüz
nelerdir
seller
meşruiyet
Gerekli
fiilen
Lefkoşa
ihtiyati
komitesinin
mesafede
kopya
bedelini
Kutsal
bilgilendirme
efsanevi
Memeti
yemeği
özetliyor
Mutabakat
öykü
parametr
Mobtel
NBS
Agron
Gönül
düşünmüyorum
Malez
temsili
uzaklıktaki
bilincini
çalışıp
Caddesi
motivasyon
kanadı
##rivreda
resmî
University
Organizatörler
şemsiy
Hocay
epey
portf
iştirak
Elektroprivreda
İkincisi
mütevazı
müteahhit
tetkik
##üminyum
casus
kestir
Adım
Cra
Deb
Egemen
Fizibilite
Kot
Metr
Mich
Posta
Rest
Renault
Sık
Sci
TA
Tİ
Ud
Uç
Vj
Vil
delik
diliyor
fert
gıyaben
lob
misiniz
rak
seri
vic
zevk
Çelik
Üye
ÜSK
çılgın
İbar
Şeh
şark
##yoloji
##tlar
##düncü
##ropolis
##fen
##cevo
##çın
##win
##YP
##EU
##BS
##ÜP
##anların
##ınç
##mama
##ella
##dev
##iyla
kaos
kaba
##ikos
##amo
içiş
etmeliyiz
##stri
bulup
karn
karasu
##lıkta
anlamak
##talı
konularındaki
sürül
yerinden
olduğumu
Türklüğe
söylemesine
bulmanın
Ang
kuruyor
katılıp
geçerken
##kalaki
söylediğini
iskel
yolların
profil
negatif
yanaş
yanıl
##icisi
çalıştılar
getirildiği
ekonomisti
aracılık
sayının
görüşüyor
göstermekle
yasasına
kaptan
kararlara
zamm
##lıyorlar
elle
tutarak
##iva
demişti
başlamasıyla
ortasından
binasında
koruna
##sep
kazana
kazanmasını
yönetecek
##biliriz
merkezlerinde
merkezlerinden
derinden
muğlak
yatırımlarını
ortaklar
##dikçe
şirketlerini
şirketlerine
aksak
##teneg
##ugayı
şeydir
oluşturması
Saviç
failleri
çözümleri
tamamlayıp
ulaşılabilir
sevkı
şarttır
şartlardan
kıya
sorumluluğun
olaysız
yargılandığı
tartışmayı
##selborn
iddialara
askerden
askerlerine
gelişmenin
edilmedi
hatalı
kimileri
kaçakların
azalmasına
krizine
##lanmalıdır
dünyayı
bırakmaya
etkileş
Margar
eleştirileri
başarıyı
başarılara
dönüşünü
zorundalar
Asselborn
##ojen
ödeyen
Sözde
temelinde
yarışmasını
almadığı
sekizi
şimdiki
operasyonlarını
yaşamaya
euroyu
nadir
tanındı
oyunları
Franjo
alacaktır
kararlıyız
konuştular
kaybetmişti
partilerden
alabileceğini
potansiyelini
girişini
fonlarına
çevreleri
çevrildi
geçişin
Onu
##mıyoruz
satışından
yorumda
turistin
belediyelerde
savunmasını
##ijyen
kızış
Seyahat
düşüşü
Roland
bağışçı
daralma
Yıldır
soykırımı
##abilecekler
Maja
kazasında
Arşivi
odaklı
Moldav
hastalığın
denetimini
lisansı
tatillerini
İzzetbegoviç
Refah
Şirketler
kirlet
itirazları
gösteride
sokaklarında
mermer
sahnede
çarpıcı
Moldovalı
başlatılacak
Hayvan
yansıtan
senary
hammad
masasına
sözleşmeler
sözleşmeyi
Ljubiciç
deneyimlerini
Monteneg
ödenen
numarası
avukatlar
şampiyonasında
oradan
destekleyenler
blokla
turnuvası
metrekare
şüpheliler
etmeme
şebekesi
belirlemiş
barajı
sinyalini
Yaşanan
isyancı
sıfatıyla
sendikaları
ideolojik
endeksi
komitenin
kurucularından
Exit
kınan
Naim
engellemekle
cezaevinde
farklılıkların
kafe
perspektifi
cennet
dışarıda
esneklik
Klasik
Klaudi
Besimi
defter
Kaynaklar
Askerler
pencer
duygusu
paramiliter
kalabalığa
kamera
Austria
Danışmanlık
Tudor
adlandırılan
koşuluyla
kazanılan
işlemekle
kızdırdı
brüt
Kruş
Sitel
Yenilikçi
favor
PRİŞ
Tzvet
Dostluk
##FIL
Jozefina
Kovaçeviç
Prijedor
Destekleme
Daskalaki
teşhisi
zarfında
Nezavisne
Dmitr
Institute
##TİNE
broşür
ÜSKÜP
Montenegro
PRİŞTİNE
Bob
Bond
Cey
Cep
Ciddi
DC
DJ
Def
Hans
Haya
Krali
Obr
Otel
Pec
Pit
Plamen
Potansiy
Ring
Uka
Vac
Win
frak
kova
küt
lin
mate
sad
sükun
tok
vb
şükran
##sad
##ting
##rez
##nski
##beri
##bilmesini
##cec
##giç
##gız
##SR
##MY
##lafa
##inye
##anak
##ild
##ilet
birisini
birincisi
##iku
##ect
##omb
görüp
görmesine
görmediğini
önü
##meier
##mediklerini
alüminyum
##asız
andır
açmasını
gelmesinin
##masın
sürek
işlendiği
Anat
yarısına
katından
geçit
##aliç
sorusuna
böbrek
tarafına
ekoloji
Sırplardan
büyüğü
##efer
seçecek
çıkmayı
yaşına
yaşlılar
##olis
yapılabilir
getirmediği
isteye
saydı
göstermesini
##asto
düşmesine
döng
mücev
görevlerinde
iyisini
parkı
konsep
ilkbah
doğmasına
İskan
İstif
##üsüz
kronik
girerek
adası
ereceği
beklet
müzakereci
Orban
zorlaş
sınırda
toplumlara
gerçekleşeceği
yayınlayacak
evrim
Endiş
tanığın
değerini
termo
tamamlayarak
tamamlamayı
güvenlikle
başladık
artırıcı
örgütlerle
başlattığını
sunumu
cezb
görülür
hizmetine
gerçekleştirmeye
ayrılmasına
ayrılmak
edileceğine
hareketler
kadına
krizde
firmasına
şeklindedir
bilgilerini
230
yaşamına
moza
mesle
Bölün
davalarda
Ekonomistler
yarışmaya
cezai
yardımcılığı
grubunu
##müştür
kolaylığı
bankalara
edilmemiş
##entina
ailelere
tehditlerle
baskıları
tanınmasını
edeceğim
kullanılabilir
kullanılabilecek
devriy
diledi
dilimi
dinlemek
Burası
Dow
Raporun
Suik
hızlandırdı
azaltmayı
dayanak
istemedi
kaybetmesi
uygulanabilir
durumuyla
araştırmacılar
Onları
kuvvetlerini
karşılaşıyor
karşılaştırma
anayasasının
##elal
Trp
konferansının
ihracatçısı
düşürüldü
savunmaya
miktarının
makine
indirmek
beklenenden
ilgileniyor
1987
bulunmaması
limit
gündemini
kurbanlara
enfeksiyon
karşılıklılık
seslendi
müdahalede
olmadığından
örnekler
Law
kirliliği
iyileşmesi
gösterici
Yasal
olasılığıyla
sokakta
götürecek
Kaliniç
yükseltilmesi
seferler
değişime
güçlüklerin
maçın
##stein
katılımcıları
benimsen
teşkilatını
sıkılaştır
Mate
yansıması
Lila
yaklaşımın
deneyimli
Özgürlü
##liliğine
kalkınmaya
eğilimleri
tepkisi
istatistikler
Saddam
yerleşik
##opoulou
istenmeyen
Reformları
güvenilirlik
kısıtlamaların
Kapı
Kaplan
Cengiz
safhalarında
Kayak
Volk
Yüzde
##cinsel
boyutu
Listesine
Dünyası
mağduru
çıkmazın
Teslim
alamadı
mutluyum
Öncelik
desteklenecek
Nicola
panel
yetkilerinin
RTRS
Kırgız
Bocevski
Naum
faslı
faslının
bayrakları
Müsteşar
amacına
hırsızlık
çekişmeler
lisansüstü
Yenilen
birikmiş
hissediyorum
Çetin
Lamberto
Steinmeier
Jelasiç
##ograf
Güzellik
Önceden
önderliğindeki
Grand
temsilen
Walter
misil
Köylü
standardı
sebze
Demiryol
ecza
zimmete
AMBO
poşet
okumak
Lütfi
kümes
bütünüyle
peynir
Konusunda
püskür
UNIFIL
Derecelendirme
Dmitry
matematik
Bolog
Cana
Fab
Fest
Hidro
Kök
Meş
Menek
Nam
National
Paşa
Rock
Sis
Suk
SNA
Yolu
Zog
gişe
ları
nce
oya
ren
revizyon
sinde
tay
şen
şunu
şist
##lja
##oya
##dro
##earch
##cık
##coni
##gog
##viz
##ülemez
##SEL
##LS
##GK
##ingi
##anski
##ilmediği
##ekim
##onto
##etle
##diğine
##asov
##urta
##aşı
##dıman
##tiğinde
kabil
##ald
##ulyas
yapti
yapmalı
önleyecek
aranıyor
karısı
gereki
gündür
verilmesinin
verilmişti
konularına
açılmasının
gelmekte
gelmez
##ştuk
Bujan
Arka
##lusconi
üyenin
karşılanıyor
açıkları
açıklanması
suçladığı
devamına
uzay
göstermekte
görevimiz
durumları
diğerinin
##oyeviç
reforma
varma
sahipliğinde
101
konuşması
uygulayan
girmeden
koya
117
##yebilecek
imp
kullanıyorlar
erke
güçlere
açıklamalarına
insanlarının
çözülem
duymak
haberlerin
edemeyeceğini
ziyaretçilerin
derken
imzalanmasına
mahkemesinden
Kıyı
nedenler
yatırımlara
öncü
izole
ayrılarak
##elenmiş
ilişkinin
kesti
çıkarlar
çıkararak
yayınevi
mücadelesini
kaçtı
ölçe
üstüne
##landığında
evlen
çekin
tanımı
tanımıyor
tanımayan
iftar
##rence
Günümüzde
yoklama
Haziri
oluşturulmasına
Bron
Konseye
onaylayan
onaylandığı
tümüyle
düşünür
##nea
##ife
geçirecek
tutuklanmıştı
şartlarına
desteklemektedir
cezasının
kuruluşlarını
1800
paralarını
eğitimine
vuran
ayrılıyor
kurulun
kültürünü
hareketli
Ülkeleri
kuzeydoğu
eşinin
aşk
krizinden
gitmekte
değişikliklerinin
bıraktığı
bıraktığını
Marat
gazetecileri
soruşturulması
Berat
Berlusconi
çalışanlarına
ağına
ödediği
tavan
temelleri
ihtilafa
göründü
gelirli
İçinde
değiştirerek
değiştirmesi
isimlerin
ilanını
Papulyas
eylemciler
Basketbol
hâlen
operasyonunun
hisseleri
elektrikli
Olimpiyatların
Barrot
azınlıkları
Harv
Harry
yakalamaya
yaşayanlar
sanatsal
tabanı
maaşın
önceliklerinden
piyasada
rakamların
memurlar
okullarında
##ılmadığı
Novine
inandığı
Vlad
üretimini
##ouli
fırsatını
Kuzeyde
mesajları
isteyenler
kampanyada
riskiyle
verecekler
inşaatına
altyapıyı
Boşnakların
soygun
üstlenmeye
##abileceklerini
yazarları
ilçe
1986
söylentileri
sorulara
durdurdu
##elediği
##kovska
Brankoviç
yarımada
çabanın
aleyhte
sitesinin
kirli
Anlaşmalarının
itirazlarını
beceri
niyetini
kaydetmesi
Süreç
Sürekli
Uyum
çarpış
Research
katliamında
katliamıyla
kolaylaştırılması
hang
sendikası
Bekim
Emlak
dönüştürmek
teknolojiye
##janska
şeffaflığı
derecesiyle
isteklilik
müdürleri
gerginliklerin
çalıntı
turnuva
Stojanovski
kurtuldu
Dragisiç
Bildirg
meslektaşları
Dördüncü
dergisine
subayları
dua
Hatay
Bakoyannis
Strpce
sebebi
kayakçı
nehrin
sendikaların
Curiç
komitesine
İddia
ittifakın
tabanca
muadil
müfettişler
Stream
amacın
Rekor
Kaçakçılı
ikilem
kompleksi
Vekariç
büyüdü
Nüfusun
Miliband
çelişkili
Dağları
Tartışma
Camii
Hotel
kongresinde
faillerin
sabırsız
troyk
süpermarket
##teyner
Doktorlar
Nihai
Seyir
gribinin
Week
unvanını
prensipte
##holm
Elizabeth
Öldür
iftira
Channel
İKÖ
FBI
parmağı
Potocari
Enerjisi
Britanya
önkoşul
Zubin
arifesinde
kıyafet
Potansiyel
Bologna
Menekşe
AD
Atı
Alg
Cit
CPI
Duş
Hur
Jovic
Klan
King
KCK
Lev
Memi
Nur
Ovi
SR
Semin
STA
Skanda
Yo
atış
boks
fran
hijyen
kılmak
klini
neş
olar
rob
sina
sof
tugay
yoğ
çam
İvaylo
Şey
şif
##lünün
##acağım
##şeli
##mec
##sül
##ota
##ous
##dor
##gunu
##zet
##vor
##wa
##50
##ereviç
##inov
##enen
##lecek
##dia
##div
##diyan
##lerek
##ırh
##lanmanın
##yay
##emeleri
##ört
olgu
##utar
başlanması
etmeyecek
##stur
##edya
##okulu
vermesinin
vermemesi
##opol
anmak
yersiz
işlerine
devri
söylemesi
bulmuş
yönleri
gerekirken
söyledim
söyledik
söyledikleri
##tırken
##bilme
##bildiğini
##bileceğinden
##ıza
sağlanmasında
##cija
yaşta
##olitik
ilgisiz
Belli
yanaki
kadarı
önemsiz
deniliyor
isteme
sayan
görüşe
##reden
kararlarına
diğerine
konteyner
ilkesine
elçinin
##rett
fazladan
yardımını
yardımının
uygulayarak
girerken
koyacak
111
beklerken
##ıldığına
liderliğini
basamak
##ilep
##ilebilmesi
tarihçi
savaşan
##delen
bulunduğuna
ziyaretine
ziyaretçilere
reformdan
reformlardan
zamanların
İncel
##leşmiş
harç
Konjanovski
##asyonel
akciğer
toplumlarına
kaçınma
gazeteler
gazetenin
Ath
tarla
çekir
Ertesi
tanımasını
##tivar
halkından
##olojan
kamuya
onaylayarak
sektörler
engellerden
açıp
ulaşa
öneriye
tutuklandığı
düzeyine
yargılanacak
tampon
değişikliğinin
duyurusu
eğitimini
##açan
iddialarına
yürütüldü
hatalar
Geçir
Stolojan
meselelerle
istikrarına
tasf
kaldıran
ilişkilerden
değişikliklerle
dünyadan
nüfusuna
EUSR
fiyatını
vurgulamak
soruşturmaları
lig
ödülleri
göründüğünü
kaydediliyor
geliştirdi
değiştirmeyi
sıv
Kolay
kutu
operasyonunu
emekliler
koalisyonuna
başbakana
##dinal
yakalanıp
hukuku
görülüyorlar
kararlılığının
dinler
güçlendirilmesine
çerçevede
Savaşın
suçuyla
itici
Dobr
önceliklerini
tasarısının
yapmamız
ediliyordu
komşularının
rakamları
partilerini
##larımızdan
Bunlara
Chi
göçü
kuvvetli
rekabetçilik
satışını
heyetler
ücretin
yorumlarda
öğretmeni
inanılmaz
ölümüyle
direk
vergisinin
eksiklikler
söyleyecek
Kalan
biçiminde
Joe
makal
gelenekleri
İvanovski
milliyetçilik
Yaptığı
Moon
kısmına
Antonis
ilgilendiklerini
grevi
maliyetli
##ülerek
açılışına
yüzyıllar
Çalışmada
örnekleri
üstünlüğüne
Programın
taziy
cinayetleri
hastaneler
deneyimi
arzını
arzının
şahsen
bürokrasi
merciler
parçalanmış
Belgesel
maddesinin
beceriler
kilisesi
Drina
fotoğraflar
İstiyor
kalkındır
Normal
kökleri
Komutanlığı
çeşitliliği
ırkçı
nitelikli
zorlukları
oraya
Kampan
kabinede
zorunluluk
üniversitelerde
##zynski
Maloviç
yoksullukla
dondurdu
buluştu
hikaye
hoşgörüsüz
işkenc
Kullan
Düzeni
akıllı
anlayışı
mesafedeki
babasının
gördüklerini
haricinde
Trajkoviç
nefes
toler
Grev
tuttuğu
Otoyol
Kırmızı
cevab
Protokol
sevkiyat
düzeltmek
Hamza
Sanayii
içeriği
Kaçakçılık
arayışı
ilçesinde
katılabilmesi
sıkışırken
mühendisliği
Sky
fuarına
güreşçi
akrabaları
dilekçe
Tokyay
sindirme
Bütç
Jasen
ivedi
kötüsü
rafinerisi
Hizmetleri
Austin
eşiğine
Hastanesi
otoritesini
Riga
Kalkandere
Atomstro
Gostivar
kanatlı
Tehdit
Kuzmanoviç
hayali
Jackson
Singapur
farket
Kuneva
pompa
Yarımada
Fenerbah
sipariş
klasman
HRW
ruhani
Eurobond
Klaudija
termoelektrik
Bujanovac
Memija
BD
Bod
BTC
DA
Dal
DBA
Decani
Ediyor
Fl
Faz
IOM
Joviç
Keş
Kuki
Ombudsman
Ple
Raçan
Sarı
Sayı
Tür
Wimb
Yal
Yian
Zana
abar
gib
hast
hort
lez
neyin
paraf
piyade
çekt
Şart
şat
##seydi
##oi
##yuz
##kali
##rarı
##ule
##bolu
##viç
##ömert
##enberg
##uni
##ord
birliğe
##urc
##tia
##osundan
##ulo
içki
başlanacak
##abir
##abilmeleri
karikatür
ince
süreyi
##lamaması
iletiş
##yonun
kurup
yarın
yönlerini
##ladıkları
Artır
Araştır
toptan
karşıladığı
bilmek
seçen
seçilmesini
yaşana
duruluyor
ilgiyi
yapılarının
##eyif
Somali
getirir
düşerken
##eliğini
durumundaki
diğeriyse
konmasına
elini
alanını
alanlarını
varil
fazlasıyla
102
kaldık
başlatacağını
girebilir
##balaj
##meleriyle
hazırlanmasında
haft
Prel
ortalaması
Rein
duyul
derne
Konj
Kongr
##ganoviç
desteklendi
mevs
turunu
sınırlandır
şirketlerinden
aksa
çıkarsa
çıkarılmış
çıkarıldığı
gerçekleşmedi
adında
Milj
##sizliğin
kurumlarda
Enstitü
gözünü
Erol
verdiğimiz
##yacaktır
sonuçta
satmaya
terfi
atıl
##hanesi
oluştururken
tesli
geçirmiş
Rumlar
tutuklanma
programlarını
dairelerin
artırdığını
örgütlerinden
başlatıldığını
hızda
hızını
adımlardan
yargıya
##ümüzü
Yarinye
kurulmasında
edilmediği
Ülkesinin
kuzeybatı
Aydın
gruptan
gruplarına
aşmak
şube
meseleye
meselesine
kaderi
hayatın
hayatının
filmde
yaratılmasına
pazarlar
gitmesini
Toplantının
girişimlerin
girişimlerini
başarılarını
Bereliler
uzmanlarından
davalarına
öngördü
öngördüğü
saldırılarını
kaydedildiği
almayan
Indu
saate
Koh
fırın
kutlayan
operasyonlarının
##layıcılar
Miro
Mirror
kalkanı
Milosavlyeviç
gösteriyorlar
takımında
protestoların
menşeli
eminiz
dilimini
dinleme
milletvekillerini
tekliflerini
patlamada
iyileştirilmesine
sonucunun
istemişti
Hoti
uygulandığı
araştırmada
okullara
tahminleri
oynama
oynaması
yapacaklarını
Oyların
çizen
madalyası
##ılmadığını
soruşturmaların
vergilerin
dayanış
Vladan
Ponta
sağlayabilecek
üretimine
süreçlerini
süreçlerine
kapasitede
belirlenecek
belediyeleri
metn
kaçakçılığını
esrar
Yolsuz
Moda
gözlemcilerin
gözlemcileri
Görüşmelerin
veriyoruz
Mala
sonucudur
başkentte
durdurulması
sanığı
inceleyen
diplomatların
hastalar
hastalığı
imzaladıkları
yükümlülükler
Zagrepli
Ödülünün
Carlos
başarısızlık
birimin
Vuciç
Laik
Kararın
vakaları
reddetmişti
uğruna
talebinin
Bankacılık
güçlüklere
kabineye
erişimini
Ljubomir
performansının
arkadaşlarının
bakanlıklarının
koordinasyonu
koordinatör
uzatılması
İlişkin
üzüm
##ledon
garant
tonluk
madeni
ertelemeye
sayımında
kazandırdı
avantajlı
Pavel
birarada
tavsiyelerde
Trayko
Gözden
Sizin
emniyetli
varlıklarının
Strum
giys
izleyerek
besliyor
olmasın
rezervasyon
endeksinde
korkuları
SEEMO
sahibinin
fatur
içeriğini
hafifletmek
eskisi
öfkeli
yaşamakta
istişarelerde
Tören
Mihail
sonuncu
Mikereviç
mürette
döküldü
muamelesi
cadde
önceliğin
yataklık
düzineden
ivme
kötümser
sığınak
taksit
abluk
Sürecin
GSMH
Pieter
Stoykoviç
Servisi
bileşen
antrenman
Mezar
husus
Mekanizması
grafik
Kaczynski
Lagum
Juncker
İlazi
Mihajloviç
Selmani
Jordan
Başarılı
alarma
Polancec
Nejat
Hayredin
Yıldırım
Anatoli
mücevher
gerekip
##ırhlı
Wimbledon
çektiler
Aj
AU
Aut
BR
Bag
Cukiç
Fazla
Fred
Just
Ky
MC
Miç
Nak
Ob
PH
RWE
Sic
Tun
Ulus
Yüksel
Zap
Zban
bon
cömert
hi
iğ
judo
keyif
sekt
çimen
İH
Şam
##lop
##pan
##cevski
##ğunun
##PC
##gali
##zlo
##haz
##YA
##MP
##CI
##xh
##lasa
##lemesine
##diğinde
##livan
##iyeviç
kavur
##ememiş
##ağından
##aza
başını
başlıklar
göreceğini
görsel
##avica
etmelidir
etmeyeceği
##stra
buğday
##laşmanın
gününü
sonunu
andı
anlaya
anladığını
Kosta
##hagen
yerlerden
işç
##undation
Avni
kura
yaratır
yönden
Bulu
geçilmesi
geçmekte
toplamaya
üyeye
##darovski
karşılarken
uymayan
Maksim
##bildiği
##bileceğimiz
Makedonların
yakındaki
yetin
durduğu
yaptığına
haksızlık
##icle
##graf
getiriyorlar
kadarını
Eurozone
dönmesini
yasayla
kaplı
kapitaliz
iyisi
alanlardan
varılması
başlamıştı
girebilmesi
özellikleri
adap
kişiyle
kullanılmasına
kullandıkları
liderlerden
savaşının
yönetiyor
##gane
destekler
ortaklarının
çıkarılmasına
değişmesi
##right
kaçmaya
kaçağı
kaçırılan
olacaklarını
Demetr
tanıdığını
sürdürmesine
sürdürmesini
etmektir
satıldı
Güneş
resep
Brdo
Partili
Partisine
geçirilmesine
açılacağını
ulaşmaya
Anlaşmaz
olayında
olayına
amacımız
kuruluşuna
Kosovalılar
tartışmada
188
ayrılmasını
Genelde
gönderen
kaldıracak
270
okuyucu
ticarete
ticaretinin
dünyaca
girişimci
kaybederken
etkileyeceğini
düzenlemelerin
kredisinin
vurgulanıyor
uzmanlara
uzmanlarına
gerçekler
260
çalışanlara
doğalg
büyümesine
hissi
idaresini
artmasının
belgelerinin
Dairesine
Partizan
geliştirmesi
##dozer
grubundan
ordudan
şüpheci
seviyelerini
operasyonlara
zirvesinden
etkiyi
etkisiyle
tehditlere
##bourg
Barrett
koalisyonunda
##dinav
oyunlar
protestoları
öldürmek
devrilmesinden
dillerinde
çerçeveyi
çağrısına
payının
topraklarından
##lanmıştır
anketleri
koşullara
dağılımı
##meta
kaybetmesine
suçlamalarını
suçlamayı
suçlamalara
Bunları
almaktan
heyetiyle
geçmişine
vergilerinin
çifti
Vlast
Yetkililere
kriterlere
anayasasında
yaralanan
üretime
Sigara
korunmuş
hepsini
fikirlerini
Geleceğ
kaldıkları
hapiste
unsurlarından
Roganoviç
Suçla
mutsuz
gezisini
kazası
deklar
##bayla
başkentindeki
reddettiğini
Bizler
oluyorlar
inşasını
inceliyor
sesleri
ayrıntılarını
kolon
cinayetin
egemenliğinin
ithalata
tutuklamaları
şahsi
paketine
kaydettikleri
Kalmeta
değişimin
kabineyi
##lüğün
öldürülmüştü
mekanizmalar
Duka
hamlesi
Azaltma
dağıtılması
metrelik
rahatsızlık
başlamayı
generallerin
uçakları
derecesi
eğilimler
otomotiv
Radikaller
dünyasına
arkasına
erdiğinde
kazandırma
greve
grevler
Salonu
asılsız
canlandırılması
rakipleri
gerekçesi
imkanları
turnuvasında
Metho
huzursuzluk
yenilenmesi
santralı
izlediğini
Dragoljub
İrtibat
Vanco
açacaktır
Profesörü
kınadılar
sizce
kullanımıyla
dakikalık
izleyeceğini
Dusko
görünümünü
rezervleri
istiyorlarsa
şüpheleniliyor
yönetmelikleri
Halka
desteklenmesine
850
Brezovica
sağlanamadı
bulunduran
medyasının
gidişatı
soyle
ederiz
başaramadı
Angeles
sevked
Foca
Foundation
devirme
modernizasyonuna
emirleri
##ARE
hücum
gevşet
cihazları
Albena
meblağın
gayrır
Besim
Severin
müzisyenler
Potok
Pendarovski
yorgun
göstergeler
EPS
kaybedecek
mevkidaşları
kalabalığı
sürtüşme
ambargo
Rodri
alıkon
vergilendirme
HSBC
Wald
Vuckoviç
Tivat
banliyös
Simonoviç
Jeleva
Blanka
faslın
Droutsas
tanıtımı
Atalay
Müşterek
Laszlo
kilometrekar
Listede
konsolidasyon
ehliyet
portföy
fraksiyon
İskandinav
tolerans
Fenerbahçe
iletişimi
PHARE
Zbaniç
Demetris
Methodi
Bad
Cec
DV
Dek
Fili
Finci
Gav
HK
Hoş
Hale
Hemen
IBM
Jar
Jen
Kü
Kran
Lup
My
Madal
Pe
Pos
Ruli
Sap
Sus
Süper
Vij
Yağ
Yoğun
ast
bıçak
dul
dinin
faş
fres
kun
kıldı
naylon
sik
staj
tad
tsun
vü
ves
Öy
Şafak
##ıtı
##idis
##top
##rek
##ranı
##rell
##natoviç
##ediği
##gir
##lac
##ins
##anja
birisine
##atçı
deh
##imedya
##emize
##tana
##alj
##anız
##aralı
verebileceğini
##itter
##medikleri
almada
sürme
süreye
sürmesine
##ımına
##lamaların
olanı
Türklere
##ilmem
##ilmiştir
kurgu
beldeler
Buyar
geçtikten
olabileceğine
##alifor
Başvur
Makedonija
##mayacağına
açıklayarak
ettiğim
##ılış
hükümetlere
##cia
bölgelerini
problem
devamının
##grade
getirilmiş
sırf
bulunmaları
bulunmuştur
ilgilidir
##sky
sayılıyor
görüşte
##kins
dönecek
kararnam
##sany
##rati
elbette
alanın
planlarından
varması
vardığı
varılıyor
oyuna
##üssel
kros
Romanyalı
##imizle
gireceği
hazırladığını
Alsat
126
Prv
Prilep
##inaj
sertif
zorlanıyor
stres
ziyaretinden
ortaklarından
ortaklıklar
gerçekleşmiş
değiştiğini
saniye
yasalarında
müzakerelerden
olacaktı
toplantıyı
geldim
evden
evrak
Enformasyon
beklentisi
##lanmasıyla
Ruslar
iddiasını
sonuçlarından
satılması
doğruladılar
tamamlanmasının
##uper
geçirerek
engellenmesi
engelliler
tutuklanmasına
seviye
salgını
bors
adaylarının
olaylarında
örgütlerine
örgütlerden
başlatması
başlatılmasının
eğitimden
bakılırsa
Kardeş
kurulduğunu
Niksiç
gelişmesini
hareketine
Ülkeyi
eşcinsel
aşması
farklılıklarını
azaldığı
Sorunun
ticaretini
bağlılıklarını
Radomir
bırakın
politikalara
##ogo
dikkati
anlamsız
gerçeklerin
çağrılarını
olmayabilir
kurulacağını
yarışını
gelirlerinde
isimlerini
Papak
Mirası
Akım
Sermaye
ihtilafına
yakalanarak
alacaklı
tekrarladı
##abiliriz
Elbette
iyileştirmesi
yapmadan
istemek
##sula
partilerinden
potansiyele
uygulanmasından
suçlamalardan
##mayın
çevreyi
##miyorlar
oynadıkları
Maliki
Seçimlerde
yorumu
yorumcular
korktu
sergileri
Tayland
Kadı
yaralı
sağlayamadı
ağırlık
yaşanması
Sigh
birbirini
birbirlerinin
manşet
analistlerinden
tanımlama
tanımlıyor
SARA
Abdül
miktarını
hepten
açıklamasından
kampanyalar
yurttaş
doğalgazını
santralini
onuncu
gezisinin
yıkıldı
##istiç
kısıtlayıcı
alışılma
çiftçilerin
Verhagen
durduruldu
inceleyecek
##üldüğünde
diplomatın
denetiminde
gizlice
bozma
##ullahu
bilgisayara
prosedürlerini
Vuj
Mecliste
Yatırımcılar
gemileri
kaygılara
Sağlığı
Yasayı
trafiğini
merm
seferleri
Batiç
hazırlıklarını
gayri
Patrick
senatör
Oyunlarının
Valentina
korumakla
edilebileceğini
Ljubisa
caminin
fotoğrafçı
öğrencilerine
boşluğu
güzellik
Vasily
kökten
olmalıyız
finalinde
Morris
tepkileri
nüfuzu
Yargıtay
kazandırmak
modelinin
Diana
otoyolunun
Amacı
##strom
duyuyorlar
öğretmenlerin
dizüstü
##ebileceğine
Hakkında
bağımlılığı
iadesine
kardeşler
tüketicilere
Gerhard
Avustralyalı
sergilenecek
##OSNA
kavuşması
Today
yönetmelikler
tutulduğu
Davidoviç
duygularını
baskında
Öğrenim
kavuşturulması
Rosen
çıkartma
hırs
kahve
##gresif
mühimmatın
İddianameye
Muhar
faturalarını
tamamlandığında
medeni
sarsıntı
Endeksinde
muafiyet
arkadaşlarım
ANKA
kalitede
Cemaat
bilinçlendirme
Christop
şoförü
Orada
abart
Deprem
Albania
Koştunitza
Vecernji
favori
kurtulan
şaşırttı
piramit
Kafkaslar
komiser
Tsvetanov
Meglena
##ravka
Serbia
temerrüt
çalkantılı
##ÜKSEL
gütmeyen
şeridi
Gligorov
ilgiliydi
##YBOSNA
Science
Ringas
Lawrence
BRÜKSEL
Vlastimir
SARAYBOSNA
Agrafi
Akademi
BT
Clock
Diz
Duvarı
Emin
Fildi
Feh
Gold
Helen
Hartman
Homen
IK
Jutar
Kem
Kit
Kart
Kub
KEK
Klinik
Katılan
Lan
Loc
Momir
MTV
Nij
Plass
Sop
Salt
Tu
Tali
Toli
Time
U2
Wat
Zen
agresif
biber
des
icat
lere
pano
tüc
yem
Üs
Şarap
Şatosu
##linde
##lileri
##ılabilecek
##mis
##sp
##otik
##oza
##ydü
##yeviç
##taydı
##kom
##reyn
##ew
##bı
##cis
##cara
##öm
##hir
##OK
##erale
##inek
##ance
##arini
##arov
##enc
##eleyen
##lija
##aseviç
birliğinden
##ated
##tici
##emektedir
##ulmasında
##ulmuştu
yama
##over
##azz
##ayir
##rahi
başlarındaki
görürken
yapabil
##edin
##ahmet
aldat
anında
anılan
konustu
açar
açılıyor
ayin
##lenin
sürelerinin
##ceg
##ilmelerini
##ido
Artış
ekran
uyru
##tırım
sağlandığı
açıklanacak
ettiğinden
Arnavutlarla
seçil
belirlem
belirleyic
çıkmasının
yollara
suçlaması
durulacak
##afir
savlarını
Soci
yüzbinlerce
hakların
bağı
çalışacağına
##ıyorum
bulunmaktadır
görüşülen
gösterim
gösterge
düşeni
konacak
konmuş
ilkeler
azını
tutmayı
üçüncüsü
konuşurken
gireceğini
yaklaştıkça
kullanmasına
kullanılmış
kullanıp
kullanacağını
erdiğini
ermesini
Baltık
anlaşmalarına
devletlerinin
##leştirilmiş
Pri
Ordunun
yayılması
edebilmesi
desteklerken
##rano
takın
projesiyle
şirketini
çıkarlara
gerçekleşmesine
gerçekleşirken
örtüş
yasalarla
yayınlama
yayınladılar
Arab
evlerinin
çektiğini
gözünde
taşım
sürdürmeleri
halkların
Günümüz
doğrulayan
##janiç
oluşturmayı
testi
Brasov
Konsorsiy
bunlarla
kapsamına
olasılıklarını
programından
artırılmasına
yargılanıyor
kuruluşunu
tartıştı
paraları
bakmaya
bakımı
gerçekleştirdikleri
ayrıldığını
iddialarının
kültürler
çağırıyorlar
##ebilmeleri
gelişmesine
edilir
bulunanlar
terörün
öğrenme
krizler
maliy
210
kaldırması
değerlendirmesine
kaybolan
başarının
başarısının
Geoff
anlamlı
gereklidir
yabancıların
kanad
muhalefete
idaresindeki
istedim
yarışa
Kültürel
Seks
değiştirildi
saatlerce
siyasetinin
##islava
etkilere
uygulamaların
anlaşmazlığında
Macedon
yakalanmasını
Franko
yükselmesi
dinam
dinlen
izinsiz
tehlikesiyle
payına
Dolar
topraklarına
ifadelerini
önceliklerinin
güneybatısındaki
Hakimler
Müslümanlara
bütçede
uygulanmakta
##ford
kanıtlaya
çevreye
istifasının
yanıtlar
Georgieva
karşılaşması
Özelleştir
barın
sağlayabileceğini
ısrarla
ürünlere
Final
davetini
belediyelere
Oldu
isteyenlerin
Abhaz
Cinsiyet
madalyayla
havası
saygılarını
emekliye
araçlarını
köyde
İlki
indirme
Hasat
fabrikasında
entegrasyonunda
kurallarının
##ıncaya
Aliç
taşıyordu
gezisinde
odaklan
iltica
şarkıları
1981
soruların
durdurmaya
bazlı
öteye
hakimleri
bozdu
Ödülleri
şehirde
kolektif
genişletilmiş
profesyonellik
duruşması
Ivaniç
sitesini
kaynağa
derinleştir
Yasasını
Bugünkü
Bankalar
seferinde
sahnel
##steel
öldürüldüğünü
hazırlıklara
hükümleri
gelişmelerden
Bakü
fikrin
sandalyeyle
uçaklarının
dereceye
otob
Açıklamada
engellediği
kanalın
Djeliç
Blaga
Zira
çözülmesini
Merdare
Transn
yenilenen
suçlanıyorlar
adliye
havaalanında
Kapsam
tavsiyeleri
prova
Karşılıklı
Zirveye
algılandı
veterinerlik
Goati
öneride
##OST
çıkmazı
1963
görevlendirdi
tedarikçiler
satıcı
Dejanoviç
radyoaktif
güneydoğudaki
barındırıyor
mantıksız
müfettişleri
Mass
tutukluların
Bahreyn
haliyle
Zvez
uğrattı
akışını
donanımlı
Raznatoviç
virüsü
istikrarsızlığın
kademe
tırmandır
meraklı
dökül
restorasyonu
Smeder
semtinde
masrafları
EPP
duygusal
Beyr
geçmişten
##taliter
Kocijan
Kişiler
Sullivan
troyka
virüsün
iradesine
Strauss
çeyrekte
sembolü
alıkoy
Doğalgaz
Toronto
kıtasını
diplomasisi
disiplini
Majko
Faruk
ömr
kablolu
mektubunda
Videanu
kefalet
sempoz
Cezayir
Gyurc
Galic
Vassilis
Olağan
Mektup
İşverenler
Elenovski
Drews
Twitter
bombardıman
##work
teşebbüs
Kurtarma
Özgürlüğü
sinagog
Jasenovac
Yalçın
mevsimi
resepsiyon
Küba
Papakonstantin
Sighisoara
ANKARA
Agrafiotis
Plassnik
Tolimir
Gyurcsany
Aw
BE
Blu
Bazen
Cup
Cern
Dürüst
EM
Fan
Hum
Haj
HRT
Ian
Ju
Jela
Juli
Lat
Latif
Nap
Nada
Oz
ORA
Pin
Pul
Pana
Ristiç
Sz
Traf
Uğ
Uçak
Vs
Wik
Yav
Yorum
basım
det
emp
harap
kg
kW
ri
ret
sir
ster
sanıyor
val
vasıt
zırhlı
çeş
İg
##adi
##sip
##kinden
##klarına
##fo
##bis
##bara
##cus
##gür
##jet
##BH
##İK
##ilyon
##magu
##mamakla
##ekler
##asp
biriyle
kada
##ovitsa
bulaşmış
günlerinde
sonlandır
geldikleri
sürat
süreceği
sürünc
##ştiler
söyleme
söylese
##idoviç
yönerg
Buhler
geçim
geçip
Arasında
Ardian
##daroğlu
Başladı
düzenin
sağlanmasının
bildi
bildiğini
biliyorlar
##iğine
belirliyor
suçtan
ilginin
yapılarını
yüzü
yüzünü
##guez
haklarından
##üksüz
getirmekle
getireceğine
getirmiştir
getirecektir
getirilmesinin
bulunmasının
ekonomiyle
ekonomilerinde
avuç
dengesi
istemediği
aradığını
amatör
düşmüş
dönmesine
dönmüş
yasağın
yasağını
görevlis
zamlar
editör
yardımların
yardımına
##ive
103
108
##üsünden
Birbir
yegane
uygulayacak
girer
##bai
##yebileceği
##yexport
hazırlamaya
121
tarihindeki
sera
Rep
kazanırsa
merkezlerinin
stok
kaynaklandığı
mahkemelerinde
##otto
taklit
akl
değişmedi
yasalarıyla
yayıncı
kaçmak
alınmadığı
Democ
kısır
raporlarında
tanımış
değerlerine
sürdürüle
iddiayı
yazılmış
##lattı
oluşturulacak
uzunluk
onayladığını
tamamına
tamamlandığını
tamamlanacağını
gelecekleri
geçirdiler
geçirdiğini
ulaşmayı
ulaşmanın
tutuklamanın
sevdiği
şartın
şartının
dairesine
adayının
artırıp
Dünyada
üretme
değişikliğini
genişleyen
Sandra
edilemeyeceğini
göndereceğini
gönderdiler
aşma
aşarak
dikti
tahta
edilene
rollerinden
pazarını
pazarlarda
gitmesine
değerlendirildi
##elçev
girişimle
malvar
umutsuz
etkilemeyeceğini
başaran
Marco
##bilecekler
tanrı
toplamı
##rosunda
saldırılardan
yarışmayı
cezalarına
üyeliğiyle
geliştirilen
geliştirilmesine
##takım
şüphesi
seks
##dürülebilir
Krem
hissesine
edilmem
yaşamayı
Mirsad
Muhalif
aileye
Aky
##matoviç
yakalayıp
Franz
Katliam
özelleştirmeye
Haberlere
sokacak
kürek
kararlıdır
Elbas
tasarlanan
hızlandıracağını
Adil
azaltılmasına
listeleri
alabiliyor
##larımızda
kapatılmasına
yedisi
yararlanacak
misyonunda
uzaktan
rekabetç
muhbir
olanaklar
karıştı
puanlar
puanlık
Stanish
anayasasını
yaralanma
görüyorsunuz
Yakov
belirleniyor
düşürmek
içerik
saflarına
birleştirecek
maksim
konseyin
seçimlerdeki
Popüler
bağışladı
kasabasının
mutlaka
yazarların
Dayanışma
odaklanma
Diplomatik
katılmadan
denetiminin
nakliye
Stock
sanayiinin
Projeyi
mezunu
dökü
piyasalarında
cumhuriyetleri
Stefanovski
oylamadan
umuyorlar
dağılması
yapımında
yapımını
Danilo
kaydetmiş
dolaşan
Osmanagiç
kullanımında
pasif
hesapları
alışverişini
Pancevo
hükümler
başlatıp
##ultimedya
ertelenmesini
masada
dağıttı
girdiğinde
Corner
etmişlerdi
fakültesi
ödenmesi
Kabul
çetesinin
yaşadığımız
davranmaya
Aleksandr
sınıfı
müdürlük
başlayabilir
şampiyonluğu
finallere
Eurobar
pasaportu
Djur
yapamaz
tepkisini
gerginlikleri
uğraşmak
Ager
kimseyi
dalgasının
avantajlar
enerjiye
turnuvanın
çıkarıp
huzursuz
Üyeliği
Madd
şahıslara
yaptırımların
Malm
bilmiyor
Zivanoviç
dağıtımını
baskınlar
barajın
Hattı
Yüzbaşı
Kimileri
uygulamakta
tüketicileri
görünümle
sponsorluğunu
Slavko
Slavica
bildirgenin
Medyada
odaları
kavuşacak
Terörizm
bastırıyor
yönetmeliklerine
ittifakı
Öncesi
##RAN
totaliter
sağlanamaması
Taraftar
kavramı
Angelopoulos
Edita
hissettiğini
Tutuklama
Gior
iletti
planlamadığını
dışarıdan
mevzuatını
aydınlar
hücre
aklamayla
##ometer
manzar
Düşün
mühendislik
Telegrafi
faturaları
Vekiller
##antes
akrabalarının
devretti
uçurum
Milica
transit
aptal
portalı
terminali
Dacia
delegasyon
torba
aktivit
herşeyden
Danışmanı
##ografik
Galerisinde
işgüc
iradesini
hedeflediğini
Albanian
Maxim
Sığınma
yuva
uzaklıkta
Kalkandelen
Vuciniç
Jagodina
##tagma
komiseri
Teknolojileri
Paravantes
mercii
öyküsü
Kılıçdaroğlu
Mrksiç
Başkons
mazeret
soprano
Silvio
##oteknolo
Lejyon
Glavas
Elimiz
Cheney
fanatik
hapisteki
Malezya
TİRAN
sevkıyat
sadakat
Kırgızistan
misilleme
Bronz
Atomstroyexport
Strumica
Lagumciya
Anatolian
Miçiç
Methodius
DVD
Abhazya
Kocijanciç
Vseki
vasıtasıyla
Stanishev
maksimum
AS
Ade
Ateş
Banya
BIA
Cop
Darik
East
Efsan
Jüri
Jeff
Kum
Kedev
Kitar
Lt
LEF
Mul
Mast
Paj
Ren
Saat
SFF
Tav
Veri
beton
dü
kesi
kelim
mısır
nom
pist
skor
tüp
von
İmam
##mda
##oter
##kulu
##rul
##bab
##beti
##cına
##ğünün
##zde
##val
##has
##jak
##Net
##elo
##onic
##onjiç
##dic
birtakım
##isnik
##yaş
damar
kalesi
##emiyorum
##eyim
##ılmaları
##iza
##akip
yapısına
##ston
arındır
bulaştır
kariyeri
inde
inkâr
##ope
konularının
konuğu
gelmeyi
geldikten
##lenerek
##had
sürmesini
yerinin
yerlerinde
olduğum
kuruma
göbe
eklenmesi
sualtı
uyuş
Hırvatça
##tıraş
milyonu
sağlarken
##efi
ettiğinde
çıkmasından
yollarla
sözlerin
yüzd
teb
çalışanın
kadarının
haldeki
ekonomilerde
uza
görüşen
gösterime
göstermelidir
olmamasından
döndüğünü
seçimde
ilkelere
ellerine
106
##zani
erit
ermesine
Almun
liderliği
koruy
duyuluyor
merkezlerine
ziyaretleri
harf
sıradışı
Konfeder
yatırımcının
dönemlerinde
kesildi
toplumlarını
çıkarların
çıkarılıyor
ilerlediği
Bakanlığına
yayınlaması
yayınlayacağı
polislik
##riot
toplantıların
toplantılara
sayılan
Athan
evini
bazılarında
Ener
Erz
yükseklikte
terc
yakınlaşma
resmed
geçirmede
hayret
kapsamı
olasılığından
Anlaşmasında
salgının
adımlarla
sunmuş
tenor
##memesine
##memiştir
faaliyetlerinden
paralar
paralı
şeklini
vurarak
yolsuzluklar
beşi
kuzeydoğusunda
Ayak
##meyeceğiz
tahıl
kimliğinin
azaltıyor
pazarları
istiyorsak
olduklarından
##barek
bırakmış
etkilemeye
etkileyeceği
Batıya
Borisova
##malılar
Schüssel
Bükreşli
Mübarek
davalarla
muhalefette
geliştirmeyi
Adaları
temsilcilik
siyasetçileri
eyleminin
çıkanlar
Kry
kesimini
hisseye
ihtilaftan
takımına
kullanıcısı
menz
Kürtlere
tatlı
tatili
Temsilcinin
bölümleri
bölümüne
kürtaj
verenler
dilinin
güçlendirmesi
etkinliklerin
bölünmeye
iyileştirecek
Koreli
tutumlar
yapmadığı
başvurusunun
istemektedir
aittir
kanıtladı
çevrilmiş
yanıtta
##mıyorlar
madalyasını
gecelik
ücretlerinin
Seçimlere
karşılaşacak
sakini
noktalar
projeden
Denkova
gücünde
Yaka
savunduğu
referandumla
saygısızlık
milliyetçilerin
yükümlülüğünü
##inizin
İlker
Popova
aktardı
marş
yasaklıyor
firmalarını
firmalara
daralt
Yıllar
gezisine
Ljup
odaklanıyor
odaklanmaya
şarkılar
zafere
seslendir
ayrıntılar
işlemlerinin
yüzyıllardır
denetleyecek
Taner
Tanoviç
Bode
birimini
duruşmasında
siteleri
ihalesinde
tanıklara
Sürdürülebilir
dolaşıyor
hazırlıkların
Srna
Panay
maddesini
Taseva
mahrem
ertelenen
yaşıyordu
edinmek
sözleşmesini
yaklaşımını
Drutsas
özgürlükler
fakir
iradenin
kalkınmasını
Norac
tona
aşamaya
kanalına
Famagu
modelini
Agos
Voyislav
bebe
acımasız
izlemesi
Lukalı
affed
şaşkın
tavsiyelerini
Vakıf
meslektaşlarıyla
onadı
izlenimi
Haiti
çarptırdı
sigort
olayıyla
##now
algılanan
depremde
anlaşmazlığıyla
Voyvodinalı
Yüzyıl
çıkışı
dönüşümü
protokolün
Kendisi
sponsorluğundaki
ettirmek
tanıtma
heykeltıraş
Direktör
Öncelikle
işadamlarının
Kolomb
filo
Grabar
Emekliler
boya
Naci
##üğüne
kulübün
kulübünün
kalpaz
karşıtları
çekişme
Zvor
Zvecan
blogcu
Viso
körükle
Kuçi
ikilik
kompleks
kanıtıdır
istikrarsızlığa
kurbanın
havalimanı
fuara
Munk
önceliğinin
malzemeleri
portal
varıyor
kayboldu
azalarak
radyosuna
görmüyorum
koltuğunu
Emirlikleri
olamadı
havalimanlarını
Staviski
UDMR
sürdürülmesini
Ağır
Virgil
Domini
kocası
##alistik
Konuşmasında
sahtekâr
gurbetçi
Johannes
Gaspar
başlangıcında
Eserleri
ömürlü
alınırken
Kastrati
soğut
##KOŞ
Müfettişler
Selimoviç
Croatia
White
Körfezi
Kalabalık
Dumit
aramızda
Münih
Louis
Tedbir
Karargâhı
Boucher
LAOS
yurtiçinde
orkestra
Kruşevo
Bondsteel
Demiryolları
imparator
Weekly
olarka
Chiarini
taziyelerini
çimento
gayrıresmi
Kranj
Vijesti
Prvoslav
Hartmann
Jutarnji
Stockholm
Eurobarometer
Agerpres
Kitaroviç
Ltd
LEFKOŞ
Almunia
Famagusta
By
Bom
Beni
Bist
Bij
Cart
Credit
Dz
DI
Des
Drak
Duvar
Gon
Haç
Hentbol
IR
IAE
Mav
Most
Mimar
Olan
OTP
Pel
Piskopos
Siy
Telen
Utr
War
Yur
ceb
fiş
feth
ita
jür
kli
pla
sesi
vag
villa
yeş
za
Çer
çin
Şer
##amayacağını
##ium
##ddet
##nunuz
##çenko
##voje
##öğ
##CC
##NT
##20
##arya
##enoviç
##enlerin
##ilmediğini
##eko
##dizel
##lane
##lanırsa
##uris
daima
##emeyi
##eyeceğine
olunca
##rad
##ompet
görülebilir
##aval
##avier
##star
önünün
karayolları
vereceğine
vermeyen
alp
aldım
yerle
##enia
söylemiş
Avram
bulmayı
Anma
geçimini
toplanmış
##eninden
sorusu
kayba
tarafsızlık
uyul
bilmediğini
seçtiği
##ades
çıka
yolla
yollarının
çokuluslu
sözlere
durması
##oligan
sahaları
yapılabilecek
Soc
##gue
Bulgart
bağlama
çalışır
önemde
görüşülecek
gösterilerin
göstereceği
düşecek
kapısına
müddet
iyelik
##oyakıt
104
Bireysel
kaldıktan
konuşmaya
adaleti
115
kullandılar
devletle
1200
savaşlar
seramik
komedi
komando
yayılmış
davasına
yönetmek
merkezde
merkezden
dert
reformlarına
reformlarında
Konut
##etteki
yatırımla
izleyici
ilişkiyi
mücadelesine
çekim
çekilecek
tanıyacak
tanımamış
sürdürürken
halklar
satıyor
Günün
çabalarıyla
Partisinden
tamamlanmasına
sektörlerindeki
katılmadı
ulaşmada
sevg
dairelerinin
yargılanma
##uşu
138
##memelidir
186
faaliyette
bakır
hizmetlere
başkaları
Merkezin
gerçekleştirmesi
oluşmasına
ayrılmaya
yürütmek
gelişig
gruplarından
gruplarla
Stara
yaratacaktır
##eliğe
değerlendirilecek
olduklarının
Büyüme
heyec
şiddetten
bırakılan
burası
280
Mülk
çağrılara
büyümesini
türleri
saldırılarında
Yeterli
temelde
belgeye
diploma
Herceg
yarışına
yarışmanın
isimlerden
şüphelerini
seviyelerine
eylemlere
eylemlerde
nitelendiriliyor
operasyonların
Devletler
Olimpiyatlarda
Görevi
Akre
Barikat
koalisyonundan
kalktı
Harek
öldürme
politikamız
özelleştirmeden
ilerlerken
kalacağız
maaşlara
güçlendireceğini
güçlendirmenin
milletvekillerinden
paylaşma
Burkay
Doha
koşullarına
koşullardan
uçuşa
kaset
borçlar
listelerinin
istemiş
istemesi
vermediği
netic
suçlamalarda
kanıtlara
sağlamaktır
araştırmaları
acemi
yararlanan
misyonları
Oylama
çizerek
satışların
satışına
heyete
Seçimlerden
Novo
sergiye
çıktığında
komutanları
dayanık
bahse
harcayacak
sağlayamadılar
ağırlığını
Tröst
aylıklarını
süreçlerinin
süreçten
televizyonunun
açıklamasının
metni
kampanyaya
kapılar
köyündeki
Yapım
Yapılacak
yasakladı
kasabasına
üstlenmesi
yıkılması
temaslar
birleşiyor
saray
şarkıcının
1982
söylent
şanslı
şansları
gündemindeki
Pala
yetkiye
alınmasıyla
işlemlerin
bozucu
nakliy
prosedürlerin
cinayetlerin
genişleten
genişletmeyi
konserle
isteğini
piyasaların
piyasalarına
itirazda
arzusu
ruhunu
Sanatları
iptali
değişimler
Belgenin
İklim
öldürülmesinden
meşale
gardiyan
doktorların
Telekomünikasyon
##iryak
becerisine
yansıtacak
yetersizliğinden
sergilediler
ertelenmesine
Dubai
eğitmek
HDI
edinilen
##ROM
etkileniyor
özgürlükleri
Goraz
Radyosuna
kayıplara
öğrencilerinin
uçakla
harcamaların
kaçındı
eğilimin
Faaliyet
ırklar
Vardar
grevine
330
batısında
keşfett
Diac
rekoru
safhasını
Stojanoviç
huzurlu
pasaportların
kurtara
güvenilirliğini
affet
dizisi
Bildiri
stratejide
dondurma
açılmasıyla
gerçeğin
gidiyorlar
şebekesinin
##batısında
yemekler
parlamentosundaki
Stras
işlevi
dokunulmazlığını
##ufas
mağdurları
döndüler
düşüncesi
beldesinde
beraberindeki
Musa
Fakült
ağız
sınavı
Azeri
Unit
pratikte
McE
Olayda
ederim
otorite
Kırsal
düzeltme
toplulukların
hissedarı
Wilson
##cülük
Kurumlar
bütünleşmesi
savunucusu
cihazlar
kiralama
1945
kullanıcılarının
bayramı
Müftü
kutluyorlar
Edward
Mobilkom
yurda
yurtiçi
İşletme
kitlesel
suçluyorlar
sürücüler
radyasyon
ARMO
Network
Wester
simgeleyen
mahalles
sloganlar
yöre
bahsediliyor
Club
peşine
şişir
Üretim
vermeyeceğiz
##reditasyon
Oprea
SIPA
Demiryolu
Economist
gorus
kaydol
Veliko
Üzerinde
Ayrım
Yurtdışında
Ovcara
Doris
Lideri
Mimoza
Egmont
Techn
Cikotiç
jeneratör
gümrüksüz
Kitabı
Bruno
##inness
talihsiz
Associated
Hayal
tayin
Duşan
doğalgazı
soyledi
Rodriguez
Cecilia
Filibe
Fehmi
Kapsamlı
Smederevo
Elbasan
Ljupco
Zvornik
Siyufas
Telenor
Utrinski
gelişigüzel
Atif
Asam
Afet
Bru
Bülen
DT
Dun
Dol
Fah
FOC
Gavr
Hris
Kade
Led
Land
Mam
Mers
Mug
Mati
PUR
Söyle
Tara
Um
Vur
Velçev
Xavier
Yay
dip
hurda
kula
kere
mol
multimedya
plak
paya
rektör
sis
tart
Şan
Şik
şan
##miye
##ox
##yit
##tt
##tre
##raz
##rullahu
##ff
##foni
##AZ
##gy
##gro
##gısını
##jer
##MA
##UP
##WP
##lad
##inler
##iliç
##mamasına
##unt
##diyalı
##lia
##lica
##dew
##atis
##lanabilecek
##ures
##yacağı
##ürüz
kalif
##ovat
##işlerinden
##amanın
başlıkları
##avoda
##edes
##abak
karam
vermelerini
almıştır
konuştuk
açmasına
enstr
işlere
##şten
bulmada
kurduğunu
##idge
##eziu
Arınç
göst
sorusunu
ekme
eklenen
##ukav
isminin
sağdan
açıklarken
Arnavutluğun
##naf
yapılara
bölgeyle
##ariu
Bulma
bağır
yandaşı
##icanin
görevlere
diğerlerini
planıyla
yardımlarıyla
üçünün
yetkiliye
sonrasına
binayı
güçsüz
açıklamalarını
128
şekillerde
Prim
ortama
sorunumuz
insanlardan
kazanacağı
çözecek
çözmeyi
çözmenin
merkezinden
edemedi
ziyaretler
zamanındaki
imzalandığı
kendimi
sıralarında
sıralarda
sağlamakta
mahkemeyi
mahkemelerinin
Banat
ortaklığın
Pardew
şirkette
şirketinden
akla
toplumdaki
katılımcının
sayıca
çekilmiş
çekilmek
Enflasyon
tanığı
tanımadığı
beklenebilir
sürdürmeyi
haç
satarak
satılıyor
sihir
atmayı
oluşturarak
tamamladığını
tamamıyla
##porter
geçirmenin
geçirilecek
katılmıştı
vatandaşlığına
oranındaki
oranlarında
önerilerin
seviyorum
memnunuz
programların
##uver
sorumluluğ
adaylarını
örgütlenmiş
##izio
Eyüp
otoyolu
sunulmuş
kuruluşlarında
175
üretmek
üretici
137
##memeye
Bora
faaliyetleriyle
Hükümetler
Bankasından
Karl
Karayolu
gerçekleştiriliyor
ayrılıp
çağırdığı
edilmeden
Ülkeye
eşdeğer
tedbirlerle
meseleyle
kaçakları
terörizme
##eliğine
##lanamaz
başardık
düzenlemesinin
düzenlemekle
EURO
başarılarından
altısı
edecekleri
yaşamının
zanlılardan
iktidardan
Müda
##rosunun
ağac
türde
yabancılara
giderse
saldırıdan
serbestliği
yarışta
yarışmasına
kaydedilmiş
üyeliğinde
tepeden
almadı
koşulan
meclisinde
stratejiye
bankalardan
operasyonlarında
zirveden
Mira
uygulamalarını
ailelerini
##siklop
bağımsızlıklarını
yükseliyor
tabak
dilim
bölündü
bölünmesine
bölünmesinin
patr
topraklarını
İttifakla
Korca
Luis
##metler
küreselleşme
yapmalarına
başvurdu
Müslümanları
rakamlarına
partilerine
alacağına
fonun
Step
kanıtların
kanıtlıyor
çevreci
zararın
##miyoruz
olmayanlar
yanıtları
statüye
madalyanın
muhtır
kamuoyunu
saklandığını
harcamayı
yaralanmıştı
ilerletmeyi
fırsatına
korunmasının
aylıklarına
Grubunun
belirlenmesini
belediyesine
adaletsiz
donan
müdah
Kanun
##ijeviç
köylerde
yoksulluğun
indirildi
yasaklı
biten
fabrikasını
kasabanın
reisi
temasları
odaklanmış
saran
maliyetini
maliyetlerinin
diyaloga
müdahaleye
seçimlerindeki
olmadığında
temizlemek
Durumu
seferi
cinayetle
terket
aleyhine
birimine
duruşmaya
mülklerin
kendiliğinden
ihalede
oylamasından
oylamasıyla
Karargah
itirazlarına
iyileşti
göstericileri
üreticilerinin
tanıklar
Bugünse
kaydetmesine
hesaplarını
hükümlü
başlatıyor
Patlama
becerisi
Konseyine
göçmenleri
mahkumlar
şikayetçi
##tinen
sineması
dağıtma
Kamuoy
Teknolojik
deneyime
##emizin
##ebilecekler
çeteleri
kurdukları
##ilirse
ithalatını
uzattı
uzatılmasını
katılacaklar
müdürünün
garantisi
Açıklama
şampiyonluğunu
aşamalı
kanalının
Svetlana
Salz
yerleştirdi
suikastının
Merc
Pavlevski
rekorunu
safhasının
Parlamentoda
gördüler
destekleyerek
planlanıyordu
imajına
imajının
yargıçların
oluşuyordu
tatbikatın
Beşinci
barajının
haritasını
##çilikten
ormanlık
uygulamakla
anlatmak
merkeziyetin
Havel
Adria
nehri
özgürlüğün
mültecinin
##cağımızdan
heykelin
müşterileri
müşterilere
keman
panik
Trajkovski
Emeklilik
Guca
Guinness
bozan
kavramını
savundular
vakalarının
ordusunu
tehdidiyle
kavuşturmak
Giden
psikiyat
taşındı
yapılmadan
biletleri
##kardeş
kazılarda
1950
mekanizmalarının
Brezilyalı
konsorsiyumun
Hepsi
dayatma
açıklanmadı
Misyonun
Srbije
Nicholl
Sonraki
Brian
Colle
Donan
yaptıklarından
puanıyla
çöküşü
Kenti
Edmond
ayrımcılığın
dallarında
makineli
Endeksi
kuşatması
Ekibi
mitingde
ANI
semtindeki
taahhüd
bıkmış
##ropol
kapatılan
akademisyenler
modası
Onayladı
övdü
teorik
gülüms
Sıcak
çeşitlilikte
endeksli
rayından
endüstriyel
Lyn
Anagnostopulos
örtbas
Madencilik
yüzleşmek
Gündemde
markası
ACTA
şerefine
Boğazı
Blagojeviç
NAM
güzergah
anımsat
oynanacak
fahri
mühlet
vatanseverlik
##eoroloji
duyarlı
Kolordusu
jandarma
rehabilitasyon
Albtelecom
cürüm
ünifor
Leposav
popülarit
Knezeviç
şemsiyesi
Moldavya
Vaclav
##oulias
Algı
Joviceviç
Ovidiu
Skandal
Yarımadası
Lupu
Taliban
Geoffrey
Galicnik
kadastro
Konfederasyonu
Kryeziu
Gasparoviç
müddetçe
Akrepler
McEl
FOCUS
kalifiye
Aur
Adanın
Cev
Dab
Deliç
Dvor
Dicle
Edin
ERT
FY
Felsef
IV
Jug
Kand
Lin
Lap
Lad
MJ
NH
Nad
Nag
Nep
Nasıl
NEK
Oto
Poc
Plov
Rec
Ruz
Saban
Tit
Tugayı
Viz
Yanlı
Zelen
holigan
kuk
kralı
las
ncu
pet
piskopos
sında
sesini
tu
trak
toz
tiryak
vası
Çünkü
Çern
Çelenk
Ücret
çür
çit
çalan
çelenk
İleri
ır
Şunu
Şans
##adis
##amayız
##sol
##yom
##yuk
##ila
##ios
##dun
##novo
##eda
##cun
##zak
##vin
##hda
##BP
##İNA
##latif
##latacak
##labilen
##ineri
##inovski
##ınmış
##irim
##eksiyonu
##ethe
##dita
##asın
##urum
##yağı
##osyon
##ulli
##ulmasının
içten
görk
gördüm
görülecek
yapabileceğini
ars
kardi
karbon
##laştı
veric
vermesiyle
##ruyor
anıldı
konulan
açıldığını
açısına
gelenin
gelmediği
##cılığa
##ımda
##üller
##lamayan
işinin
işlek
söylemeye
##ilimada
toplanıyor
topladığı
toplamayı
##ersek
karşılığı
##ipedia
açıklamak
biliyordu
seçilmesinin
çıkmada
çıkmasıyla
suçunu
suçlanmıştı
durmaya
yaptıktan
Sotir
yüzdesi
##guay
Makedonyalı
düzeninin
##icu
çalışmasında
sayıldı
gösterilere
düşüne
olmamalı
döner
teker
belirtmesine
diğerlerinden
ilkelerinin
varlığın
##giani
oylar
konuşmasına
##imizden
girdiler
girmesiyle
##bach
müzakereciler
hazırlığı
##silik
Ort
##ulup
dışından
Realit
Reeker
kazanacağını
zora
##sia
##sima
gazisi
dergi
zamanki
muhafız
##leşmeye
imzalaya
imzaladığını
haftalardır
Kıy
##ache
Banca
Bandiç
projelerde
##diklerine
turizme
sınırlarında
hedeflerinden
kesmek
toplumundan
Bakana
Bakanları
yasalarda
mücadeleyle
kaçış
alınabilir
toplantılarda
kurumlarındaki
edenlere
bildirim
kısalt
Erb
tanımayacağını
satacak
Günlük
sigar
terim
##mızda
Brnjak
onaylanmasına
tamamlamaya
tamamlayacak
düşünüldüğünde
geçirilmesinin
öneren
sevgi
dahilindeki
şartlarla
programlara
kıtanın
düzeyini
Almanlar
sorumlularının
artırıldı
ürettiği
135
##memizi
##memektedir
Boro
Boskoviç
Bosanski
faaliyeti
görülmektedir
Kardinal
gerçekleştireceği
oluşması
Yugo
UNOD
mevcuttur
gönderilmiş
gönderdikleri
aştığını
tahrip
kime
Güvenli
etkinliğini
meydanında
istikrarının
firmaya
beklemediğini
girişimlerde
Radoviç
Radoj
bıraktılar
cumhurbaşkanlığını
katıldığında
ICJ
Özbek
dikkatleri
anlamında
Mücahit
çalışanının
öngörüsünde
açtığına
diploması
seviyesindeki
Kres
turizmini
stratejisinde
kutlanıyor
edilmeleri
Olimpiyatlarında
tehditlerin
Akropolis
koalisyonunu
başbakanlığa
uğruyor
yakalanma
eurodan
ölçüt
##linda
çalışıyorum
devredecek
dinle
dinsel
çerçevesindeki
Savaştan
bölünmesini
milletvekiline
teklifçi
payda
patlayan
Ortaçağ
Afrim
seg
Luc
istemesine
suçlamalarına
yapacaktır
uzaklaşma
satışıyla
muhak
karşılaşılan
işletilen
işletmec
oturuma
oturuyor
Trajan
Stanisiç
planlıyoruz
söyleyemem
atıcılık
yaralanmasına
noktalarda
noktalarından
kayıtları
Grubunda
mesajını
tesiste
içerecek
içerdiği
biçimleri
Jokiç
kapıyı
santraller
##mezken
personele
kasabada
Suçlar
Fatlum
kalmaması
gezen
odaklanmak
Ohio
Micunoviç
cephe
vizesi
çoğuna
başarısızlığı
Festivaline
kiralık
egemenliğine
piyasadaki
cumhuriyetlerinin
Stefanopulos
reddetme
personeline
gemilerin
sokakları
talebine
götürüyor
merhum
ayırmak
ayırdığı
dolup
sempat
teşkilatına
teşkilatından
garip
Big
özerkliği
kolaylaştıran
göçmenlere
mahkumların
hamile
gidece
erişimine
hatırlatıyor
dağıtıldı
etkilendiğini
sözleşmeleri
performansına
normalde
boykotu
Sama
eğlenc
teknolojiler
teknolojinin
Kabin
vaatler
çetenin
Güreş
ithalatın
yöntemler
Cox
Mevlana
işsizliği
##erseniz
eğilimli
tasarıda
Djord
benzeyen
çözülmesinin
modeline
Salon
çaldı
Çocukları
##asebe
avantajı
Pavloviç
sıcaklık
Reformların
Dragnea
arabuluculuğunda
##ebilen
tatbikatlar
Zirvenin
belirlemeye
##olosluğu
Yöneticisi
cezalandırmak
çalışacaklar
yangınlar
boyutlu
kutlamalara
patlamamış
ettirmeye
zulümlerde
barikatlar
Şefi
göstergesidir
ezeli
Musevi
kınayarak
vaadi
Ferrer
düşmanlık
İhtiy
ordusuna
farklılıklara
Yang
dolaşımını
Vesnik
öfke
cihazı
Misceviç
##üğünün
güvenceler
yapılmaması
yapılmadığı
istişare
operatörleri
ayağı
rotasını
harcamak
okudu
eskiye
onarımı
katılabilmek
Lehtinen
Hedefimiz
cemaatinin
zincirinin
diktatörlük
çiğneyen
Pentag
civarına
yitirdi
Jasna
Tartışmalı
ATİNA
söyleyebiliriz
Çıkar
döndürme
müfreda
izleyiciler
Krajinalı
tehdidini
mimarı
trav
turnesi
toprağı
##ormack
Williamson
Komitesinin
Srebrenika
Veselinoviç
yuvası
Malev
karayolunun
Satın
uzanacak
niteleyen
tartışıyorlar
Lyub
Mağdur
Lord
parmaklıklar
mutfak
Hızlı
zemini
Çoğunluk
standardını
tünel
İyimser
pusula
kargaşaya
SOF
Akşamları
şehrinde
##AFT
Hintli
hediyeler
Komünizmin
Rajko
suyun
davranışı
Valisi
biyodizel
hiper
müvekkilinin
boğuş
zihinsel
Debar
Tzvetina
Kaçakçılığı
robot
sıvı
hortum
sekteye
Vancouver
kundak
alışılmadık
Muharrem
tüccar
Massari
Olağanüstü
Cernavoda
Wikipedia
nominal
LEFKOŞE
IAEA
##öğret
bahseden
keşfettiler
karamsar
Mercedes
Leposaviç
FYROM
MJAFT
Plovdiv
traktör
UNODC
Pentagon
Ayı
Açı
Bır
Bol
Bark
Cot
Califor
Elg
Ever
Gla
Gem
Getir
Hos
Jahor
Kimi
Kabil
Kolu
Kader
Kaya
Kud
MA
Mara
MRT
Not
Pur
Plo
Pand
Riv
RAE
Sko
Tol
Ug
Uni
VIP
Yemek
Zuz
adi
alamaz
bilerek
balistik
fen
fut
kâ
laf
nca
rü
sü
site
vok
yü
Çak
Çolak
ış
Şeş
##ain
##sw
##yer
##tları
##ref
##rib
##nava
##bes
##bus
##bilmesine
##bilmesinin
##çiye
##gov
##zad
##welle
##ONG
##IG
##invest
##arlar
##irt
##akla
##ilt
##ilmekle
##madım
##onescu
##lır
##lerc
##iseviç
##isidir
##lanmaktadır
##imum
##emary
yaya
görmektedir
##ıştır
##olosu
##edek
arıt
bularak
verirse
aldır
anavatan
açısını
gelmesiyle
entel
enstitü
sürmüştü
işit
işgali
ında
ından
Sırbistanlı
olanağına
söylemedi
kurmakla
yöne
Arist
toplanarak
##dari
eklendi
eklenecek
karşılanan
karşılanmasına
uymaya
##cağında
sağlar
##cica
seçmesi
çıkmadan
##edip
yaşı
##oliski
büyüklüğ
siyasileştir
anlaşılıyor
bölgelerden
Sot
##unac
Bulgarların
Yunanca
gerçektir
neo
yang
yangını
##icilik
çalışabilir
çalışacağı
getirilmesinde
özü
görüşlerine
görüşmeden
olmalarının
olmamasını
durumlara
belirtildiği
iyiliği
seçimini
ellerini
alanlarına
aziz
İsmet
varmış
sahiplerini
temize
107
kaldıklarını
krom
girmesinin
adasındaki
koştu
116
kullanmış
kullanmaları
erdikten
Ball
birlikler
birliklerin
hazırlamış
güçlen
bastırma
savaşçı
Reg
partiyle
##bilirler
geneline
gazileri
stüd
ziyaretçileri
zamanları
zamanlaması
imzalamıştı
Konkor
köl
ortaklarıyla
öncesinden
izlemeleri
şirketten
şirketlerden
gerçekleşmişti
ilerledi
sanatı
yayınev
yayınlayan
yayınlanıyor
yayıncılık
kaçıyor
kaçmayı
Milyon
gazetelerinden
çekecek
Endon
gözön
Erics
domat
tanıtan
tanıkları
beklenti
sürdürmenin
sürdüreceğine
sonuçlarıyla
Günay
atletizm
##ehenn
##trop
Brkiç
onaylanmasının
ayrıcalık
hayranı
engelley
önergesi
statünün
Anlaşmalar
programıyla
İşsiz
İşçiler
üniter
artırılmasının
örgütten
örgütleriyle
hızının
cezasıyla
gönül
kuruluşlara
gerekiyorsa
165
183
Borrell
Cumhuriyetinin
144
bakıma
Hükümete
başkalarına
yolsuzluklarla
Sanay
ayrılmasının
ayrılırken
iddialarından
hareketlerini
hatlarını
organik
Bilyana
kimya
kriziyle
yaratmayı
pazarlarını
maliyesi
ilişkilerdeki
firmasıyla
değerlendirmeler
Sorunu
##etih
girişimciler
kampı
makamlarından
Radoslav
bilginin
bilgiyi
başardılar
Mary
düzenlemesini
EUCOM
politikaya
fiyatlarla
ICMP
dönüşünde
zorundadır
yaşananlar
gençlerinin
artıştan
çağrılar
partizan
çalışanlarını
ağlarını
kontrollü
saldırılarından
artmış
tepesinde
yardımcılarından
koşucu
siyasetine
eylemlerle
eylemleriyle
fırlat
Kristi
hâl
bizleri
yaşadıklarını
Aktar
Milosevic
ihtilafların
tanınmasının
kullanılacağını
##ğince
Temsilc
sokan
sokmaya
ileriki
geliyordu
maaşların
eyaletinde
çerçeveye
çerçevesinin
diyaloğ
teklifte
payları
Bursa
ifadelerine
Turistler
##cell
Luci
Lucas
piyasasındaki
azalttı
listesinden
böylesine
netlik
ürünün
yasallığı
çevreyle
kapatarak
kapatılmasını
Chis
tahminlerin
misyona
misyonlara
Filmi
ücretlerin
başkente
rejime
inandırıcı
olanaksız
Uzay
vergisiz
çapta
eksikliğini
barınma
bariyer
bahçesi
Vlade
##sens
harcadı
ağırlıklı
Josef
Simatoviç
noktadan
noktalara
fırsattır
Denetim
Yakında
süreçteki
mensub
savunması
referandumlarda
fikirlere
koruduğunu
verecekleri
paylaşmak
köyün
köyleri
Yolunda
santralının
Pope
fabrikayı
kasabasından
Görüşme
üstlenmiş
yıkılmasından
büyükelçisini
uygulanmasıyla
sunulacağını
odaklanacak
sarsı
ilham
şarkıcısı
şarkısıyla
Gazette
1988
hesabı
hastalara
telefonları
gecikmenin
almasıyla
prosedürlerinin
birimlerinin
atanacak
##memişti
##orth
öngörülüyordu
dağılmasından
yüklen
Petrit
bürosunun
götürmek
Osmani
yönetmenliğini
sahnesi
sahnesine
Altında
Karadağlıların
ayrımcılığı
Matei
haneli
sergilemek
ertelenmiş
kiliseler
Beklendiği
popülerlik
edindiği
komutasını
edilebilecek
reddede
deneyimleri
Radyosunun
kitaplar
köprüsü
kategori
vazgeçmek
oturumuna
bakanlıkların
çetesi
gerektirdiğini
generalleri
İlişkileri
kalıyorlar
kökeni
biyok
refaha
1971
giderlerini
Djokoviç
ırksal
cesaretini
üsleri
##udio
yapacağım
340
zorluklara
keşf
##ğimde
yerleştirilmiş
depremin
yerleşmiş
olduğumuza
avantajları
Müzakereleri
öğretmenleri
verilmiyor
verilmeyecek
##ülüğü
havaalanına
bağımsızlığıyla
Sollaku
Solyom
maddeyi
Hax
380
Bogoljub
parlamentosuna
doğuya
amb
duyduklarını
tırm
testler
görünümü
dolduran
gazetecilerle
sergilenen
Kiev
tanıttı
odası
Amerikalılar
müşterilerin
Portekizli
tutulur
tezat
edebiliriz
forumu
##opolitan
incelenen
Baharı
Ilija
kazılar
şerit
blogcular
##mamıza
rotaları
kariyerini
birinciliği
istasyonları
atmosferi
Galla
##driz
ikinc
Besnik
sicili
Vecdi
laboratuvarı
Sanıklar
destekçilerinden
aceleye
Stavros
Timisoara
hemşireler
Hastane
ortaçağdan
kütüphane
Başpiskoposu
Prespa
Kesinlikle
gidişatını
Gönüllü
önderlik
simgeliyor
diaspora
yenilgiyi
silahsızlanma
1915
McCormack
arenada
##tığımızda
organizatörleri
motive
koktey
montaj
Zogiani
ferdi
Miladin
rıza
Balesi
moral
Başkenti
Paravac
meyvelerini
caydır
yayılan
manipülasyon
umduklarını
likidite
İşadamları
sivili
sıçrama
ânda
konvansiyonel
Devrimci
tahmininde
hanedan
kaptanı
##MYK
Suikast
Naumovski
Yiannis
Waldner
dehşet
riayet
Yakovu
Jeffrey
mahremiyet
itaat
Diaconescu
Westerwelle
Asamb
Bülent
Barkey
Konkordiya
Endonez
Ericsson
Bina
Bektaş
Constantin
Ceca
Ciliç
Dri
Dosya
EL
Ena
Fier
Fizik
Gev
Hvar
HNS
Imer
Jeliç
Jung
KA
Kans
Kod
Loz
Life
Maf
Maya
Menkul
Nuri
Olu
PS
Pus
Plana
Peder
Ron
Sas
She
Til
Ters
Than
Uf
Yemen
Zengin
Zelj
Zig
eK
had
lara
nazar
sans
sag
teydi
tüzel
ziy
zahmet
Çalık
çem
Şiş
şut
şişe
##aca
##ıd
##set
##sburg
##oban
##yumu
##teydi
##kop
##klarında
##rov
##ned
##fon
##ux
##uliç
##bağ
##ple
##jar
##jeli
##jag
##EE
##10
##FIC
##CA
##NBC
##labileceğine
##indeler
##ann
##aron
##ileceğine
##digi
##lırken
##athimerini
##iyesi
##imden
##emenin
##alg
##ovina
##ayetten
içen
##elerken
göreceği
görmedi
##avar
ett
etmedeki
yapmasının
yapabileceği
##caktır
önş
Sıra
##edak
artacağını
##abilmiş
##abildiğini
incisi
vermede
geleceğimiz
sürüm
##lamadığını
işçisi
işçinin
bulmaları
Anciç
Anıt
Busat
katılırken
üyesine
olacağının
gerekmediği
##kale
Başer
suc
uyması
##bileceğinin
##cağımı
açıklığa
##ador
çıkmaması
yolundan
suçlarına
yaşat
yaşarken
durmuş
sahaya
çalıyor
Belgrade
yapıyı
anlaşılması
Bulgu
onda
##icileri
getirmekte
getirmediğini
kadarıyla
ekonomilerini
istina
isteyip
aralık
aracın
görüşerek
gösteriye
gösterdik
##işten
görevlerin
görevlerinin
görevlerde
durumlarını
durumdur
belirtiler
##ansiyon
konsens
##liğimizi
unvanı
varlıklar
Birliğine
girilen
adamış
binada
yaklaştırma
ermeden
kabulüne
##üpür
güçleştir
Albin
liderini
tarihçiler
##inau
savaşını
sorununda
Reporter
kazanılmış
yönetti
bakanlığa
merkezlerini
haberin
habercisi
edebilm
stil
İnter
imzalamasına
Konvansiyon
mahkemelerine
##otopoulos
projelerinde
öncek
şirketlerde
akreditasyon
##eleniyor
amaçladığını
değişecek
saniy
yayınlanmasından
Milovan
Milevska
ölmüş
katılımdan
Atinalı
evr
çekerken
çekiyorlar
kısma
##abildiği
sürdürmekte
sürdürmektedir
Rusların
Pero
satranç
atıldığını
yakınlık
yakınlığı
##haney
onaylamak
onaylayacak
onaylamasından
çözümünün
sektörlerine
sektörlerdeki
gelecekle
geçirdikten
İtha
Demokratları
bunca
ulaşmasına
önerdiler
tutuklan
tutukev
tutuklanmasından
2500
kapsamda
kapsamını
artırmasını
desteklediklerini
yargıda
cezayı
Kosovalıların
tamir
tedar
##jaca
##memeli
##memesinin
duyurmuştu
görülmüş
bakma
oluşumu
Sanal
umduğu
Kurmay
UNFIC
kültürlü
nüfust
edilemeyecek
dikenli
yönetimler
filmine
ilişkilerimiz
silahlarını
225
çoğunluğuna
##dıklarına
etkileyecektir
başardığını
eleştirmen
eleştirmenler
fiyatın
standartlarında
alıcılar
Özt
kadınlardan
kontrolden
kontrolsüz
ödüllerini
saldırıyla
görünse
idarenin
Olimpik
Dairesinden
kazandıkları
Adası
şüpheye
Papoulias
Kole
nitelendirildi
kolaylaş
uygulamalara
Barr
##matör
Harp
yakalan
kalanıyla
yanlılarının
öldürmekten
sanatının
sokuyor
yükselme
devrini
kalacağına
parçasını
etkinliklerinden
Barışı
patlamanın
anketi
İttifakının
uçtu
Recepova
yapmalarını
##suura
uygulandığını
girişinin
bağlantılarını
çevrilemez
çevreleyen
cinsinden
Drago
Tekrar
karşılaşmaya
geçmişle
geçmişiyle
rejimiyle
##umuzda
karışım
serginin
komutanının
bahane
Siemen
##ımızdan
manevi
süreçlerinde
televizyonunda
kapasitelerini
ihracatına
Amerikanın
düşürmeye
savcılığa
riskinin
kaçakçılığından
donanma
Joa
##ardz
##ardziç
yurtdışı
saygıyı
eşitsizlik
araçlara
tartışmalarda
kızlar
kızkardeş
santrallerinin
##letici
See
unsurlarını
faydaları
Bağlantı
##kovac
Podravka
Aliyev
##ulacağı
Fonla
üstlenmek
ateşi
grip
başkentteki
sarfed
maliyetlerin
1985
diyalogda
inşasıyla
yetkilere
diplomatları
gecikmedi
yarıda
bozmak
bozmaya
temizliği
temizlenmesi
Tarık
şehirlerde
örneklerinden
Programına
rakib
hastanın
kaynağını
konserleri
derinlik
piyasalar
oylamasını
denizcilik
eserlerini
örgütüyle
iyileşmeler
##omobil
katılmaktan
Yatırımcı
gemisinin
başsavcının
Danas
Yasak
Petrom
atacağını
sokaktaki
görüştüğünü
paketin
götürdü
Sürdür
parçalanması
Gençlerin
dersi
maçını
kabinesinde
kabinesine
hazırlıksız
teşkilatında
hesaplarına
Citi
Samardziç
Hristo
maddelerinin
Matsuura
iddianamesinde
hafife
tasarrufu
sergilediğini
şikayetler
Dell
gerilla
Lieber
Liapis
edilebileceği
sözleşmeli
EBU
##emizde
siyasilerle
Gürsel
olağandışı
ithalatının
yöntemlerle
laikliği
dördünün
sakinlerinin
isteksizlik
garantör
belirsizliğe
Bozo
Fuara
şampiyonası
engellediğini
otellerin
alternatifi
işlediğini
cezasız
batılı
çalka
Pasapor
Die
yöneticiler
Jaeger
SPO
sürdürülebilirlik
turnuvasını
Metin
pasaportları
Şimon
Senad
Senatör
güvenilirliği
Dragutinoviç
kısıtlamalarının
sellerin
konuklar
tavsiyesinde
İlişkilerden
kitabının
##ebildi
dergisinde
subaylar
Zirvesinde
şebekeleri
##emişti
Kuruluna
Yarışmaya
yemekleri
Mits
hikayesini
cezalandırılması
hoşgörülü
Anayasanın
yapılmalı
internette
boyutta
sporcuların
sporcuları
ucuza
bildirgesinde
##cağımıza
rezervlerinin
Laborat
1967
belirlemede
bastıran
kilowatt
Ermeniler
Ermenilerin
Hukukun
##atea
dansları
kartlarını
Venez
Ferenc
duygular
tuttuğunu
boza
Kırk
Eleft
cezaevine
mağazası
animasyon
Eyaleti
##abiliyorlar
Andrew
ofisleri
incelenmesi
Forbes
Butrin
sağlayıp
formüle
ardıl
ebeveynler
Şiddetli
karşılıyoruz
tutturmak
Zorlu
hacminin
Muhabir
##hinasto
romanı
III
Wolfow
bitiş
uçurumu
USS
etkileyebileceği
##severler
Victoria
samim
Stamboliski
azalacak
Statüsü
koltuğuna
Metoh
Metodi
mevkidaşlarıyla
Christina
zorlaştırıyor
Krajisnik
torunu
yelken
Göçmen
##ografi
sürdürülmesine
minimum
Avukatlar
sabırlı
otomatikman
Portal
üssünde
Komitesine
Arifi
sömürü
akıbeti
bombanın
Kahn
Kahire
Raffi
örneğini
basılan
Tehlik
normlarına
milliyetçiliği
hırsızlığı
lağvedilmesi
Bratunac
Amaçlı
kenarındaki
Proksima
Gücünün
nişancı
Boğaz
BNR
galerisinde
Tenis
Anastas
yakalanamadı
Vinko
Zhel
gündüz
gündelik
sevinçle
imhası
reçet
Alliance
Tusup
intikam
gitarist
Stoyanov
casusluk
Seyirci
çamur
abartılı
adapte
kilometrekarelik
Amacımız
Christopher
Fildişi
IKEA
Macedonia
Transnist
Zvezdan
Nacional
dayanıklı
enstrüman
McElhaney
Felsefe
vasıf
SOFYA
Jahorina
Zuzul
rüya
stüdyo
domates
Chisinau
Haxhinasto
eKathimerini
istinaden
UNFICYP
Siemens
Lieberman
Wolfowitz
Aida
BA
Bent
Bje
Cal
Cha
Cvetkoviç
Celal
Doc
Eşi
Gid
Gala
Hon
Hus
IN
ISP
Jimnastik
Kn
KM
Karak
Kseni
Lech
Müller
NET
Pip
Perk
Poz
PRM
Rada
Rüzgar
Sli
Sid
SBiH
Sefer
Tütün
Us
UM
Ugr
Zel
ası
akan
bül
bez
ciro
dop
disk
frek
fedak
gov
hara
hit
iP
jest
kası
kınıyor
lah
razı
saya
tram
toka
yoz
zeki
Çing
Öde
Özerk
ül
İler
##misti
##olar
##yim
##igh
##tüsü
##dil
##dos
##düz
##kam
##neft
##con
##cusunun
##ğun
##PG
##çer
##çin
##çlar
##çet
##günü
##vel
##üğe
##hem
##jamin
##SC
##MF
##xha
##xhi
##GI
##arruz
##enno
##illet
##mamak
##madıklarını
##eküler
##lemiş
##esiy
##estan
##onim
##atlon
##isyan
##yali
dağını
##tian
##ikola
##osansür
##ovcanin
olmasında
##eck
##dudu
görerek
görmekte
etmelerinden
yapmıyor
önümüzde
##oko
inanış
ülkemizi
verilebilecek
yılla
yıllara
yıllardaki
konukları
açmaz
gelebileceğini
##artmanı
yerlerine
olduğunca
##ilmeyen
bulmasını
Ani
kuracağını
Buch
toplayıp
##lusunun
üyesiyle
üyelere
gerekmiyor
taraftaki
karşılan
suları
Makro
islam
sağlanmadığı
bildiği
seçmeye
seçilmesine
çıkacağı
##edim
##kent
suçlarda
suçlusu
ilgisinin
saht
savur
genci
hakimi
##arıma
bağlarını
Bulgaria
düzenine
##mesindeki
##sterdam
ekonomilerin
olmamasının
yasağının
tekne
mühendi
yaptığım
parasının
konsan
seçimle
alanlarından
azalı
##iyetler
tutu
tutarken
tuttuk
##gide
oylarının
##üslim
kalmasının
kalmaları
yetkiliyi
binaya
kullanmasını
kabulünü
##nakov
hazırlar
hazırlanmak
hazırlamakta
lidere
basıldı
sorundur
Reid
değilse
zordu
yönetme
yönetişim
bakana
edebiliyor
##leşmesine
##leşmesini
bütünlüğünün
##ettiler
yatırımlarda
##oten
izlem
##lendirmek
çıkarıldığını
polisiyle
alınmadı
alınmaması
olacakları
bağımsızlığından
157
Aracı
Araba
evinden
bildiren
bildirisi
kısmak
raporundan
##ğimizde
dolusu
beklentis
##uglas
değerlerin
sonuçtan
sattığı
yazında
atabileceği
vatandaşa
Partisini
geleceklerini
geçirip
pekiş
Rumyana
engellendi
güvenlikten
önermişti
tutukladılar
tutuklaya
İşlerden
olaylarıyla
otosansür
178
üretmeye
tartışılması
143
##odna
eğitimle
bakar
hizmetini
vurduğu
gerçekleştirildiği
umarım
iddiaya
iddialarla
askerini
hataları
Bosnalılar
durumdaydı
taşımaya
yaratabileceğini
pazardaki
pazarlarında
gitmiş
kaldırıyor
Topolan
değişikliklerden
kampta
makamlarla
etkileme
eleştirilen
diyorlar
katıldıktan
yaşamında
yaşamlarının
tanesini
##eceğimi
artışlar
Devleti
gidilecek
gidilmesini
muhalefetine
göründüğü
artmasıyla
istediğine
diplomatı
uygundur
gelirlerini
gelirse
cezaların
endişeye
almaması
almalarına
değiştiren
değiştirip
yardımcısının
##dour
ilanına
orduyu
eylemini
eylemlerinde
düzenlenmesine
kesimlerini
kesimlerine
operasyonuna
oluruz
edilmeye
uygulamalarının
ailesini
##bour
protestolarına
Karadz
öldürmekle
##nius
görülüyordu
devrinin
kalabilmek
maaşının
patates
Douglas
Ortalama
Korsan
Müslümanın
Turist
Romanlara
azaltarak
bütçeleri
Telef
Diğerleriyse
çevrili
Cher
Deg
okulunun
yararlanıyor
Bilimsel
çizim
satıştan
heyetle
##ılmamış
konumundaki
karşılaşıyorlar
Benjamin
inanmak
halkıyla
karışmış
sergisine
Uzak
komutanlığı
eksikliğinden
harcadığını
[...]
